{
  "version": "1.0",
  "truncation": null,
  "padding": null,
  "added_tokens": [
    {
      "id": 0,
      "content": "[UNK]",
      "single_word": false,
      "lstrip": false,
      "rstrip": false,
      "normalized": false,
      "special": true
    }
  ],
  "normalizer": null,
  "pre_tokenizer": {
    "type": "Metaspace",
    "replacement": "▁",
    "prepend_scheme": "never",
    "split": true
  },
  "post_processor": null,
  "decoder": {
    "type": "Metaspace",
    "replacement": "▁",
    "prepend_scheme": "never",
    "split": true
  },
  "model": {
    "type": "BPE",
    "dropout": null,
    "unk_token": "[UNK]",
    "continuing_subword_prefix": null,
    "end_of_word_suffix": null,
    "fuse_unk": false,
    "byte_fallback": false,
    "ignore_merges": false,
    "vocab": {
      "[UNK]": 0,
      "\n": 1,
      "!": 2,
      "\"": 3,
      "#": 4,
      "$": 5,
      "%": 6,
      "&": 7,
      "'": 8,
      "(": 9,
      ")": 10,
      "*": 11,
      "+": 12,
      ",": 13,
      "-": 14,
      ".": 15,
      "/": 16,
      "0": 17,
      "1": 18,
      "2": 19,
      "3": 20,
      "4": 21,
      "5": 22,
      "6": 23,
      "7": 24,
      "8": 25,
      "9": 26,
      ":": 27,
      ";": 28,
      "<": 29,
      "=": 30,
      ">": 31,
      "?": 32,
      "A": 33,
      "B": 34,
      "C": 35,
      "D": 36,
      "E": 37,
      "F": 38,
      "G": 39,
      "H": 40,
      "I": 41,
      "J": 42,
      "K": 43,
      "L": 44,
      "M": 45,
      "N": 46,
      "O": 47,
      "P": 48,
      "Q": 49,
      "R": 50,
      "S": 51,
      "T": 52,
      "U": 53,
      "V": 54,
      "W": 55,
      "X": 56,
      "Y": 57,
      "Z": 58,
      "[": 59,
      "\\": 60,
      "]": 61,
      "^": 62,
      "_": 63,
      "`": 64,
      "a": 65,
      "b": 66,
      "c": 67,
      "d": 68,
      "e": 69,
      "f": 70,
      "g": 71,
      "h": 72,
      "i": 73,
      "j": 74,
      "k": 75,
      "l": 76,
      "m": 77,
      "n": 78,
      "o": 79,
      "p": 80,
      "q": 81,
      "r": 82,
      "s": 83,
      "t": 84,
      "u": 85,
      "v": 86,
      "w": 87,
      "x": 88,
      "y": 89,
      "z": 90,
      "{": 91,
      "|": 92,
      "}": 93,
      "~": 94,
      "°": 95,
      "·": 96,
      "Ö": 97,
      "á": 98,
      "â": 99,
      "æ": 100,
      "ç": 101,
      "è": 102,
      "é": 103,
      "í": 104,
      "ñ": 105,
      "ö": 106,
      "ü": 107,
      "ā": 108,
      "ī": 109,
      "İ": 110,
      "Ś": 111,
      "ś": 112,
      "ū": 113,
      "ș": 114,
      "ə": 115,
      "ɦ": 116,
      "ɪ": 117,
      "ɾ": 118,
      "ʊ": 119,
      "ʱ": 120,
      "ʼ": 121,
      "ˈ": 122,
      "ː": 123,
      "ί": 124,
      "α": 125,
      "δ": 126,
      "θ": 127,
      "ν": 128,
      "π": 129,
      "ς": 130,
      "ό": 131,
      "ँ": 132,
      "ं": 133,
      "ः": 134,
      "अ": 135,
      "आ": 136,
      "इ": 137,
      "ई": 138,
      "उ": 139,
      "ऊ": 140,
      "ऋ": 141,
      "ऍ": 142,
      "ए": 143,
      "ऐ": 144,
      "ऑ": 145,
      "ओ": 146,
      "औ": 147,
      "क": 148,
      "ख": 149,
      "ग": 150,
      "घ": 151,
      "ङ": 152,
      "च": 153,
      "छ": 154,
      "ज": 155,
      "झ": 156,
      "ञ": 157,
      "ट": 158,
      "ठ": 159,
      "ड": 160,
      "ढ": 161,
      "ण": 162,
      "त": 163,
      "थ": 164,
      "द": 165,
      "ध": 166,
      "न": 167,
      "ऩ": 168,
      "प": 169,
      "फ": 170,
      "ब": 171,
      "भ": 172,
      "म": 173,
      "य": 174,
      "र": 175,
      "ल": 176,
      "ळ": 177,
      "व": 178,
      "श": 179,
      "ष": 180,
      "स": 181,
      "ह": 182,
      "ऻ": 183,
      "़": 184,
      "ऽ": 185,
      "ा": 186,
      "ि": 187,
      "ी": 188,
      "ु": 189,
      "ू": 190,
      "ृ": 191,
      "े": 192,
      "ै": 193,
      "ॉ": 194,
      "ॊ": 195,
      "ो": 196,
      "ौ": 197,
      "्": 198,
      "॔": 199,
      "।": 200,
      "०": 201,
      "१": 202,
      "२": 203,
      "३": 204,
      "४": 205,
      "५": 206,
      "६": 207,
      "७": 208,
      "८": 209,
      "९": 210,
      "॰": 211,
      "ం": 212,
      "ః": 213,
      "అ": 214,
      "ఆ": 215,
      "ఇ": 216,
      "ఈ": 217,
      "ఉ": 218,
      "ఋ": 219,
      "ఎ": 220,
      "ఏ": 221,
      "ఐ": 222,
      "ఒ": 223,
      "ఓ": 224,
      "ఔ": 225,
      "క": 226,
      "ఖ": 227,
      "గ": 228,
      "ఘ": 229,
      "చ": 230,
      "ఛ": 231,
      "జ": 232,
      "ఞ": 233,
      "ట": 234,
      "ఠ": 235,
      "డ": 236,
      "ఢ": 237,
      "ణ": 238,
      "త": 239,
      "థ": 240,
      "ద": 241,
      "ధ": 242,
      "న": 243,
      "ప": 244,
      "ఫ": 245,
      "బ": 246,
      "భ": 247,
      "మ": 248,
      "య": 249,
      "ర": 250,
      "ల": 251,
      "ళ": 252,
      "వ": 253,
      "శ": 254,
      "ష": 255,
      "స": 256,
      "హ": 257,
      "ా": 258,
      "ి": 259,
      "ీ": 260,
      "ు": 261,
      "ూ": 262,
      "ృ": 263,
      "ె": 264,
      "ే": 265,
      "ై": 266,
      "ొ": 267,
      "ో": 268,
      "ౌ": 269,
      "్": 270,
      "ṅ": 271,
      "ṇ": 272,
      "Ṛ": 273,
      "ṣ": 274,
      "ṭ": 275,
      "Ἰ": 276,
      " ": 277,
      " ": 278,
      "‌": 279,
      "‍": 280,
      "‎": 281,
      "–": 282,
      "—": 283,
      "‘": 284,
      "’": 285,
      "“": 286,
      "”": 287,
      "†": 288,
      "•": 289,
      "′": 290,
      "″": 291,
      "‹": 292,
      "›": 293,
      "⁡": 294,
      "₹": 295,
      "↑": 296,
      "−": 297,
      "ⓘ": 298,
      "▁": 299,
      "﻿": 300,
      "wi": 301,
      "ki": 302,
      "wiki": 303,
      "ia": 304,
      "dia": 305,
      "or": 306,
      "tt": 307,
      "](": 308,
      ":/": 309,
      "htt": 310,
      "http": 311,
      "://": 312,
      "pe": 313,
      "](http": 314,
      "s://": 315,
      "](https://": 316,
      "g/": 317,
      ".or": 318,
      ".org/": 319,
      "pedia": 320,
      ".wiki": 321,
      ".org/wiki": 322,
      ".org/wiki/": 323,
      ".wikipedia": 324,
      ".wikipedia.org/wiki/": 325,
      "▁[": 326,
      "te": 327,
      "en": 328,
      "▁\"": 329,
      "\")": 330,
      "in": 331,
      "an": 332,
      "on": 333,
      "In": 334,
      "ti": 335,
      "th": 336,
      "](https://en": 337,
      "](https://en.wikipedia.org/wiki/": 338,
      "hi": 339,
      "India": 340,
      "er": 341,
      "ar": 342,
      "20": 343,
      "al": 344,
      "re": 345,
      "ार": 346,
      "▁|": 347,
      "es": 348,
      "▁क": 349,
      "](https://hi": 350,
      "](https://hi.wikipedia.org/wiki/": 351,
      "्र": 352,
      "of": 353,
      "is": 354,
      "tion": 355,
      "ci": 356,
      "the": 357,
      "भार": 358,
      "भारत": 359,
      "ed": 360,
      "▁-": 361,
      "and": 362,
      "om": 363,
      "te_": 364,
      "▁स": 365,
      "it": 366,
      "్ర": 367,
      "▁(": 368,
      "▁of": 369,
      "▁the": 370,
      "#ci": 371,
      "#cite_": 372,
      "](https://te": 373,
      "](https://te.wikipedia.org/wiki/": 374,
      "ou": 375,
      "as": 376,
      "201": 377,
      "](https://en.wikipedia.org/wiki/India": 378,
      "ార": 379,
      "्य": 380,
      "▁म": 381,
      "ic": 382,
      "▁India": 383,
      "19": 384,
      "le": 385,
      "OT": 386,
      "no": 387,
      "oo": 388,
      "▁in": 389,
      "id": 390,
      "रा": 391,
      "ra": 392,
      "**": 393,
      "▁प": 394,
      "ent": 395,
      "▁s": 396,
      "200": 397,
      "ate": 398,
      "](https://en.wikipedia.org/wiki/India#cite_": 399,
      "ान": 400,
      "▁and": 401,
      "-0": 402,
      "▁p": 403,
      "ాల": 404,
      "et": 405,
      "ri": 406,
      "ac": 407,
      "\\_": 408,
      "र्": 409,
      "ing": 410,
      "ation": 411,
      "-1": 412,
      "us": 413,
      "am": 414,
      "▁c": 415,
      "▁C": 416,
      "్య": 417,
      "्त": 418,
      "ें": 419,
      "at": 420,
      "▁A": 421,
      "ag": 422,
      "ref": 423,
      "▁के": 424,
      "భార": 425,
      "note": 426,
      "భారత": 427,
      ").": 428,
      "దే": 429,
      "](https://hi.wikipedia.org/wiki/भारत": 430,
      "▁ह": 431,
      "▁S": 432,
      "దేశ": 433,
      "[[": 434,
      "స్": 435,
      "ook": 436,
      "▁f": 437,
      "या": 438,
      "ang": 439,
      "ad": 440,
      "ref-": 441,
      "note-": 442,
      "▁ప": 443,
      "▁t": 444,
      "ve": 445,
      "▁b": 446,
      "lo": 447,
      "li": 448,
      "78": 449,
      "సా": 450,
      "िक": 451,
      "ర్": 452,
      "um": 453,
      "\"),": 454,
      "ma": 455,
      "ur": 456,
      "ीय": 457,
      "న్": 458,
      "▁P": 459,
      "▁अ": 460,
      "com": 461,
      "we": 462,
      "▁1": 463,
      "lin": 464,
      "ver": 465,
      "ul": 466,
      "ist": 467,
      "IS": 468,
      ".\n": 469,
      "he": 470,
      "of_": 471,
      "ww": 472,
      "FO": 473,
      "▁में": 474,
      "_of_": 475,
      "NOT": 476,
      "OTNOT": 477,
      "FOOTNOT": 478,
      "FOOTNOTE": 479,
      "978": 480,
      "BN": 481,
      "ch": 482,
      "▁[↑": 483,
      "ial": 484,
      "red": 485,
      "st": 486,
      "ISBN": 487,
      "ro": 488,
      "ory": 489,
      "ce": 490,
      "fi": 491,
      "▁m": 492,
      "▁201": 493,
      "▁|\n": 494,
      "िया": 495,
      "00": 496,
      "un": 497,
      "न्": 498,
      "ाल": 499,
      "ों": 500,
      "లు": 501,
      "्ष": 502,
      "वि": 503,
      "link": 504,
      "=1": 505,
      "▁d": 506,
      "▁w": 507,
      "il": 508,
      "▁**": 509,
      "21": 510,
      "ons": 511,
      "రా": 512,
      "our": 513,
      "edit": 514,
      "ter": 515,
      "enti": 516,
      "action": 517,
      "]](https://en.wikipedia.org/wiki/India#cite_": 518,
      "▁ज": 519,
      "ना": 520,
      "▁T": 521,
      "action=": 522,
      "action=edit": 523,
      "ेश": 524,
      "](https://en.wikipedia.org/wiki/India#cite_ref-": 525,
      "]](https://en.wikipedia.org/wiki/India#cite_note-": 526,
      "&red": 527,
      "?action=edit": 528,
      "link=1": 529,
      "&redlink=1": 530,
      "?action=edit&redlink=1": 531,
      "ol": 532,
      "▁द": 533,
      "tic": 534,
      "▁M": 535,
      "▁R": 536,
      "identi": 537,
      "భారతదేశ": 538,
      "fier": 539,
      "identifier": 540,
      "_क": 541,
      "त्र": 542,
      "भा": 543,
      ".శ": 544,
      ".శ.": 545,
      "web": 546,
      "లో": 547,
      "राज": 548,
      "identifier)": 549,
      "-0)": 550,
      "సా.శ.": 551,
      "▁है": 552,
      "chi": 553,
      "res": 554,
      "▁to": 555,
      "](https://hi.wikipedia.org/wiki/भारत#cite_": 556,
      "▁క": 557,
      "ment": 558,
      "book": 559,
      "age": 560,
      "▁a": 561,
      "्व": 562,
      "▁B": 563,
      "pg": 564,
      "),": 565,
      "es/": 566,
      "త్ర": 567,
      "mp": 568,
      "ni": 569,
      ".j": 570,
      "ला": 571,
      "25": 572,
      "ాలు": 573,
      "▁प्र": 574,
      "ig": 575,
      "▁ब": 576,
      "23": 577,
      "▁भारत": 578,
      "cial": 579,
      "రి": 580,
      "ंग": 581,
      "క్": 582,
      "ति": 583,
      "books": 584,
      "10": 585,
      "और": 586,
      "_(": 587,
      "ంద": 588,
      "ता": 589,
      "▁D": 590,
      "▁e": 591,
      ".g": 592,
      "26": 593,
      "·**": 594,
      "▁**·**": 595,
      "ని": 596,
      "angu": 597,
      "▁వ": 598,
      "्ट": 599,
      "IT": 600,
      "▁न": 601,
      "ir": 602,
      "▁की": 603,
      ".com": 604,
      "▁l": 605,
      "ind": 606,
      "_स": 607,
      "ity": 608,
      "24": 609,
      "▁\"S": 610,
      "ER": 611,
      "▁India\")": 612,
      "▁से": 613,
      "EF": 614,
      ")\n": 615,
      "sia": 616,
      "ITER": 617,
      ".com/": 618,
      "्रे": 619,
      "ITEREF": 620,
      "india": 621,
      "me": 622,
      "ay": 623,
      "ల్": 624,
      "భారతదేశం": 625,
      "▁•": 626,
      "▁और": 627,
      "ly": 628,
      "▁[↑](https://en.wikipedia.org/wiki/India#cite_ref-": 629,
      "▁E": 630,
      "pecial": 631,
      "ion": 632,
      "▁*": 633,
      "▁का": 634,
      "षा": 635,
      "ంగ": 636,
      "ourc": 637,
      "199": 638,
      "con": 639,
      "स्त": 640,
      "▁స": 641,
      "_India": 642,
      "▁మ": 643,
      "pecial:": 644,
      "▁\"भारत": 645,
      "28": 646,
      "न्द": 647,
      "ित": 648,
      "tu": 649,
      "ld": 650,
      "al_": 651,
      "oun": 652,
      ".[[": 653,
      "Uni": 654,
      "up": 655,
      "#C": 656,
      "▁आ": 657,
      "్రా": 658,
      "राज्य": 659,
      "▁व": 660,
      "▁h": 661,
      "#CITEREF": 662,
      "gory": 663,
      "▁H": 664,
      "ategory": 665,
      "भाषा": 666,
      "ources/": 667,
      "ved": 668,
      "क्ष": 669,
      "Book": 670,
      "ber": 671,
      "_S": 672,
      "ास": 673,
      "978-0": 674,
      "ategory:": 675,
      "outh": 676,
      "▁G": 677,
      "Sources/": 678,
      "ీయ": 679,
      "▁N": 680,
      "pecial:Book": 681,
      "pecial:BookSources/": 682,
      "www": 683,
      "rom": 684,
      "mai": 685,
      "cal": 686,
      "](https://mai": 687,
      "-3": 688,
      "11": 689,
      "ండ": 690,
      "](https://mai.wikipedia.org/wiki/": 691,
      "for": 692,
      "sh": 693,
      "op": 694,
      "-4": 695,
      "_in": 696,
      "50": 697,
      "\")\n": 698,
      "ry": 699,
      "www.": 700,
      "archi": 701,
      "ct": 702,
      "ew": 703,
      "జ్య": 704,
      "el": 705,
      "देश": 706,
      "anguage": 707,
      "▁చ": 708,
      "▁200": 709,
      "▁g": 710,
      "ress": 711,
      "पु": 712,
      "-8": 713,
      "n_": 714,
      "▁त": 715,
      "▁on": 716,
      "▁20": 717,
      "ary": 718,
      "स्": 719,
      "తా": 720,
      "▁re": 721,
      "vers": 722,
      "ము": 723,
      "err": 724,
      "నా": 725,
      "archive": 726,
      "calf": 727,
      "--": 728,
      ".in": 729,
      "తి": 730,
      "్ట": 731,
      "\").": 732,
      "22": 733,
      "ub": 734,
      "▁th": 735,
      "etcalf": 736,
      "▁---": 737,
      "ab": 738,
      "मा": 739,
      ".jpg": 740,
      "30": 741,
      "री": 742,
      "](https://en.wikipedia.org/wiki/India#CITEREF": 743,
      "ची": 744,
      "_A": 745,
      "ak": 746,
      "18": 747,
      "ast": 748,
      "సి": 749,
      "▁ग": 750,
      "ish": 751,
      "978-0-": 752,
      "णी": 753,
      "▁19": 754,
      "త్": 755,
      "था": 756,
      "▁.": 757,
      "The": 758,
      "od": 759,
      "▁or": 760,
      "ड़": 761,
      "▁[S": 762,
      "ge": 763,
      "▁n": 764,
      "ष्ट": 765,
      "ted": 766,
      "_of_India": 767,
      "29": 768,
      "est": 769,
      "archive.org/": 770,
      "error": 771,
      "se": 772,
      "▁F": 773,
      "▁J": 774,
      "▁को": 775,
      "▁[\"": 776,
      "rit": 777,
      "▁(identifier)": 778,
      "_(identifier)": 779,
      "▁(identifier)\")": 780,
      "▁(సా.శ.": 781,
      "▁उ": 782,
      "▁from": 783,
      "]](https://en.wikipedia.org/wiki/India#cite_note-FOOTNOTE": 784,
      "Har": 785,
      "ाद": 786,
      "యా": 787,
      "▁ए": 788,
      "gh": 789,
      "ులు": 790,
      "▁రా": 791,
      "13": 792,
      "orld": 793,
      "15": 794,
      "over": 795,
      "ष्ट्र": 796,
      "40": 797,
      "web.": 798,
      "]](https://hi.wikipedia.org/wiki/भारत#cite_": 799,
      "–సా.శ.": 800,
      "ep": 801,
      "](https://web.": 802,
      "ount": 803,
      "/http": 804,
      "List": 805,
      "web/": 806,
      "archive.org/web/": 807,
      "](https://web.archive.org/web/": 808,
      "▁అ": 809,
      "▁by": 810,
      "▁./": 811,
      "im": 812,
      "का": 813,
      "▁for": 814,
      "Metcalf": 815,
      "ov": 816,
      "ి.": 817,
      "▁[म": 818,
      "ust": 819,
      "▁p.": 820,
      "श्रे": 821,
      "ud": 822,
      "श्रेणी": 823,
      "▁In": 824,
      "▁सं": 825,
      "▁पर": 826,
      "▁ప్ర": 827,
      "ने": 828,
      "हि": 829,
      "श्रेणी:": 830,
      "ిక": 831,
      "with": 832,
      "प्र": 833,
      "िल": 834,
      "ेत्र": 835,
      "27": 836,
      "umb": 837,
      "_म": 838,
      "ha": 839,
      "_and": 840,
      "gle": 841,
      "తం": 842,
      "ational": 843,
      "17": 844,
      "AA": 845,
      "mpl": 846,
      "▁ar": 847,
      "versity": 848,
      "▁श": 849,
      "16": 850,
      "ts": 851,
      "▁\"C": 852,
      "▁है।": 853,
      "id=": 854,
      "म्": 855,
      "▁is": 856,
      "▁[A": 857,
      "ain": 858,
      "##": 859,
      "har": 860,
      "ले": 861,
      "ిన": 862,
      "▁([": 863,
      "జ్యం": 864,
      "▁L": 865,
      "oogle": 866,
      "_के": 867,
      "conom": 868,
      "▁वि": 869,
      "](https://en.wikipedia.org/wiki/S": 870,
      "14": 871,
      "▁Indian": 872,
      "▁O": 873,
      "జా": 874,
      "978-1": 875,
      "ens": 876,
      "्या": 877,
      "▁be": 878,
      "?id=": 879,
      "सं": 880,
      "books.g": 881,
      ".com/books": 882,
      "oogle.com/books": 883,
      "books.google.com/books": 884,
      "ంచ": 885,
      "కు": 886,
      "▁[ISBN": 887,
      "books.google.com/books?id=": 888,
      "_C": 889,
      "िय": 890,
      "▁इ": 891,
      "](https://te.wikipedia.org/wiki/భారతదేశం": 892,
      ".gov": 893,
      "-9": 894,
      "▁\"ISBN": 895,
      "ISBN_(identifier)": 896,
      "'s": 897,
      "px": 898,
      "mons": 899,
      "em": 900,
      "ను": 901,
      "పూ": 902,
      "_P": 903,
      "▁र": 904,
      "*.": 905,
      "media": 906,
      "▁W": 907,
      "](https://hi.wikipedia.org/wiki/भारत#cite_ref-": 908,
      "]](https://hi.wikipedia.org/wiki/भारत#cite_note-": 909,
      "nd": 910,
      "s/": 911,
      "▁K": 912,
      "▁Asia": 913,
      "ap": 914,
      "सा": 915,
      "ng": 916,
      "భా": 917,
      "_in_India": 918,
      "▁[C": 919,
      "arg": 920,
      "ther": 921,
      "▁[*": 922,
      "](https://books.google.com/books?id=": 923,
      "inal": 924,
      "ప్ర": 925,
      "av": 926,
      "ద్": 927,
      "ింద": 928,
      "त्त": 929,
      "](https://en.wikipedia.org/wiki/C": 930,
      "errors": 931,
      "uc": 932,
      "os": 933,
      "Harv": 934,
      "▁भाषा": 935,
      "_के_": 936,
      "de": 937,
      "राष्ट्र": 938,
      "University": 939,
      "▁ఉ": 940,
      "ff": 941,
      "o-": 942,
      "▁The": 943,
      "ం:": 944,
      "र्व": 945,
      "load": 946,
      "ut": 947,
      "p.": 948,
      ".wikimedia": 949,
      "commons": 950,
      "upload": 951,
      ".in/": 952,
      "log": 953,
      "ी](https://hi.wikipedia.org/wiki/": 954,
      "per": 955,
      "▁\"M": 956,
      "▁ఆ": 957,
      "![": 958,
      "ज़": 959,
      "pedia/": 960,
      ".org/wikipedia/": 961,
      ".wikimedia.org/wikipedia/": 962,
      "upload.wikimedia.org/wikipedia/": 963,
      "ort": 964,
      "thumb": 965,
      "](https://upload.wikimedia.org/wikipedia/": 966,
      "्षेत्र": 967,
      "-2": 968,
      "ong": 969,
      "fn": 970,
      "/thumb": 971,
      "/thumb/": 972,
      "▁\"म": 973,
      "](S": 974,
      "](https://upload.wikimedia.org/wikipedia/commons": 975,
      "▁pp.": 976,
      "▁ర": 977,
      "▁सा": 978,
      "▁[↑](https://en.wikipedia.org/wiki/India#cite_ref-FOOTNOTE": 979,
      "](https://upload.wikimedia.org/wikipedia/commons/thumb/": 980,
      "-7": 981,
      "px-": 982,
      ")[[": 983,
      "br": 984,
      "ys": 985,
      "िस": 986,
      "మా": 987,
      "▁సా": 988,
      "భారతీయ": 989,
      "umm": 990,
      "PA": 991,
      "ी_": 992,
      "▁[M": 993,
      "వా": 994,
      "und": 995,
      "47": 996,
      "ance": 997,
      "Category:": 998,
      "రు": 999,
      "](https://en.wikipedia.org/wiki/M": 1000,
      "ow": 1001,
      "](Special:BookSources/": 1002,
      "1.": 1003,
      "35": 1004,
      "s,": 1005,
      "tein": 1006,
      "जा": 1007,
      "a_": 1008,
      "पा": 1009,
      "వి": 1010,
      "ష్ట": 1011,
      "ార్": 1012,
      "పూ.": 1013,
      "ec": 1014,
      "all": 1015,
      "ot": 1016,
      "▁orig": 1017,
      "ंड": 1018,
      "ी\")": 1019,
      "ूची": 1020,
      "ans": 1021,
      "క్ష": 1022,
      "rie": 1023,
      "ages": 1024,
      "-5": 1025,
      "मन": 1026,
      "▁ल": 1027,
      "](https://en.wikipedia.org/wiki/ISBN_(identifier)": 1028,
      "స్థ": 1029,
      "రిత్ర": 1030,
      "▁\"Special:BookSources/": 1031,
      "▁[ISBN](https://en.wikipedia.org/wiki/ISBN_(identifier)": 1032,
      "di": 1033,
      "%20": 1034,
      "▁[B": 1035,
      "cy": 1036,
      "▁as": 1037,
      "og": 1038,
      "▁\"B": 1039,
      "%2": 1040,
      "कार": 1041,
      "lig": 1042,
      "▁राज्य": 1043,
      "▁original": 1044,
      "oc": 1045,
      "art": 1046,
      "ll": 1047,
      "चि": 1048,
      "&pg": 1049,
      "ence": 1050,
      "&pg=": 1051,
      "_D": 1052,
      "2.": 1053,
      "गर": 1054,
      ".p": 1055,
      "ensus": 1056,
      "36": 1057,
      "tern": 1058,
      "](https://web.archive.org/web/201": 1059,
      "▁st": 1060,
      "న్న": 1061,
      "हा": 1062,
      "हिन्द": 1063,
      "यु": 1064,
      "कि": 1065,
      "▁भ": 1066,
      "aj": 1067,
      "▁I": 1068,
      "](http://": 1069,
      "opul": 1070,
      "ana": 1071,
      "ates": 1072,
      "विश": 1073,
      "स्तान": 1074,
      "▁\"P": 1075,
      "ture": 1076,
      "श्रेणी:Harv": 1077,
      "▁with": 1078,
      "▁\"A": 1079,
      "land": 1080,
      ".jp": 1081,
      "70": 1082,
      "&pg=PA": 1083,
      "rchi": 1084,
      "38": 1085,
      "▁Press": 1086,
      "▁Ret": 1087,
      "_M": 1088,
      "क्त": 1089,
      "overn": 1090,
      "▁हैं": 1091,
      "](https://te.wikipedia.org/wiki/భారతదేశం#cite_": 1092,
      "rieved": 1093,
      "▁Retrieved": 1094,
      "ht": 1095,
      "esh": 1096,
      "గా": 1097,
      "ंग्रे": 1098,
      "ere": 1099,
      "▁Category:": 1100,
      "omm": 1101,
      ".jpg)": 1102,
      "ोल": 1103,
      "ంట": 1104,
      "కి": 1105,
      "2006": 1106,
      "मी": 1107,
      "ेल": 1108,
      "ore": 1109,
      "](https://en.wikipedia.org/wiki/B": 1110,
      "▁no": 1111,
      "▁क्षेत्र": 1112,
      "nic": 1113,
      "మ్రా": 1114,
      "2018": 1115,
      "ష్ట్ర": 1116,
      ".jpg/": 1117,
      "ear": 1118,
      "titu": 1119,
      "▁te": 1120,
      "ine": 1121,
      "Te": 1122,
      "ile": 1123,
      "-10": 1124,
      "ummit": 1125,
      "धान": 1126,
      "पर": 1127,
      "ంత": 1128,
      "2011": 1129,
      "opulation": 1130,
      "\"))": 1131,
      "▁[↑](https://hi.wikipedia.org/wiki/भारत#cite_ref-": 1132,
      "ke": 1133,
      "mplate": 1134,
      "Indian": 1135,
      "ीप": 1136,
      "](https://en.wikipedia.org/wiki/P": 1137,
      "48": 1138,
      "द्": 1139,
      "ai": 1140,
      "▁&": 1141,
      "▁University": 1142,
      "ue": 1143,
      "ेला": 1144,
      "పు": 1145,
      "्रा": 1146,
      "ृत": 1147,
      "र्म": 1148,
      "*](https://books.google.com/books?id=": 1149,
      "60": 1150,
      "▁*[": 1151,
      "ries": 1152,
      "िर": 1153,
      "▁న": 1154,
      "ism": 1155,
      "overnment": 1156,
      "ेष": 1157,
      "▁[P": 1158,
      "ric": 1159,
      "మి": 1160,
      "ాన": 1161,
      "▁कर": 1162,
      "▁अन": 1163,
      "90": 1164,
      "Ind": 1165,
      "istory": 1166,
      "rchived": 1167,
      "िण": 1168,
      "ani": 1169,
      "-6": 1170,
      "श्": 1171,
      "language": 1172,
      "वा": 1173,
      "పా": 1174,
      "▁ఇ": 1175,
      "▁త": 1176,
      "▁[अ": 1177,
      "ubl": 1178,
      "/https://": 1179,
      "భాష": 1180,
      "ank": 1181,
      "ard": 1182,
      "ass": 1183,
      "_and_": 1184,
      "से": 1185,
      "▁१": 1186,
      "0%": 1187,
      "39": 1188,
      "▁was": 1189,
      "arget": 1190,
      "ire": 1191,
      "Hind": 1192,
      "▁\"अ": 1193,
      "▁language": 1194,
      "▁de": 1195,
      "Stein": 1196,
      "oi": 1197,
      "పాల": 1198,
      "లీ": 1199,
      "ord": 1200,
      "▁\"E": 1201,
      "ंध": 1202,
      "](https://hi.wikipedia.org/wiki/म": 1203,
      "7.": 1204,
      "als": 1205,
      "▁దేశ": 1206,
      "▁[भारत": 1207,
      "▁\"स": 1208,
      "ाना": 1209,
      "స్తా": 1210,
      "▁ex": 1211,
      "क्षिण": 1212,
      "sher": 1213,
      "धार": 1214,
      "%2C": 1215,
      "](https://www.": 1216,
      "▁an": 1217,
      "ीय_": 1218,
      "anguages": 1219,
      "▁are": 1220,
      "45": 1221,
      "ोत": 1222,
      "వర్": 1223,
      "ాయ": 1224,
      "▁\"क": 1225,
      "ations": 1226,
      "CS": 1227,
      "tics": 1228,
      "ata": 1229,
      "\").\n": 1230,
      "9.": 1231,
      "ies": 1232,
      "ach": 1233,
      "▁ने": 1234,
      "▁एक": 1235,
      "](https://en.wikipedia.org/wiki/A": 1236,
      "भि": 1237,
      "▁[स": 1238,
      "iss": 1239,
      "మ్రాజ్యం": 1240,
      "eral": 1241,
      "ountries": 1242,
      "ont": 1243,
      "](https://en.wikipedia.org/wiki/E": 1244,
      "46": 1245,
      "other": 1246,
      "les": 1247,
      "_b": 1248,
      "mber": 1249,
      "▁\"D": 1250,
      "▁\"List": 1251,
      "దేశ్": 1252,
      "4.": 1253,
      "ूल": 1254,
      "onstitu": 1255,
      "ss": 1256,
      "ोग": 1257,
      "ం](https://te.wikipedia.org/wiki/": 1258,
      "▁r": 1259,
      "▁ति": 1260,
      "▁\"G": 1261,
      "▁पु": 1262,
      "▁Hind": 1263,
      "विशेष": 1264,
      "mb": 1265,
      "लेख": 1266,
      "AJ": 1267,
      "▁[क": 1268,
      "/http://": 1269,
      "BAJ": 1270,
      "QBAJ": 1271,
      "ంబ": 1272,
      "టి": 1273,
      "▁it": 1274,
      "▁प्रदेश": 1275,
      "htm": 1276,
      "_R": 1277,
      "2010": 1278,
      "ingh": 1279,
      "-t": 1280,
      "ers": 1281,
      "43": 1282,
      "ib": 1283,
      "ian": 1284,
      "df": 1285,
      "ంలో": 1286,
      "▁\"ब": 1287,
      "స్తాన్": 1288,
      "ंद": 1289,
      "ंत्र": 1290,
      "▁V": 1291,
      "artic": 1292,
      "udd": 1293,
      "_G": 1294,
      "_T": 1295,
      "List_of_": 1296,
      "▁य": 1297,
      "▁[G": 1298,
      "▁\"भारतीय": 1299,
      "ford": 1300,
      "_N": 1301,
      "](https://en.wikipedia.org/wiki/D": 1302,
      "▁whi": 1303,
      "a\")": 1304,
      "जन": 1305,
      "గు": 1306,
      "డు": 1307,
      "నే": 1308,
      "్చ": 1309,
      "ical": 1310,
      "विशेष:": 1311,
      "tim": 1312,
      "थि": 1313,
      "ines": 1314,
      "ex": 1315,
      "978-0-19": 1316,
      "_B": 1317,
      "iv": 1318,
      "▁(P": 1319,
      "conomic": 1320,
      "aki": 1321,
      "▁[![": 1322,
      "77": 1323,
      "धिक": 1324,
      "మూ": 1325,
      "▁\"N": 1326,
      "్రీ": 1327,
      "AAQBAJ": 1328,
      "జాత": 1329,
      "49": 1330,
      "eng": 1331,
      "xford": 1332,
      "्री": 1333,
      "▁जन": 1334,
      "6.": 1335,
      "ern": 1336,
      "▁2011": 1337,
      "दी": 1338,
      "లా": 1339,
      "omp": 1340,
      "▁देश": 1341,
      "ంగా": 1342,
      "_Asia": 1343,
      "ati": 1344,
      "hm": 1345,
      "▁3": 1346,
      "india.gov": 1347,
      "▁[ब": 1348,
      ",_": 1349,
      "ction": 1350,
      "ral": 1351,
      "ूर्व": 1352,
      "्स": 1353,
      "డ్": 1354,
      "ిల్": 1355,
      "▁జ": 1356,
      "▁\"T": 1357,
      "MetcalfMetcalf": 1358,
      "RI": 1359,
      "1)": 1360,
      "_s": 1361,
      "au": 1362,
      "नी": 1363,
      "](https://hi.wikipedia.org/wiki/क": 1364,
      "stan": 1365,
      "5.": 1366,
      "ate_": 1367,
      "ik": 1368,
      "oli": 1369,
      "िट": 1370,
      "▁ख": 1371,
      "lop": 1372,
      "▁तथा": 1373,
      "cl": 1374,
      "▁–": 1375,
      "లి": 1376,
      "▁[N": 1377,
      "స్త్ర": 1378,
      "end": 1379,
      "ions": 1380,
      "ven": 1381,
      "▁[2": 1382,
      "▁भारतीय": 1383,
      "▁तिथि": 1384,
      "▁[D": 1385,
      ").\n": 1386,
      "_p": 1387,
      "गमन": 1388,
      "కా": 1389,
      "ణా": 1390,
      "దక్ష": 1391,
      "ధిక": 1392,
      "▁ప్రా": 1393,
      "▁వి": 1394,
      "సియా": 1395,
      "జాతీయ": 1396,
      "rou": 1397,
      "icial": 1398,
      "1998": 1399,
      "-p": 1400,
      "द्य": 1401,
      "ी_स": 1402,
      "▁च": 1403,
      "conomy": 1404,
      "▁भाषा\")": 1405,
      "vi": 1406,
      "ark": 1407,
      "-1)": 1408,
      "df)": 1409,
      "ँच": 1410,
      "ज्": 1411,
      "ढ़": 1412,
      "ून": 1413,
      "వం": 1414,
      "▁\"R": 1415,
      "2009": 1416,
      "▁సం": 1417,
      "▁చరిత్ర": 1418,
      "DF": 1419,
      ")\")": 1420,
      "मान": 1421,
      "▁ध": 1422,
      "▁[1": 1423,
      "250": 1424,
      "स्क": 1425,
      "new": 1426,
      "](https://en.wikipedia.org/wiki/G": 1427,
      "](https://en.wikipedia.org/wiki/R": 1428,
      "](https://en.wikipedia.org/wiki/T": 1429,
      "▁Ch": 1430,
      "4%": 1431,
      "E0%": 1432,
      "हास": 1433,
      "िश": 1434,
      "▁[E": 1435,
      "ties": 1436,
      "▁तिथि:": 1437,
      "▁which": 1438,
      "3.": 1439,
      "s.": 1440,
      "्ल": 1441,
      "డి": 1442,
      "bot": 1443,
      "ame": 1444,
      "वं": 1445,
      "म्ब": 1446,
      "ublic": 1447,
      "▁(PDF": 1448,
      "fe": 1449,
      "ope": 1450,
      "गु": 1451,
      "ती": 1452,
      "ంధ": 1453,
      "](https://en.wikipedia.org/wiki/N": 1454,
      "his": 1455,
      "స్త": 1456,
      "▁अभि": 1457,
      "▁రాజ్యం": 1458,
      "▁సామ్రాజ్యం": 1459,
      "వర్గ": 1460,
      "దక్షి": 1461,
      "▁अभिगमन": 1462,
      "8.": 1463,
      "DP": 1464,
      "ath": 1465,
      "riti": 1466,
      "United": 1467,
      "द्ध": 1468,
      "sv": 1469,
      "albot": 1470,
      "▁राज": 1471,
      "्रोत": 1472,
      "▁South": 1473,
      "out": 1474,
      "_1": 1475,
      "रकार": 1476,
      "हर": 1477,
      "దీ": 1478,
      "▁De": 1479,
      "ండి": 1480,
      "पुर": 1481,
      "వర్గం:": 1482,
      "4)": 1483,
      "▁ma": 1484,
      "ob": 1485,
      "त्": 1486,
      "▁li": 1487,
      "▁हैं।": 1488,
      "](https://en.wikipedia.org/wiki/List_of_": 1489,
      ".pdf)": 1490,
      "3)": 1491,
      "56": 1492,
      "80": 1493,
      "ated": 1494,
      "000": 1495,
      "्वीप": 1496,
      "territ": 1497,
      "Asher": 1498,
      "्ड": 1499,
      "తర": 1500,
      "ది": 1501,
      "▁బ": 1502,
      "▁[R": 1503,
      "▁स्": 1504,
      "▁India's": 1505,
      "िका": 1506,
      "▁जा": 1507,
      "राष्ट्रीय": 1508,
      "ult": 1509,
      "▁has": 1510,
      "▁that": 1511,
      "120": 1512,
      "मे": 1513,
      "ree": 1514,
      "ration": 1515,
      "स्तक": 1516,
      "पुस्तक": 1517,
      "▁[Archived": 1518,
      "विशेष:पुस्तक": 1519,
      "्रोत/": 1520,
      "gen": 1521,
      "ite": 1522,
      "पाल": 1523,
      "सभ": 1524,
      "ట్": 1525,
      "ిత": 1526,
      "RICS": 1527,
      "ous": 1528,
      "ुख": 1529,
      "ुस": 1530,
      "pend": 1531,
      "ational_": 1532,
      "ange": 1533,
      "to": 1534,
      "▁[T": 1535,
      "AAQBAJ&pg=PA": 1536,
      "ोक": 1537,
      "▁pro": 1538,
      "▁वर्": 1539,
      "mpire": 1540,
      "37": 1541,
      "_చ": 1542,
      "sland": 1543,
      "ty": 1544,
      "रब": 1545,
      "हार": 1546,
      "ం\")": 1547,
      "▁\"మ": 1548,
      "](https://hi.wikipedia.org/wiki/स": 1549,
      "ింది.": 1550,
      "eg": 1551,
      "iki": 1552,
      "▁\"प": 1553,
      ".jpg)\n": 1554,
      "किस्तान": 1555,
      "inist": 1556,
      "ile:": 1557,
      "िव": 1558,
      "▁5": 1559,
      "nolog": 1560,
      "▁इस": 1561,
      "▁2014": 1562,
      "%E0%": 1563,
      "▁ఎ": 1564,
      "▁[మ": 1565,
      "cont": 1566,
      "978-0-5": 1567,
      "▁(సా.శ.పూ.": 1568,
      "idge": 1569,
      "द्र": 1570,
      "▁मेला": 1571,
      "rad": 1572,
      "र्थ": 1573,
      "ountry": 1574,
      "aste": 1575,
      "ah": 1576,
      "न\")": 1577,
      "onstitution": 1578,
      "\"](https://web.archive.org/web/201": 1579,
      "mer": 1580,
      "ali": 1581,
      "2004": 1582,
      "File:": 1583,
      "शिया": 1584,
      "ధ్య": 1585,
      "▁గ": 1586,
      "▁శ": 1587,
      "रालेख": 1588,
      "velop": 1589,
      "10.": 1590,
      "ంద్ర": 1591,
      "..": 1592,
      "85": 1593,
      "्च": 1594,
      "▁सम": 1595,
      "▁सूची": 1596,
      "_E": 1597,
      "man": 1598,
      "ph": 1599,
      "hist": 1600,
      "elhi": 1601,
      "_भारत": 1602,
      "ost": 1603,
      "दक्षिण": 1604,
      "ष्": 1605,
      "ा_": 1606,
      "▁7": 1607,
      "▁हु": 1608,
      "_की_स": 1609,
      "_में": 1610,
      "त्तर": 1611,
      "ritish": 1612,
      "12": 1613,
      "ైన": 1614,
      "](https://te.wikipedia.org/wiki/మ": 1615,
      "▁పే": 1616,
      ".nic": 1617,
      "MetcalfMetcalf2006": 1618,
      "\"\n": 1619,
      "▁at": 1620,
      "▁[K": 1621,
      "](https://hi.wikipedia.org/wiki/अ": 1622,
      "ack": 1623,
      "ंग्रेज़": 1624,
      "रालेखित": 1625,
      "oh": 1626,
      "times": 1627,
      "ove": 1628,
      "ట్ట": 1629,
      "హింద": 1630,
      "▁భారతదేశం": 1631,
      "](File:": 1632,
      "amil": 1633,
      "ంగ్": 1634,
      "ద్ధ": 1635,
      "▁भी": 1636,
      "-b": 1637,
      "s\")": 1638,
      "hel": 1639,
      "ansk": 1640,
      "33": 1641,
      "ces": 1642,
      "census": 1643,
      "मिल": 1644,
      "▁pe": 1645,
      "html": 1646,
      "ames": 1647,
      "▁cent": 1648,
      "velopment": 1649,
      "dit": 1650,
      "ते": 1651,
      "थान": 1652,
      "ध्य": 1653,
      "bridge": 1654,
      "चित्र": 1655,
      "के": 1656,
      "न्त": 1657,
      "ించ": 1658,
      "▁ఒ": 1659,
      "▁భాష": 1660,
      "▁[క": 1661,
      "ase": 1662,
      "ాల్": 1663,
      "](https://en.wikipedia.org/wiki/India#cite_ref-FOOTNOTE": 1664,
      "mplate_": 1665,
      "-s": 1666,
      "2)": 1667,
      "na": 1668,
      "2007": 1669,
      "ambridge": 1670,
      "anskrit": 1671,
      "गण": 1672,
      "ण्ड": 1673,
      "फ़": 1674,
      "](https://hi.wikipedia.org/wiki/ब": 1675,
      "▁v": 1676,
      "196": 1677,
      "\\_S": 1678,
      "outh_Asia": 1679,
      "_प्र": 1680,
      "ीन": 1681,
      "▁[प": 1682,
      "▁\"The": 1683,
      "▁सरकार": 1684,
      "▁हि": 1685,
      "ज्ञ": 1686,
      "▁\"K": 1687,
      "usic": 1688,
      "IN": 1689,
      "]](https://te.wikipedia.org/wiki/భారతదేశం#cite_": 1690,
      "qu": 1691,
      "చ్చ": 1692,
      "జీ": 1693,
      "ేంద్ర": 1694,
      "▁\"క": 1695,
      "](https://hi.wikipedia.org/wiki/भारत_में": 1696,
      "नाम": 1697,
      "ury": 1698,
      "duc": 1699,
      "lia": 1700,
      "world": 1701,
      "ूप": 1702,
      "▁घ": 1703,
      "्रिट": 1704,
      "RC": 1705,
      "la": 1706,
      "▁un": 1707,
      "▁\"Indian": 1708,
      "yson": 1709,
      "A4%": 1710,
      "ug": 1711,
      "ant": 1712,
      "▁its": 1713,
      "/c": 1714,
      "tive": 1715,
      "रु": 1716,
      "త్య": 1717,
      "బ్": 1718,
      "మీ": 1719,
      "▁U": 1720,
      "orth": 1721,
      "▁[the": 1722,
      "isation": 1723,
      "](https://te.wikipedia.org/wiki/ద": 1724,
      "్యా": 1725,
      "రాష్ట్ర": 1726,
      "▁./వర్గం:": 1727,
      "▁4": 1728,
      "▁se": 1729,
      "हु": 1730,
      "ा:": 1731,
      "▁२": 1732,
      "▁[978-1": 1733,
      "▁(201": 1734,
      "▁History": 1735,
      "inent": 1736,
      "ome": 1737,
      "lection": 1738,
      "lish": 1739,
      "pu": 1740,
      "lion": 1741,
      "▁reg": 1742,
      "श्चि": 1743,
      "roup": 1744,
      "s-": 1745,
      "ood": 1746,
      "ril": 1747,
      "row": 1748,
      "ligion": 1749,
      "Oxford": 1750,
      "World": 1751,
      "ूच": 1752,
      "ूर": 1753,
      "ంక": 1754,
      "ప్": 1755,
      "యు": 1756,
      "any": 1757,
      "ater": 1758,
      "matics": 1759,
      "ulture": 1760,
      "ign": 1761,
      "తంత్ర": 1762,
      "](https://te.wikipedia.org/wiki/భారతదేశం#cite_ref-": 1763,
      "దక్షిణ": 1764,
      "]](https://te.wikipedia.org/wiki/భారతదేశం#cite_note-": 1765,
      "ashm": 1766,
      ".nic.in/": 1767,
      "Dw": 1768,
      "कर": 1769,
      "ख्या": 1770,
      "जी": 1771,
      "न्न": 1772,
      "▁./श्रेणी:": 1773,
      "dition": 1774,
      "akistan": 1775,
      "ef": 1776,
      "arch": 1777,
      "alay": 1778,
      "2005": 1779,
      "uring": 1780,
      "Template": 1781,
      "_by": 1782,
      "05": 1783,
      "▁199": 1784,
      "\"))\n": 1785,
      "alth": 1786,
      "न्द्र": 1787,
      "###": 1788,
      "59": 1789,
      "_స": 1790,
      "ave": 1791,
      "తము": 1792,
      "వే": 1793,
      "ష్": 1794,
      "ాన్": 1795,
      "స్క": 1796,
      "▁18": 1797,
      "ిల్లీ": 1798,
      "mund": 1799,
      "2003": 1800,
      "▁cont": 1801,
      "▁languages": 1802,
      "![](https://upload.wikimedia.org/wikipedia/commons/thumb/": 1803,
      "othermund": 1804,
      "_language": 1805,
      "por": 1806,
      "ैद": 1807,
      "ten": 1808,
      "\")*": 1809,
      "▁तक": 1810,
      "चीन": 1811,
      "साँच": 1812,
      "led": 1813,
      "](https://en.wikipedia.org/wiki/K": 1814,
      "urope": 1815,
      "▁wh": 1816,
      "irst": 1817,
      "/https://www.": 1818,
      ".sv": 1819,
      "▁[L": 1820,
      "▁[उ": 1821,
      "ulke": 1822,
      "age/": 1823,
      "_d": 1824,
      "▁ad": 1825,
      "▁St": 1826,
      "ogra": 1827,
      "radesh": 1828,
      "7)": 1829,
      "जरा": 1830,
      "జి": 1831,
      "ధాన": 1832,
      "బె": 1833,
      "ారు": 1834,
      "▁sub": 1835,
      "](https://hi.wikipedia.org/wiki/भारतीय_": 1836,
      "▁కా": 1837,
      "▁రాజ": 1838,
      "_and_S": 1839,
      "AARC": 1840,
      "978-0-521": 1841,
      "\\_errors": 1842,
      "help": 1843,
      "_भाषा": 1844,
      "▁हो": 1845,
      "odern": 1846,
      "जाब": 1847,
      "Singh": 1848,
      "\\_and": 1849,
      "▁mil": 1850,
      "▁2021": 1851,
      ".;": 1852,
      "ms": 1853,
      "सम": 1854,
      "ोर": 1855,
      "▁8": 1856,
      "ined": 1857,
      "ों_की_स": 1858,
      "▁नि": 1859,
      "ुसार": 1860,
      "▁2": 1861,
      "▁were": 1862,
      "port": 1863,
      "దు": 1864,
      "మ్": 1865,
      "శ్": 1866,
      "](https://te.wikipedia.org/wiki/క": 1867,
      "్యవ": 1868,
      "ంది.": 1869,
      "ound": 1870,
      "युक्त": 1871,
      "Stein2010": 1872,
      "_చరిత్ర": 1873,
      "6)": 1874,
      "▁le": 1875,
      "▁errors": 1876,
      "▁([help": 1877,
      "▁errors\"))\n": 1878,
      "-g": 1879,
      "74": 1880,
      "ंब": 1881,
      "ओं": 1882,
      "ीं": 1883,
      "](https://hi.wikipedia.org/wiki/प": 1884,
      "]](https://hi.wikipedia.org/wiki/भारत#cite_note-FOOTNOTE": 1885,
      "Indo-": 1886,
      "ission": 1887,
      "▁Hindu": 1888,
      "\"](https://www.": 1889,
      "rg": 1890,
      "▁26": 1891,
      "250px-": 1892,
      "continent": 1893,
      "doi": 1894,
      "erv": 1895,
      "ice": 1896,
      "▁विश": 1897,
      "olog": 1898,
      "ya": 1899,
      "une": 1900,
      "-m": 1901,
      "-india": 1902,
      "0.": 1903,
      "_F": 1904,
      "ुल": 1905,
      "ఢిల్లీ": 1906,
      "పంచ": 1907,
      "▁\"L": 1908,
      "▁किया": 1909,
      "](https://en.wikipedia.org/wiki/Indian_": 1910,
      "ారి": 1911,
      "▁मान": 1912,
      "_के_राज्य": 1913,
      "पाकिस्तान": 1914,
      ".jpg)](File:": 1915,
      "Stein1998": 1916,
      "ंदिर": 1917,
      "మూస": 1918,
      "्रिटिश": 1919,
      "Singh2009": 1920,
      "/p": 1921,
      "usines": 1922,
      "Edit": 1923,
      "PP": 1924,
      "Page/": 1925,
      "val": 1926,
      "ब्": 1927,
      "▁Comm": 1928,
      "▁Ap": 1929,
      "tical": 1930,
      "स्कृत": 1931,
      "%E0%A4%": 1932,
      "EditPage/": 1933,
      "fn_": 1934,
      "ru": 1935,
      "uary": 1936,
      "▁error": 1937,
      "template_": 1938,
      "no-t": 1939,
      "\\_no-t": 1940,
      "▁Sfn": 1941,
      "▁target": 1942,
      "fn\\_no-t": 1943,
      "▁template": 1944,
      "arget\\_errors": 1945,
      "india.gov.in/": 1946,
      "\\_Sfn\\_no-t": 1947,
      "_and_Sfn_": 1948,
      "\\_and\\_Sfn\\_no-t": 1949,
      "▁error:": 1950,
      "template_errors": 1951,
      "▁target:": 1952,
      "arget\\_errors\n": 1953,
      "_and_Sfn_template_errors": 1954,
      "\\_and\\_Sfn\\_no-target\\_errors\n": 1955,
      "1_": 1956,
      "_the": 1957,
      "hand": 1958,
      "प्त": 1959,
      "▁\"उ": 1960,
      "History": 1961,
      "Talbot": 1962,
      "[![](https://upload.wikimedia.org/wikipedia/commons/thumb/": 1963,
      "2008": 1964,
      "ght": 1965,
      "yste": 1966,
      "AsherTalbot": 1967,
      "एस": 1968,
      "వు": 1969,
      "▁\"భారతీయ": 1970,
      "old": 1971,
      "ran": 1972,
      "omb": 1973,
      "▁CITEREF": 1974,
      "▁2007": 1975,
      "34": 1976,
      "5)": 1977,
      "ंजाब": 1978,
      "वन": 1979,
      "िया\")": 1980,
      "ालय": 1981,
      "▁खाना": 1982,
      "▁सूची\")": 1983,
      "ों_की_सूची": 1984,
      "_c": 1985,
      "hind": 1986,
      "cies": 1987,
      "rate": 1988,
      "-d": 1989,
      "चल": 1990,
      "▁सब": 1991,
      "ाली": 1992,
      "▁प्रा": 1993,
      "▁[मूल": 1994,
      "inistry": 1995,
      "69": 1996,
      "Wiki": 1997,
      "air": 1998,
      "▁25": 1999,
      "on-": 2000,
      "](https://web.archive.org/web/20": 2001,
      "ail": 2002,
      "ैन": 2003,
      "జన": 2004,
      "టు": 2005,
      "టె": 2006,
      "ेंद्र": 2007,
      "](https://hi.wikipedia.org/wiki/भारत_क": 2008,
      "_Indian_": 2009,
      "▁చె": 2010,
      "నాయ": 2011,
      "▁गया": 2012,
      "▁उप": 2013,
      "–సా.శ.పూ.": 2014,
      "▁Asian": 2015,
      "▁ఆర్": 2016,
      "▁राज्यों": 2017,
      "](http://www.": 2018,
      "పాలిత": 2019,
      "धिकार": 2020,
      "స్త్రం:": 2021,
      "▁ప్రాంత": 2022,
      "ేంద్రపాలిత": 2023,
      "](https://te.wikipedia.org/wiki/దస్త్రం:": 2024,
      "vis": 2025,
      "1,": 2026,
      "62": 2027,
      "uk": 2028,
      "ari": 2029,
      "ise": 2030,
      "uly": 2031,
      "स्था": 2032,
      "▁१९": 2033,
      "/artic": 2034,
      "330": 2035,
      "▁sfn": 2036,
      "शास": 2037,
      "off": 2038,
      "ctor": 2039,
      "C&pg=PA": 2040,
      "ina": 2041,
      "ace": 2042,
      "aw": 2043,
      "ఖ్య": 2044,
      "గో": 2045,
      "తో": 2046,
      "బి": 2047,
      "హి": 2048,
      "ories": 2049,
      "▁\"F": 2050,
      "](https://en.wikipedia.org/wiki/L": 2051,
      "याल": 2052,
      "స్కృ": 2053,
      ".\"\n": 2054,
      "58": 2055,
      "ज्य": 2056,
      "म्रा": 2057,
      "▁territ": 2058,
      "ork": 2059,
      "ियों": 2060,
      "▁पुरालेखित": 2061,
      "चित्र:": 2062,
      "▁सबसे": 2063,
      "▁पुरालेखित।": 2064,
      "65": 2065,
      "shi": 2066,
      "rib": 2067,
      "ागर": 2068,
      "्ला": 2069,
      "▁17": 2070,
      "श्मी": 2071,
      "▁[भारतीय": 2072,
      "-in": 2073,
      "phi": 2074,
      "ister": 2075,
      "ystem": 2076,
      "_L": 2077,
      "_ప": 2078,
      "fter": 2079,
      "yn": 2080,
      "year": 2081,
      "आई": 2082,
      "హా": 2083,
      "ి.\n": 2084,
      "▁ను": 2085,
      "▁జాతీయ": 2086,
      "ority": 2087,
      "▁कि": 2088,
      "](https://hi.wikipedia.org/wiki/चित्र:": 2089,
      "▁pl": 2090,
      "ियाँ": 2091,
      "ustry": 2092,
      "%20%20": 2093,
      "क्ति": 2094,
      "్యవస్థ": 2095,
      "म्राज्य": 2096,
      "cre": 2097,
      "2014": 2098,
      "ashmir": 2099,
      "-l": 2100,
      "1/": 2101,
      "तमिल": 2102,
      "दा": 2103,
      "वरी": 2104,
      "▁ri": 2105,
      "aman": 2106,
      "▁2010": 2107,
      "तिहास": 2108,
      "nglish": 2109,
      "57": 2110,
      "8/": 2111,
      "data": 2112,
      "lass": 2113,
      "ori": 2114,
      "eneral": 2115,
      "▁ch": 2116,
      "Union": 2117,
      "▁April": 2118,
      "les/": 2119,
      "national": 2120,
      "की": 2121,
      "ेव": 2122,
      "ोर्": 2123,
      "।[[": 2124,
      "](https://en.wikipedia.org/wiki/F": 2125,
      "▁**[": 2126,
      "▁जिस": 2127,
      "स्थान": 2128,
      "माण": 2129,
      "ongress": 2130,
      "▁An": 2131,
      "lim": 2132,
      "umber": 2133,
      "ower": 2134,
      "रे": 2135,
      "డా": 2136,
      "దా": 2137,
      "బడ": 2138,
      "మే": 2139,
      "రణ": 2140,
      "▁లో": 2141,
      "edi": 2142,
      "entre": 2143,
      "▁కూ": 2144,
      "्वर": 2145,
      "ాలు,": 2146,
      "▁बाद": 2147,
      "▁आधार": 2148,
      "isher": 2149,
      "▁రాష్ట్ర": 2150,
      "▁संघ": 2151,
      "िल्ल": 2152,
      "కిస్తాన్": 2153,
      ".jpg/250px-": 2154,
      "▁చరిత్ర\")": 2155,
      "▁धर्म": 2156,
      "DwAAQBAJ&pg=PA": 2157,
      "121": 2158,
      "mar": 2159,
      "▁[F": 2160,
      "int": 2161,
      "100": 2162,
      "Rothermund": 2163,
      "च्च": 2164,
      "बंध": 2165,
      "▁India,": 2166,
      "](https://hi.wikipedia.org/wiki/भारत#CITEREF": 2167,
      "ople": 2168,
      "▁है।\n": 2169,
      "▁World": 2170,
      "▁साथ": 2171,
      "](https://hi.wikipedia.org/wiki/भारत_में_": 2172,
      "9)": 2173,
      "uch": 2174,
      "ugh": 2175,
      "▁6": 2176,
      "low": 2177,
      "▁Asia\")": 2178,
      "Hindi": 2179,
      "rd": 2180,
      "▁[सं": 2181,
      "ats": 2182,
      "▁15": 2183,
      "▁this": 2184,
      "▁विश्व": 2185,
      "Kulke": 2186,
      "Intern": 2187,
      "igh": 2188,
      "▁New": 2189,
      "/http://www.": 2190,
      "aper": 2191,
      "uj": 2192,
      "मुख": 2193,
      "▁ఈ": 2194,
      "▁ag": 2195,
      "▁భారత": 2196,
      "▁था": 2197,
      "▁\"श्रेणी:Harv": 2198,
      "](https://hi.wikipedia.org/wiki/श्रेणी:Harv": 2199,
      "▁सि": 2200,
      "ley": 2201,
      "्वत": 2202,
      "త్రి": 2203,
      "ాలు\")": 2204,
      "ాలు](https://te.wikipedia.org/wiki/": 2205,
      "_सं": 2206,
      "▁./Category:": 2207,
      "▁./श्रेणी:Harv": 2208,
      "imes": 2209,
      "](Special:BookSources/978-1": 2210,
      "▁\"Special:BookSources/978-1": 2211,
      "▁Island": 2212,
      "news/": 2213,
      "Template:": 2214,
      "▁([help](https://hi.wikipedia.org/wiki/श्रेणी:Harv": 2215,
      "_and_Sfn_template_errors?action=edit&redlink=1": 2216,
      "▁./श्रेणी:Harv\\_and\\_Sfn\\_no-target\\_errors\n": 2217,
      "▁([help](https://hi.wikipedia.org/wiki/श्रेणी:Harv_and_Sfn_template_errors?action=edit&redlink=1": 2218,
      "uman": 2219,
      "ombined": 2220,
      "gra": 2221,
      "टी": 2222,
      "नि": 2223,
      "▁[W": 2224,
      "▁countries": 2225,
      "▁Empire": 2226,
      "ी_भाषा": 2227,
      "श्चिम": 2228,
      "▁July": 2229,
      "_m": 2230,
      "णा": 2231,
      "](https://hi.wikipedia.org/wiki/उ": 2232,
      "्यट": 2233,
      "▁10": 2234,
      "क्षेत्र": 2235,
      "▁शास": 2236,
      "▁not": 2237,
      "ledge": 2238,
      "2_": 2239,
      "iron": 2240,
      "brary": 2241,
      "KulkeRothermund": 2242,
      "_క": 2243,
      "att": 2244,
      "ober": 2245,
      "ution": 2246,
      "తు": 2247,
      "పతి": 2248,
      "▁ని": 2249,
      "▁స్థ": 2250,
      "king": 2251,
      "▁[అ": 2252,
      "▁[ప": 2253,
      "▁\"భారతదేశం": 2254,
      "\").[[": 2255,
      "్రి": 2256,
      "197": 2257,
      "ర్వ": 2258,
      "న్ని": 2259,
      "▁Pl": 2260,
      "line": 2261,
      "mple": 2262,
      "మిళ": 2263,
      "Hindu": 2264,
      "వంశ": 2265,
      "गुजरा": 2266,
      "_प्रदेश": 2267,
      ",000": 2268,
      "_re": 2269,
      "▁[t": 2270,
      "cient": 2271,
      "semb": 2272,
      "गढ़": 2273,
      "मह": 2274,
      "वे": 2275,
      "ांग": 2276,
      "▁9": 2277,
      "▁थ": 2278,
      "ed.": 2279,
      "1947": 2280,
      "radition": 2281,
      "▁cons": 2282,
      "▁हिन्द": 2283,
      "\"](https://": 2284,
      "Dyson": 2285,
      "dom": 2286,
      "ure": 2287,
      "▁24": 2288,
      "lear": 2289,
      "act": 2290,
      "map": 2291,
      "▁Pro": 2292,
      "▁\"South": 2293,
      "▁government": 2294,
      "ummit\")": 2295,
      "7-1": 2296,
      "Combined": 2297,
      "वर्": 2298,
      "tember": 2299,
      "▁कार": 2300,
      "eptember": 2301,
      "fficial": 2302,
      "330px-": 2303,
      "2-0)": 2304,
      "viron": 2305,
      "▁off": 2306,
      "vironment": 2307,
      "51": 2308,
      "_మ": 2309,
      "_భాష": 2310,
      "ocial": 2311,
      "ves": 2312,
      "में": 2313,
      "००": 2314,
      "ఫ్": 2315,
      "▁స్": 2316,
      "▁[J": 2317,
      "▁[బ": 2318,
      "▁[స": 2319,
      "▁\"J": 2320,
      "▁\"అ": 2321,
      "now": 2322,
      "ide": 2323,
      "rab": 2324,
      "▁par": 2325,
      "న్నాయ": 2326,
      "▁కాల": 2327,
      "्वार": 2328,
      "▁have": 2329,
      "ులు](https://te.wikipedia.org/wiki/": 2330,
      "▁रूप": 2331,
      "▁రై": 2332,
      ".jpg)](https://te.wikipedia.org/wiki/దస్త్రం:": 2333,
      "▁language\")": 2334,
      "▁(PDF)": 2335,
      "హిందూ": 2336,
      "_at": 2337,
      "pr": 2338,
      "पति": 2339,
      "सद": 2340,
      "▁us": 2341,
      "▁मे": 2342,
      "▁Pradesh": 2343,
      "india/": 2344,
      "▁En": 2345,
      "▁गण": 2346,
      "also": 2347,
      "ographi": 2348,
      "/0": 2349,
      "countries": 2350,
      "ote": 2351,
      "pt": 2352,
      "uis": 2353,
      "van": 2354,
      "▁k": 2355,
      "▁year": 2356,
      "](https://en.wikipedia.org/wiki/J": 2357,
      "▁into": 2358,
      "_Press": 2359,
      "uclear": 2360,
      "engal": 2361,
      "uropean": 2362,
      "_और": 2363,
      "एं": 2364,
      "स्ट": 2365,
      "िन्": 2366,
      "ेर": 2367,
      "ड़ा": 2368,
      "▁यह": 2369,
      "ज्ञान": 2370,
      "ta": 2371,
      "\")*.": 2372,
      ".svg": 2373,
      "▁Commission": 2374,
      "%28": 2375,
      "Ar": 2376,
      "_K": 2377,
      "mi": 2378,
      "ङ्": 2379,
      "तेल": 2380,
      "ఆసియా": 2381,
      "ద్ర": 2382,
      "భూ": 2383,
      "మె": 2384,
      "య్య": 2385,
      "ర్య": 2386,
      "▁ల": 2387,
      "▁नाम": 2388,
      "▁[हिन्द": 2389,
      "▁\"इ": 2390,
      "▁\"ప": 2391,
      "▁\"బ": 2392,
      "▁\"స": 2393,
      "time": 2394,
      "▁their": 2395,
      "▁comp": 2396,
      "ref-1": 2397,
      "note-1": 2398,
      "anges": 2399,
      "▁[↑](https://te.wikipedia.org/wiki/భారతదేశం#cite_ref-": 2400,
      "▁during": 2401,
      "ill": 2402,
      "ctober": 2403,
      "త్త": 2404,
      "▁అధిక": 2405,
      "▁ప్రదేశ్": 2406,
      "नेपाल": 2407,
      "▁October": 2408,
      "ప్రదేశ్": 2409,
      "_summit": 2410,
      "त्प": 2411,
      "▁నుండి": 2412,
      "Dyson2018": 2413,
      "ince": 2414,
      "▁dis": 2415,
      "210": 2416,
      "▁2023": 2417,
      "argest": 2418,
      "▁[Archived](https://web.archive.org/web/20": 2419,
      "87": 2420,
      "तर": 2421,
      "भी": 2422,
      "ली": 2423,
      "▁\"विशेष:पुस्तक": 2424,
      "inister": 2425,
      "](https://hi.wikipedia.org/wiki/ISBN_(identifier)": 2426,
      "](https://hi.wikipedia.org/wiki/विशेष:पुस्तक": 2427,
      "▁स्रोत/": 2428,
      "▁पा": 2429,
      "entral": 2430,
      "](https://hi.wikipedia.org/wiki/भारत_के_": 2431,
      "▁दक्षिण": 2432,
      "लाई": 2433,
      "_स्रोत/": 2434,
      "▁[ISBN](https://hi.wikipedia.org/wiki/ISBN_(identifier)": 2435,
      "_के_आ": 2436,
      "▁लि": 2437,
      "साँचा:": 2438,
      "ांग्ला": 2439,
      "](https://hi.wikipedia.org/wiki/विशेष:पुस्तक_स्रोत/": 2440,
      "/A": 2441,
      "jab": 2442,
      "oor": 2443,
      "son": 2444,
      "ond": 2445,
      "idd": 2446,
      "▁Archived": 2447,
      "▁Aug": 2448,
      "▁first": 2449,
      "odi": 2450,
      "▁Press\").": 2451,
      "outledge": 2452,
      "120px-": 2453,
      "▁August": 2454,
      "-c": 2455,
      "73": 2456,
      "par": 2457,
      "काल": 2458,
      "सी": 2459,
      "annic": 2460,
      "्यव": 2461,
      "\\_with": 2462,
      "230": 2463,
      "ritannic": 2464,
      "ffair": 2465,
      "liament": 2466,
      "▁region": 2467,
      "8)": 2468,
      "_H": 2469,
      "fl": 2470,
      "ive": 2471,
      "▁also": 2472,
      "▁16": 2473,
      "india.gov.in": 2474,
      "▁(PDF).": 2475,
      "_अ": 2476,
      "ंप": 2477,
      "क्स": 2478,
      "खा": 2479,
      "बर": 2480,
      "िन": 2481,
      "ణి": 2482,
      "తమిళ": 2483,
      "మైన": 2484,
      "హార": 2485,
      "ోర్": 2486,
      "▁राष्ट्रीय": 2487,
      "▁\"ఇ": 2488,
      "▁\"భారత": 2489,
      "thnolog": 2490,
      "2023": 2491,
      "ार्ट": 2492,
      "](https://te.wikipedia.org/wiki/బ": 2493,
      "▁मु": 2494,
      "▁India:": 2495,
      "▁पूर्व": 2496,
      "▁class": 2497,
      "▁अप": 2498,
      "▁[↑](https://hi.wikipedia.org/wiki/भारत#cite_": 2499,
      "विधान": 2500,
      "▁जु": 2501,
      "ेश्वर": 2502,
      "▁Re": 2503,
      "▁है,": 2504,
      "ayan": 2505,
      "▁మొ": 2506,
      "▁विक": 2507,
      "](https://mai.wikipedia.org/wiki/भारत": 2508,
      "▁2024": 2509,
      "నాగ": 2510,
      "త్తర": 2511,
      "ులు\")": 2512,
      "history": 2513,
      "ूचना": 2514,
      "శ్మీ": 2515,
      "మూస:": 2516,
      "thnologue": 2517,
      "44": 2518,
      "gy": 2519,
      "ne": 2520,
      "▁22": 2521,
      "er,": 2522,
      "cience": 2523,
      "▁Sh": 2524,
      "-re": 2525,
      "76": 2526,
      "एशिया": 2527,
      "जय": 2528,
      "▁यु": 2529,
      "\")**": 2530,
      "India)": 2531,
      "▁world": 2532,
      "▁Th": 2533,
      "-80": 2534,
      "▁June": 2535,
      ".jpg/330px-": 2536,
      "▁अनुसार": 2537,
      "udden": 2538,
      "ban": 2539,
      "▁[I": 2540,
      "one": 2541,
      "Infor": 2542,
      "▁system": 2543,
      "▁September": 2544,
      "▁2019": 2545,
      "hism": 2546,
      "_पर": 2547,
      "धर्म": 2548,
      "बाद": 2549,
      "रक्ष": 2550,
      "ाष्ट्र": 2551,
      "िम": 2552,
      "–1": 2553,
      "ार्": 2554,
      "etwe": 2555,
      "िक्ष": 2556,
      "chnolog": 2557,
      "▁न्या": 2558,
      "नेमा": 2559,
      "_मेला": 2560,
      "धार_पर": 2561,
      "द्योग": 2562,
      "हाराष्ट्र": 2563,
      "_के_आधार_पर": 2564,
      "\\_with\\_": 2565,
      "etween": 2566,
      "_के_आधार_पर_भारत": 2567,
      "-language": 2568,
      "2-": 2569,
      "▁21": 2570,
      "racy": 2571,
      "▁con": 2572,
      "ishing": 2573,
      "ology": 2574,
      "%29": 2575,
      "ck": 2576,
      "ibrary": 2577,
      "ron": 2578,
      "rans": 2579,
      "tal": 2580,
      "धी": 2581,
      "శా": 2582,
      "ైనా": 2583,
      "▁wi": 2584,
      "▁[इ": 2585,
      "▁[ఇ": 2586,
      "▁\"జ": 2587,
      "▁\"हिन्द": 2588,
      "](https://te.wikipedia.org/wiki/ఇ": 2589,
      "](https://te.wikipedia.org/wiki/స": 2590,
      "భారత_": 2591,
      "adu": 2592,
      "ural": 2593,
      "▁2016": 2594,
      "unjab": 2595,
      "రాజ": 2596,
      "లో](https://te.wikipedia.org/wiki/": 2597,
      "రిజ": 2598,
      "క్కు": 2599,
      "1994": 2600,
      "ండ్": 2601,
      "-81": 2602,
      "▁[Archived](https://web.archive.org/web/201": 2603,
      "▁समय": 2604,
      "స్కృతి": 2605,
      "ool": 2606,
      "▁Population": 2607,
      "▁2014.\n": 2608,
      "\".": 2609,
      "_3": 2610,
      "pl": 2611,
      "pib": 2612,
      "वाद": 2613,
      "▁[H": 2614,
      "▁[न": 2615,
      "estern": 2616,
      "▁मंदिर": 2617,
      "▁population": 2618,
      "urr": 2619,
      "▁Metcalf": 2620,
      "resid": 2621,
      "ंगा": 2622,
      "राष्ट्रपति": 2623,
      "-2)": 2624,
      "हासागर": 2625,
      "ंग्रेज़ी": 2626,
      "▁subcontinent": 2627,
      "▁पुरालेखित।.": 2628,
      "▁जुलाई": 2629,
      "_के_आधार_पर_भारत_के_राज्य": 2630,
      "National_": 2631,
      "_%28": 2632,
      "iver": 2633,
      "▁per": 2634,
      "wing": 2635,
      "▁\"H": 2636,
      "▁part": 2637,
      "▁form": 2638,
      "University_Press": 2639,
      "978-0-19-8": 2640,
      "CE": 2641,
      "ee": 2642,
      "टे": 2643,
      "त्य": 2644,
      "लोक": 2645,
      "श्री": 2646,
      "ोन": 2647,
      "▁\"सं": 2648,
      "्यता": 2649,
      "▁2018": 2650,
      "_क्षेत्र": 2651,
      "▁2006": 2652,
      "▁एशिया": 2653,
      "ortal": 2654,
      "शासित": 2655,
      "sembly": 2656,
      "्यवस्था": 2657,
      "1-0)": 2658,
      "79": 2659,
      "oast": 2660,
      "ess": 2661,
      "▁Act": 2662,
      "oll": 2663,
      "▁Ind": 2664,
      "umbai": 2665,
      "-19": 2666,
      "a,": 2667,
      "ृष्": 2668,
      "ం?action=edit&redlink=1": 2669,
      "చే": 2670,
      "బా": 2671,
      "▁[జ": 2672,
      "▁\"O": 2673,
      "omen": 2674,
      "▁India\"),": 2675,
      "raven": 2676,
      "amb": 2677,
      "▁పా": 2678,
      "नाग": 2679,
      "▁వా": 2680,
      "ండు": 2681,
      "▁చూ": 2682,
      "త్వ": 2683,
      "aint": 2684,
      "ember": 2685,
      "ప్రధాన": 2686,
      "▁[↑](https://hi.wikipedia.org/wiki/भारत#cite_ref-FOOTNOTE": 2687,
      "▁తే": 2688,
      "▁देशों": 2689,
      "gency": 2690,
      "-20": 2691,
      "84": 2692,
      "pp": 2693,
      "are": 2694,
      "term": 2695,
      "epublic": 2696,
      "cri": 2697,
      "डिया": 2698,
      "ल\")": 2699,
      "ese": 2700,
      "ान\")": 2701,
      "र्द": 2702,
      "▁अधिक": 2703,
      "cember": 2704,
      "▁been": 2705,
      "▁रह": 2706,
      "depend": 2707,
      "▁साम्राज्य": 2708,
      "▁प्रदेश\")": 2709,
      "chnology": 2710,
      "75": 2711,
      "_University_Press": 2712,
      "fr": 2713,
      "tec": 2714,
      "eser": 2715,
      "▁but": 2716,
      "ument": 2717,
      "▁\"Ch": 2718,
      "▁[*A": 2719,
      ".jpg/120px-": 2720,
      "earch": 2721,
      "iddle": 2722,
      "ok": 2723,
      "ंक": 2724,
      "धु": 2725,
      "▁मा": 2726,
      "▁Cambridge": 2727,
      "▁between": 2728,
      "ंगाल": 2729,
      "▁तट": 2730,
      "▁एवं": 2731,
      "view": 2732,
      "श्मीर": 2733,
      "्वतंत्र": 2734,
      ".html": 2735,
      "ual": 2736,
      "▁al": 2737,
      "▁ac": 2738,
      "ped": 2739,
      "▁[[": 2740,
      "\"):": 2741,
      "edic": 2742,
      "andhi": 2743,
      "able": 2744,
      "ligi": 2745,
      "904": 2746,
      "3-0)": 2747,
      "_I": 2748,
      "_W": 2749,
      "_సా": 2750,
      "ft": 2751,
      "fric": 2752,
      "lad": 2753,
      "tates": 2754,
      "ule": 2755,
      "दिल्ल": 2756,
      "वै": 2757,
      "ृति": 2758,
      "ంప": 2759,
      "కో": 2760,
      "గణ": 2761,
      "దిన": 2762,
      "నై": 2763,
      "రీ": 2764,
      "encies": 2765,
      "▁\"W": 2766,
      "▁\"చ": 2767,
      "ering": 2768,
      "arh": 2769,
      "](https://te.wikipedia.org/wiki/జ": 2770,
      "ారం": 2771,
      "▁more": 2772,
      "▁క్రీ": 2773,
      "క్‌": 2774,
      "నికి": 2775,
      "ల్ల": 2776,
      "ంగీ": 2777,
      "▁సి": 2778,
      "నాభా": 2779,
      "▁1950": 2780,
      "ड़ी": 2781,
      "▁Jan": 2782,
      "Harle": 2783,
      "ाद्वीप": 2784,
      "harma": 2785,
      "జాబి": 2786,
      "▁[Ch": 2787,
      "](https://en.wikipedia.org/wiki/Ch": 2788,
      "▁[![](https://upload.wikimedia.org/wikipedia/commons/thumb/": 2789,
      "▁శా": 2790,
      "▁భాష\")": 2791,
      "బెంగ": 2792,
      "ujar": 2793,
      "ffairs": 2794,
      "జాబితా": 2795,
      "mu": 2796,
      "rish": 2797,
      "▁[3": 2798,
      "▁[e": 2799,
      "▁[v": 2800,
      "-17": 2801,
      "▁National": 2802,
      "▁bec": 2803,
      "avid": 2804,
      "%2F": 2805,
      "auth": 2806,
      "ritannica": 2807,
      "hy": 2808,
      "lang": 2809,
      "ose": 2810,
      "ीस": 2811,
      "ेट": 2812,
      "।\n": 2813,
      "▁Y": 2814,
      "▁all": 2815,
      "ini": 2816,
      "▁केंद्र": 2817,
      "istan": 2818,
      "भाग": 2819,
      "संख्या": 2820,
      "▁स्थ": 2821,
      "▁वर्ष": 2822,
      "oon": 2823,
      "ssembly": 2824,
      "▁[Indian": 2825,
      "rop": 2826,
      "▁music": 2827,
      "ourt": 2828,
      "berg": 2829,
      "▁century": 2830,
      "1–": 2831,
      ":[": 2832,
      "Ch": 2833,
      "GDP": 2834,
      "ीत": 2835,
      ".org/10.": 2836,
      "2024": 2837,
      "र्भ": 2838,
      "str": 2839,
      "म्प": 2840,
      "doi.org/10.": 2841,
      "गुजरात": 2842,
      "country": 2843,
      "▁es": 2844,
      "kim": 2845,
      "ade": 2846,
      "▁2020": 2847,
      ".as": 2848,
      "4-0)": 2849,
      "fic": 2850,
      "y\")": 2851,
      "ze": 2852,
      "एँ": 2853,
      "गो": 2854,
      "चे": 2855,
      "डी": 2856,
      "मार": 2857,
      "रण": 2858,
      "ैक": 2859,
      "ोड़": 2860,
      "చల్": 2861,
      "యన్": 2862,
      "షు": 2863,
      "ూర్": 2864,
      "peration": 2865,
      "▁[ज": 2866,
      "▁[చ": 2867,
      "▁[భారత": 2868,
      "▁[భారతీయ": 2869,
      "▁\"I": 2870,
      "](https://te.wikipedia.org/wiki/ప": 2871,
      "](https://te.wikipedia.org/wiki/భారతీయ": 2872,
      "ార్ట": 2873,
      "▁मूल": 2874,
      "icy": 2875,
      "ాలయ": 2876,
      "978-81": 2877,
      "ाला": 2878,
      "▁di": 2879,
      "▁dance": 2880,
      "▁जो": 2881,
      "▁after": 2882,
      "▁बहु": 2883,
      "క్క": 2884,
      "▁వ్యవస్థ": 2885,
      "▁सेना": 2886,
      "▁English": 2887,
      "▁ము": 2888,
      "ండో": 2889,
      "▁2009": 2890,
      "ముంబ": 2891,
      "సిన": 2892,
      "ినల్": 2893,
      ".gov.in/": 2894,
      "apit": 2895,
      "ద్ద": 2896,
      "▁ఉన్న": 2897,
      "▁ఉన్నాయ": 2898,
      "_De": 2899,
      "▁भू": 2900,
      "विश्व": 2901,
      ".jpg)](https://hi.wikipedia.org/wiki/चित्र:": 2902,
      "rick": 2903,
      "పాకిస్తాన్": 2904,
      "ompany": 2905,
      "clud": 2906,
      "म्बर": 2907,
      "ంధీ": 2908,
      "▁ఒక": 2909,
      "▁ఒరిజ": 2910,
      "्यटन": 2911,
      "వంశం": 2912,
      "▁తేదీ": 2913,
      "ార్టీ": 2914,
      "▁ఒరిజినల్": 2915,
      "88": 2916,
      "▁other": 2917,
      "iation": 2918,
      "ttar": 2919,
      "▁Census": 2920,
      "lob": 2921,
      "▁East": 2922,
      "times.com/": 2923,
      "2/": 2924,
      "Vi": 2925,
      "णि": 2926,
      "तु": 2927,
      "हित": 2928,
      "▁over": 2929,
      "ofindia": 2930,
      "▁comm": 2931,
      "▁ab": 2932,
      "▁वा": 2933,
      "▁[Stein": 2934,
      "▁For": 2935,
      "▁state": 2936,
      "हिन्दी": 2937,
      "censusindia.gov.in/": 2938,
      "ographic": 2939,
      "4–": 2940,
      "Asia": 2941,
      "p?": 2942,
      "pur": 2943,
      "wart": 2944,
      "zberg": 2945,
      "▁28": 2946,
      "anisation": 2947,
      "ones": 2948,
      "▁ind": 2949,
      "rade": 2950,
      "2001": 2951,
      "ing\\_": 2952,
      "chwart": 2953,
      "fore": 2954,
      "▁number": 2955,
      "▁Press.": 2956,
      "▁years": 2957,
      "chwartzberg": 2958,
      "500": 2959,
      "तिक": 2960,
      "भू": 2961,
      "ील": 2962,
      "▁छ": 2963,
      "▁27": 2964,
      "](https://en.wikipedia.org/wiki/W": 2965,
      "नाथ": 2966,
      "▁अन्य": 2967,
      "▁2011.\n": 2968,
      "ovement": 2969,
      "5_": 2970,
      "_O": 2971,
      "lam": 2972,
      "alley": 2973,
      "2019": 2974,
      "▁pri": 2975,
      "▁Congress": 2976,
      "▁Ar": 2977,
      "life": 2978,
      "ird": 2979,
      "ode": 2980,
      "ustral": 2981,
      "▁Development": 2982,
      "▁December": 2983,
      "%7": 2984,
      "31": 2985,
      "7/": 2986,
      "ID": 2987,
      "ges": 2988,
      "निक": 2989,
      "జ్": 2990,
      "వరి": 2991,
      "శ్చ": 2992,
      "ిన్న": 2993,
      "ెల": 2994,
      "ia\")": 2995,
      "pear": 2996,
      "▁[Metcalf": 2997,
      "▁\"आ": 2998,
      "▁\"భారతదేశ": 2999,
      "](https://en.wikipedia.org/wiki/H": 3000,
      "్రె": 3001,
      "2016": 3002,
      "anglad": 3003,
      "_of_the": 3004,
      "▁most": 3005,
      "▁May": 3006,
      "ాలు\n": 3007,
      "నిస్తాన్": 3008,
      "▁India\")\n": 3009,
      "▁మధ్య": 3010,
      "▁(identifier)\"):[": 3011,
      "▁उत्तर": 3012,
      "](https://te.wikipedia.org/wiki/భారతదేశంలో": 3013,
      "స్థాన్": 3014,
      "र्थिक": 3015,
      "▁పేజీ": 3016,
      "మ్మూ": 3017,
      "▁\"భారతదేశంలో": 3018,
      "▁చూసిన": 3019,
      "▁January": 3020,
      "▁తేదీ:": 3021,
      "శ్చి": 3022,
      "angladesh": 3023,
      "▁పేజీని": 3024,
      ".india": 3025,
      "_t": 3026,
      "a/": 3027,
      "arb": 3028,
      "amp": 3029,
      "eport": 3030,
      "cyc": 3031,
      "▁states": 3032,
      "obb": 3033,
      "-le": 3034,
      "CO": 3035,
      "co": 3036,
      "गोल": 3037,
      "टक": 3038,
      "धि": 3039,
      "रो": 3040,
      "ल्": 3041,
      "▁फ": 3042,
      "▁23": 3043,
      "asia": 3044,
      "1950": 3045,
      "2000": 3046,
      "▁Constitution": 3047,
      "▁अग": 3048,
      "▁अरब": 3049,
      "ross": 3050,
      "म्म": 3051,
      "-to-": 3052,
      "वंश": 3053,
      "▁जाता": 3054,
      "न्त्र": 3055,
      "महाद्वीप": 3056,
      "वेब": 3057,
      "▁official": 3058,
      "द्योगिक": 3059,
      "resident": 3060,
      "्वतंत्रता": 3061,
      "censusindia.gov.in/2011": 3062,
      "oth": 3063,
      "▁en": 3064,
      "eration": 3065,
      "theast": 3066,
      "▁tw": 3067,
      "come": 3068,
      "union": 3069,
      "olicy": 3070,
      "ticles": 3071,
      "▁election": 3072,
      "▁[South": 3073,
      "▁national": 3074,
      "_Centre": 3075,
      "ikshi": 3076,
      "▁[2](https://en.wikipedia.org/wiki/India#cite_ref-FOOTNOTE": 3077,
      "▁[1](https://en.wikipedia.org/wiki/India#cite_ref-FOOTNOTE": 3078,
      "▁territories": 3079,
      "ikshit": 3080,
      "*,": 3081,
      "IM": 3082,
      "िज": 3083,
      "▁\"न": 3084,
      "atus": 3085,
      "files/": 3086,
      "▁Talbot": 3087,
      "langoff": 3088,
      "-f": 3089,
      "67": 3090,
      "Fisher": 3091,
      "pa": 3092,
      "orther": 3093,
      "ann": 3094,
      "ash": 3095,
      "ased": 3096,
      "harat": 3097,
      "▁Hindi": 3098,
      "tent": 3099,
      "Fisher2018": 3100,
      "-26": 3101,
      "32": 3102,
      "CN": 3103,
      "_आ": 3104,
      "_territ": 3105,
      "cent": 3106,
      "f/": 3107,
      "lations": 3108,
      "rin": 3109,
      "s.[[": 3110,
      "द्वीप": 3111,
      "पे": 3112,
      "मंत्र": 3113,
      "रवरी": 3114,
      "ाट": 3115,
      "ूर्": 3116,
      "షన్": 3117,
      "హ్": 3118,
      "ెలు": 3119,
      "▁ड": 3120,
      "▁[आ": 3121,
      "▁[पु": 3122,
      "](https://te.wikipedia.org/wiki/అ": 3123,
      "agar": 3124,
      "wealth": 3125,
      "विज्ञान": 3126,
      "రియా": 3127,
      "▁మార్": 3128,
      "ड़े": 3129,
      "]](https://hi.wikipedia.org/wiki/भारत#cite_note-1": 3130,
      "▁Oxford": 3131,
      "ndaman": 3132,
      "ప్రపంచ": 3133,
      "ी](https://hi.wikipedia.org/wiki/अ": 3134,
      "olitical": 3135,
      "▁సంస్కృతి": 3136,
      "దీవ": 3137,
      "यालय": 3138,
      "▁[↑](https://hi.wikipedia.org/wiki/भारत#cite_ref-1": 3139,
      "Informatics": 3140,
      "▁2006](https://en.wikipedia.org/wiki/India#CITEREF": 3141,
      "-21": 3142,
      "ale": 3143,
      "andard": 3144,
      "ama": 3145,
      "▁1.": 3146,
      "▁2017": 3147,
      "nown": 3148,
      ".indiatimes.com/": 3149,
      "_ब": 3150,
      "has": 3151,
      "oci": 3152,
      "फल": 3153,
      "ौद्ध": 3154,
      "▁ऊ": 3155,
      "्रम": 3156,
      "▁spe": 3157,
      "▁13": 3158,
      "▁2012": 3159,
      "▁had": 3160,
      "पुरी": 3161,
      "mbol": 3162,
      "ative": 3163,
      "vision": 3164,
      "ed.).": 3165,
      "▁विकास": 3166,
      "ligious": 3167,
      "orthern": 3168,
      ".b": 3169,
      ".n": 3170,
      "86": 3171,
      "c=": 3172,
      "eh": 3173,
      "get": 3174,
      "va": 3175,
      "▁$": 3176,
      "▁res": 3177,
      "pect": 3178,
      "onwealth": 3179,
      "high": 3180,
      "ised": 3181,
      "eds.": 3182,
      "ough": 3183,
      "ics": 3184,
      "adi": 3185,
      "▁1,": 3186,
      "ched": 3187,
      "▁March": 3188,
      "▁Budd": 3189,
      "▁BCE": 3190,
      "emoc": 3191,
      "▁[2](https://en.wikipedia.org/wiki/India#cite_ref-": 3192,
      "▁[1](https://en.wikipedia.org/wiki/India#cite_ref-": 3193,
      "ports": 3194,
      "AsherTalbot2008": 3195,
      "▁2010](https://en.wikipedia.org/wiki/India#CITEREF": 3196,
      "countries_by": 3197,
      "89": 3198,
      "Uttar": 3199,
      "_प": 3200,
      "back": 3201,
      "cat": 3202,
      "lesh": 3203,
      "ned": 3204,
      "डु": 3205,
      "देव": 3206,
      "स\")": 3207,
      "ुट": 3208,
      "ेस": 3209,
      "▁ई": 3210,
      "](https://doi.org/10.": 3211,
      "▁पार्ट": 3212,
      "नाव": 3213,
      "▁द्वार": 3214,
      "_सा": 3215,
      "माज": 3216,
      "▁संविधान": 3217,
      "ow/": 3218,
      "सेना": 3219,
      "▁चु": 3220,
      "▁हुई": 3221,
      "usiness": 3222,
      "▁थी": 3223,
      "त्पाद": 3224,
      "leshow/": 3225,
      ",[[": 3226,
      "/auth": 3227,
      "ae": 3228,
      "site": 3229,
      "ered": 3230,
      "riod": 3231,
      "▁tradition": 3232,
      "▁Pe": 3233,
      "▁dec": 3234,
      "▁Times": 3235,
      "▁Reg": 3236,
      "-40": 3237,
      "▁became": 3238,
      "124": 3239,
      "1]](https://en.wikipedia.org/wiki/India#cite_note-FOOTNOTE": 3240,
      "TR": 3241,
      "han": 3242,
      "rof": 3243,
      "योग": 3244,
      "वार": 3245,
      "ం\"),": 3246,
      "ంత్రి": 3247,
      "ఆఫ్": 3248,
      "కత": 3249,
      "కై": 3250,
      "క్య": 3251,
      "దాయ": 3252,
      "రే": 3253,
      "లంక": 3254,
      "వీ": 3255,
      "శ్రీ": 3256,
      "షి": 3257,
      "సు": 3258,
      "▁'": 3259,
      "▁ఏ": 3260,
      "▁up": 3261,
      "▁30": 3262,
      "▁[సి": 3263,
      "Ins": 3264,
      "city": 3265,
      "▁सद": 3266,
      "](https://te.wikipedia.org/wiki/చ": 3267,
      "राठ": 3268,
      "▁sh": 3269,
      "inguis": 3270,
      "స్సా": 3271,
      "▁పరి": 3272,
      "▁పార్టీ": 3273,
      "న్‌": 3274,
      "change": 3275,
      "▁me": 3276,
      "olk": 3277,
      "▁दे": 3278,
      "▁కు": 3279,
      "▁వచ్చ": 3280,
      "▁2022": 3281,
      "ముద్ర": 3282,
      "abad": 3283,
      "▁It": 3284,
      "గాంధీ": 3285,
      "▁क्षेत्र\")": 3286,
      "%2C_": 3287,
      "నేపాల": 3288,
      "्रीका": 3289,
      "olitics": 3290,
      "▁పేరు": 3291,
      "హిందీ": 3292,
      "गणना": 3293,
      "ज्ञा": 3294,
      "%E0%A4%B": 3295,
      "▁చెయ్య": 3296,
      "▁కూడా": 3297,
      "ughal": 3298,
      "ంగీతం": 3299,
      "ముంబై": 3300,
      "శ్చిమ": 3301,
      "▁two": 3302,
      "▁మార్గ": 3303,
      "Informatics_Centre": 3304,
      "▁చెయ్యబడ": 3305,
      "4).": 3306,
      "99": 3307,
      "bi": 3308,
      "cms": 3309,
      "ls": 3310,
      "▁0.": 3311,
      "▁time": 3312,
      "tionary": 3313,
      "ters": 3314,
      "▁Plate": 3315,
      "▁Commissioner": 3316,
      "5-0)": 3317,
      "8-0)": 3318,
      "IA": 3319,
      "JP": 3320,
      "इल": 3321,
      "कल": 3322,
      "खाना": 3323,
      "नगर": 3324,
      "पी": 3325,
      "िप": 3326,
      "िस्तान": 3327,
      "▁राष्ट्र": 3328,
      "teen": 3329,
      "](https://hi.wikipedia.org/wiki/इ": 3330,
      "▁सभ": 3331,
      "▁सु": 3332,
      "▁India.": 3333,
      "▁दिया": 3334,
      "▁बढ़": 3335,
      "▁*The": 3336,
      "▁इतिहास": 3337,
      "हाय": 3338,
      "्रां": 3339,
      "▁हुआ": 3340,
      "फ़रवरी": 3341,
      "ंबई": 3342,
      "▁लिए": 3343,
      "र्दू": 3344,
      "EO": 3345,
      "WEO": 3346,
      "cord": 3347,
      "ect": 3348,
      "if": 3349,
      "nam": 3350,
      "ura": 3351,
      "▁we": 3352,
      "▁ro": 3353,
      "▁end": 3354,
      "▁Union": 3355,
      "▁[O": 3356,
      "\");": 3357,
      "](https://en.wikipedia.org/wiki/The": 3358,
      "read": 3359,
      "thematics": 3360,
      "omin": 3361,
      "ouse": 3362,
      "▁includ": 3363,
      "rah": 3364,
      "▁summit\")": 3365,
      "etail": 3366,
      "ussia": 3367,
      "▁caste": 3368,
      "loy": 3369,
      "cean": 3370,
      "▁war": 3371,
      "illion": 3372,
      "olper": 3373,
      "1997": 3374,
      "_in_S": 3375,
      "▁general": 3376,
      "▁2025": 3377,
      "rits": 3378,
      "▁[*India": 3379,
      ".png": 3380,
      "Indus": 3381,
      "▁\"Economy": 3382,
      "](https://en.wikipedia.org/wiki/Economy": 3383,
      "ivil": 3384,
      "Wikipedia": 3385,
      "ujarat": 3386,
      "olpert": 3387,
      "&s": 3388,
      "-B": 3389,
      "81": 3390,
      "UN": 3391,
      "lag": 3392,
      "गा": 3393,
      "▁ट": 3394,
      "▁।": 3395,
      "▁[978-0-": 3396,
      "\\_देश": 3397,
      ".ph": 3398,
      "स्कृति": 3399,
      "IMF": 3400,
      "-23": 3401,
      "2).": 3402,
      "En": 3403,
      "min": 3404,
      "oa": 3405,
      "vol": 3406,
      "▁incre": 3407,
      "rain": 3408,
      "▁Fe": 3409,
      "4/": 3410,
      "LA": 3411,
      "_f": 3412,
      "_వ": 3413,
      "_11": 3414,
      "_देश": 3415,
      "न](https://hi.wikipedia.org/wiki/": 3416,
      "रेल": 3417,
      "सभा": 3418,
      "िज़": 3419,
      "०१": 3420,
      "గర": 3421,
      "టక": 3422,
      "టా": 3423,
      "దార": 3424,
      "నీ": 3425,
      "రో": 3426,
      "సభ": 3427,
      "ెద్ద": 3428,
      "▁j": 3429,
      "▁[s": 3430,
      "▁[India": 3431,
      "▁[doi": 3432,
      "tel": 3433,
      "▁\"సి": 3434,
      "](https://en.wikipedia.org/wiki/O": 3435,
      "eral_": 3436,
      "](https://te.wikipedia.org/wiki/భారత_": 3437,
      "▁मार": 3438,
      "ooperation": 3439,
      "्ता:": 3440,
      "atar": 3441,
      "▁పు": 3442,
      "िक्": 3443,
      "chool": 3444,
      "రాజ్య": 3445,
      "▁जून": 3446,
      "▁दृ": 3447,
      "▁दिस": 3448,
      "राजस्थान": 3449,
      "▁కేంద్రపాలిత": 3450,
      "▁BRICS": 3451,
      "▁प्रमुख": 3452,
      "_(India)": 3453,
      "▁మా": 3454,
      "](https://mai.wikipedia.org/wiki/म": 3455,
      "▁చే": 3456,
      "▁group": 3457,
      "ము\")": 3458,
      "aksh": 3459,
      "త్స": 3460,
      "▁రాజ్య": 3461,
      "त्तरा": 3462,
      "bruary": 3463,
      "వాతంత్ర": 3464,
      "जाति": 3465,
      "धानमंत्र": 3466,
      "oi_(identifier)": 3467,
      "▁దేశాల": 3468,
      "CS1": 3469,
      "▁\"Doi": 3470,
      "](https://en.wikipedia.org/wiki/Doi_(identifier)": 3471,
      "లాదేశ్": 3472,
      "స్తు": 3473,
      "▁సామ్రాజ్యం](https://te.wikipedia.org/wiki/": 3474,
      "ुख्य": 3475,
      "ంగ్లాదేశ్": 3476,
      "▁భాషలు": 3477,
      "ैदान": 3478,
      "ారు.": 3479,
      "rganisation": 3480,
      "▁खाना\")": 3481,
      "_ప్రా": 3482,
      "माणु": 3483,
      "్రిటి": 3484,
      "▁అధికార": 3485,
      "ూర్పు": 3486,
      "▁(identifier)\"):[10.": 3487,
      "▁अगस्त": 3488,
      "म्मू": 3489,
      "కైవు": 3490,
      "inguistic": 3491,
      "▁[doi](https://en.wikipedia.org/wiki/Doi_(identifier)": 3492,
      "▁दिसम्बर": 3493,
      "68": 3494,
      "7,": 3495,
      "1996": 3496,
      "lobal": 3497,
      "-78": 3498,
      "-28": 3499,
      "5–": 3500,
      "C).": 3501,
      "m.nic.in/": 3502,
      "ncl": 3503,
      "press": 3504,
      "way": 3505,
      "yan": 3506,
      "ोस": 3507,
      "▁29": 3508,
      "▁und": 3509,
      "religion": 3510,
      "omas": 3511,
      "uslim": 3512,
      "▁Se": 3513,
      "▁Sanskrit": 3514,
      "adh": 3515,
      "loc": 3516,
      "▁2013": 3517,
      "00)": 3518,
      "ung": 3519,
      "ताब्": 3520,
      "▁Nations": 3521,
      "imalay": 3522,
      "▁War": 3523,
      "ublishing": 3524,
      "onstituent": 3525,
      "▁period": 3526,
      "▁प्राप्त": 3527,
      ".aspx": 3528,
      "nclm.nic.in/": 3529,
      "72": 3530,
      "Craven": 3531,
      "be": 3532,
      "cul": 3533,
      "gan": 3534,
      "rar": 3535,
      "slam": 3536,
      "war": 3537,
      "yayan": 3538,
      "▁am": 3539,
      "▁ref": 3540,
      "▁rate": 3541,
      "tes": 3542,
      "than": 3543,
      "](https://en.wikipedia.org/wiki/I": 3544,
      "arn": 3545,
      "▁sup": 3546,
      "istrar": 3547,
      "▁modern": 3548,
      "ilg": 3549,
      "al_P": 3550,
      "▁one": 3551,
      "▁than": 3552,
      "▁1947": 3553,
      "▁Press](https://en.wikipedia.org/wiki/": 3554,
      "978-0-19-9": 3555,
      "ultan": 3556,
      "outh_Asian_": 3557,
      "978-0-521-80": 3558,
      "atsyayan": 3559,
      "International": 3560,
      "KulkeRothermund2004": 3561,
      "Hinduism": 3562,
      "National_Informatics_Centre": 3563,
      "ainting": 3564,
      "tecture": 3565,
      "904-7": 3566,
      "_Island": 3567,
      "ricket": 3568,
      "Craven1997": 3569,
      "978-0-521-80904-7": 3570,
      "National_Informatics_Centre2005": 3571,
      ".htm": 3572,
      "6-0)": 3573,
      "71": 3574,
      "_4": 3575,
      "tro": 3576,
      "वी": 3577,
      "ाम": 3578,
      "ैल": 3579,
      "ैंड": 3580,
      "▁ओ": 3581,
      "▁फ़रवरी": 3582,
      "▁[ओ": 3583,
      "▁\"ओ": 3584,
      "▁\"ज": 3585,
      "](https://hi.wikipedia.org/wiki/सं": 3586,
      "▁(eds.": 3587,
      "▁महासागर": 3588,
      "▁पह": 3589,
      "र्स": 3590,
      "र्जा": 3591,
      "](https://hi.wikipedia.org/wiki/भारतीय": 3592,
      "▁बा": 3593,
      "▁बना": 3594,
      "26)": 3595,
      "▁2008": 3596,
      "imf": 3597,
      "र्वत": 3598,
      "पात": 3599,
      "ंडिया": 3600,
      "▁शासन": 3601,
      "▁हिन्दी": 3602,
      "वेबैक": 3603,
      "▁द्वारा": 3604,
      "▁मार्च": 3605,
      "7-0": 3606,
      "II": 3607,
      "minist": 3608,
      "ed/": 3609,
      "▁(*": 3610,
      "ict": 3611,
      "ical_": 3612,
      "-14": 3613,
      "▁14": 3614,
      "1990": 3615,
      "cond": 3616,
      "1162": 3617,
      "errit": 3618,
      "▁northern": 3619,
      "▁[*The": 3620,
      "duction": 3621,
      "▁States": 3622,
      "83": 3623,
      "Main": 3624,
      "ahar": 3625,
      "her": 3626,
      "oy": 3627,
      "vatsyayan": 3628,
      "wal": 3629,
      "त्व": 3630,
      "लयाल": 3631,
      "िख": 3632,
      "ोष": 3633,
      "ంజా": 3634,
      "గి": 3635,
      "టీ": 3636,
      "టాన్": 3637,
      "మంత్రి": 3638,
      "లను": 3639,
      "వె": 3640,
      "వరణ": 3641,
      "హదార": 3642,
      "ూచ": 3643,
      "▁హ": 3644,
      "▁భారతదేశ": 3645,
      "enn": 3646,
      "arge": 3647,
      "్రమ": 3648,
      "astern": 3649,
      "▁such": 3650,
      "ammu": 3651,
      "urt": 3652,
      "_of_S": 3653,
      "▁2015": 3654,
      "▁Min": 3655,
      "భారతదేశ_": 3656,
      "▁కొ": 3657,
      "ments": 3658,
      "ताज": 3659,
      "▁వ్యా": 3660,
      "▁later": 3661,
      "24)": 3662,
      ".com/news/": 3663,
      "▁మత": 3664,
      "▁మతము": 3665,
      "](https://mai.wikipedia.org/wiki/ब": 3666,
      "▁2003": 3667,
      "▁2004": 3668,
      "తావరణ": 3669,
      "నాడు": 3670,
      "▁there": 3671,
      "▁Language": 3672,
      ".gov/": 3673,
      "osed": 3674,
      "▁ఉంది.": 3675,
      "](Special:BookSources/978-0-": 3676,
      "▁\"Special:BookSources/978-0-": 3677,
      "ंग्रेजी": 3678,
      "-108": 3679,
      "-107-1": 3680,
      "▁ఇతర": 3681,
      "ాయి": 3682,
      "_BRICS": 3683,
      "ణాసియా": 3684,
      "athak": 3685,
      "ovember": 3686,
      "▁million": 3687,
      "▁2021.\n": 3688,
      "inistry_of_": 3689,
      "టెడ్": 3690,
      "▁ఆర్కైవు": 3691,
      "धिकारिक": 3692,
      "/articleshow/": 3693,
      "-lord": 3694,
      "ोर्ड": 3695,
      "▁రైలు": 3696,
      "భూటాన్": 3697,
      "▁classical": 3698,
      "978-0-19-88": 3699,
      "श्रील": 3700,
      "_సామ్రాజ్యం": 3701,
      "censusindia.gov.in/2011census": 3702,
      "ehru": 3703,
      "▁February": 3704,
      "వాతంత్ర్య": 3705,
      "vatsyayan-lord": 3706,
      "/P": 3707,
      "/S": 3708,
      "64": 3709,
      "93": 3710,
      "BC": 3711,
      "ealth": 3712,
      "utt": 3713,
      "▁/": 3714,
      "ar,": 3715,
      "2012": 3716,
      "resent": 3717,
      "266": 3718,
      "ources": 3719,
      "akh": 3720,
      "▁[\"C": 3721,
      "ankar": 3722,
      "/d": 3723,
      "_V": 3724,
      "_g": 3725,
      "imp": 3726,
      "rist": 3727,
      "ymbol": 3728,
      "ंट": 3729,
      "खंड": 3730,
      "खण्ड": 3731,
      "गान": 3732,
      "रू": 3733,
      "व्यवस्था": 3734,
      "शीन": 3735,
      "हीं": 3736,
      "ुरु": 3737,
      "ुंबई": 3738,
      "ोम": 3739,
      "ौर": 3740,
      "ौद्योगिक": 3741,
      "▁या": 3742,
      "tex": 3743,
      "arliament": 3744,
      "▁संग": 3745,
      "ould": 3746,
      "्यान": 3747,
      "▁जल": 3748,
      "नाडु": 3749,
      "▁दर": 3750,
      "ticle": 3751,
      "▁Modern": 3752,
      "त्रि": 3753,
      "▁प्रति": 3754,
      "23)": 3755,
      "स्त्र": 3756,
      "▁संसद": 3757,
      "](https://hi.wikipedia.org/wiki/भारत#cite_ref-FOOTNOTE": 3758,
      "किम": 3759,
      "▁हैं,": 3760,
      "पर्यटन": 3761,
      "Hindust": 3762,
      "erala": 3763,
      "articles": 3764,
      "दीव": 3765,
      "ikh": 3766,
      "पालिका": 3767,
      "▁इसके": 3768,
      "▁उपमहाद्वीप": 3769,
      "-in-": 3770,
      "▁सिनेमा": 3771,
      "▁Environment": 3772,
      "▁गणराज्य": 3773,
      "िक्षा": 3774,
      "िक्किम": 3775,
      "-of": 3776,
      "129": 3777,
      "7-0)": 3778,
      "Qu": 3779,
      "_n": 3780,
      "_for": 3781,
      "lor": 3782,
      "ning": 3783,
      "ras": 3784,
      "ures": 3785,
      "▁ra": 3786,
      "▁[United": 3787,
      "arly": 3788,
      "arna": 3789,
      "alore": 3790,
      "reat": 3791,
      "▁(2018": 3792,
      "▁(1,": 3793,
      "rac": 3794,
      "▁south": 3795,
      "etra": 3796,
      "right": 3797,
      "atak": 3798,
      "angalore": 3799,
      "▁Per": 3800,
      "▁Pakistan": 3801,
      "rol": 3802,
      "▁2019.": 3803,
      "olle": 3804,
      "▁GDP": 3805,
      "▁art": 3806,
      "avy": 3807,
      "owland": 3808,
      "ocument": 3809,
      "_New": 3810,
      "MetcalfMetcalf2006),": 3811,
      "▁union": 3812,
      "rowth": 3813,
      "▁who": 3814,
      "limate": 3815,
      "Articles": 3816,
      "▁2018](https://en.wikipedia.org/wiki/India#CITEREF": 3817,
      "Harle1994": 3818,
      "erritory": 3819,
      "-प": 3820,
      ".IN": 3821,
      ".fr": 3822,
      "110": 3823,
      "9-0)": 3824,
      "_न": 3825,
      "िला": 3826,
      "र्ज": 3827,
      "url": 3828,
      "▁British": 3829,
      "_Sh": 3830,
      "▁K.": 3831,
      "inese": 3832,
      "pura": 3833,
      "▁निर्": 3834,
      "▁कार्य": 3835,
      "WEO.IN": 3836,
      "IMFWEO.IN": 3837,
      "-25": 3838,
      "2,": 3839,
      "6/": 3840,
      "Ludden": 3841,
      "_13": 3842,
      "a.": 3843,
      "aus": 3844,
      "ced": 3845,
      "tig": 3846,
      "▁Ac": 3847,
      "chin": 3848,
      "ild": 3849,
      "▁Economic": 3850,
      "form": 3851,
      "own": 3852,
      "▁3,": 3853,
      "\"](https://web.archive.org/web/20160": 3854,
      "...": 3855,
      "▁under": 3856,
      "2]](https://en.wikipedia.org/wiki/India#cite_note-FOOTNOTE": 3857,
      "55": 3858,
      "98": 3859,
      "Dikshit": 3860,
      "Empire": 3861,
      "European": 3862,
      "NGDP": 3863,
      "Schwartzberg": 3864,
      "_19": 3865,
      "can": 3866,
      "du": 3867,
      "mme": 3868,
      "ria": 3869,
      "ua": 3870,
      "west": 3871,
      "जान": 3872,
      "दार": 3873,
      "पद": 3874,
      "वीं": 3875,
      "शक": 3876,
      "ीब": 3877,
      "ంశ": 3878,
      "ఆర్": 3879,
      "ఉత్తర": 3880,
      "ఒడి": 3881,
      "కీయ": 3882,
      "గలు": 3883,
      "చు": 3884,
      "జరా": 3885,
      "తూర్పు": 3886,
      "భు": 3887,
      "మన్": 3888,
      "యి": 3889,
      "లస": 3890,
      "ీన": 3891,
      "ేక": 3892,
      "▁డ": 3893,
      "▁జాబితా": 3894,
      "▁high": 3895,
      "▁[m": 3896,
      "▁[భారతదేశ": 3897,
      "▁\"V": 3898,
      "▁\"ल": 3899,
      "](https://en.wikipedia.org/wiki/V": 3900,
      "esearch": 3901,
      "rative": 3902,
      "\\_अ": 3903,
      "ingdom": 3904,
      "▁All": 3905,
      "▁Assembly": 3906,
      "▁పట్ట": 3907,
      "ర్\")": 3908,
      "state": 3909,
      "▁many": 3910,
      "▁**జాతీయ": 3911,
      "ola": 3912,
      "▁दो": 3913,
      "నిక": 3914,
      "▁long": 3915,
      "▁large": 3916,
      "ంగ్రె": 3917,
      "▁సభ": 3918,
      "తాబ్": 3919,
      "ast_Asia": 3920,
      "▁[\"India": 3921,
      "▁ప్రపంచ": 3922,
      "▁ప్రభు": 3923,
      "▁शा": 3924,
      "िये": 3925,
      "osi": 3926,
      "utra": 3927,
      "▁ఆసియా": 3928,
      "▁original](https://": 3929,
      "▁original](https://www.": 3930,
      "ंग्रेस": 3931,
      "మ్రాజ్య": 3932,
      "ृत्य": 3933,
      "▁*[The": 3934,
      "Indones": 3935,
      "▁rule": 3936,
      "గుజరా": 3937,
      "ूनिव": 3938,
      "▁సామ్రాజ్యం\")": 3939,
      "▁people": 3940,
      "త్యేక": 3941,
      "రాష్ట్రపతి": 3942,
      "ूरो": 3943,
      "ప్ప": 3944,
      "▁కాశ్మీ": 3945,
      "▁రాజవంశం": 3946,
      "▁2021.": 3947,
      "](https://hi.wikipedia.org/wiki/भारत_की_": 3948,
      "](https://hi.wikipedia.org/wiki/भारत_का_": 3949,
      "▁చెంద": 3950,
      "▁ఆర్ధిక": 3951,
      "%20%20%20%20": 3952,
      "orities": 3953,
      "_संघ": 3954,
      "gramme": 3955,
      "▁స్థాన": 3956,
      "तेलु": 3957,
      "తమిళనాడు": 3958,
      "▁युद्ध": 3959,
      "▁न्यायालय": 3960,
      "ृष्ठ": 3961,
      "ప్రధానమంత్రి": 3962,
      "గణతంత్ర": 3963,
      "▁క్రీడ": 3964,
      "▁ఉన్నాయి.": 3965,
      "_Development": 3966,
      "▁industry": 3967,
      "▁[पुरालेखित": 3968,
      "ఆఫ్ఘ": 3969,
      "శ్రీలంక": 3970,
      "షియా": 3971,
      "న్‌ఫ": 3972,
      "నేపాల్": 3973,
      "](https://en.wikipedia.org/wiki/Economy_of_": 3974,
      "धानमंत्री": 3975,
      "▁among": 3976,
      "▁(eds.).": 3977,
      "DikshitSchwartzberg": 3978,
      "తాబ్ద": 3979,
      "DikshitSchwartzberg2023": 3980,
      "\"](https://books.google.com/books?id=": 3981,
      "languages": 3982,
      "tions": 3983,
      "ictionary": 3984,
      "240": 3985,
      "-language\\_": 3986,
      "119": 3987,
      "545": 3988,
      "इन": 3989,
      "उप": 3990,
      "क_स": 3991,
      "हरा": 3992,
      "▁out": 3993,
      "▁\"ह": 3994,
      "▁कुल": 3995,
      "ety": 3996,
      "etary": 3997,
      "र्ष": 3998,
      "roj": 3999,
      "▁Bank": 4000,
      "india-g": 4001,
      "▁वार": 4002,
      "प्रा": 4003,
      "▁शताब्": 4004,
      "ervation": 4005,
      "▁\"हिन्दी\")": 4006,
      "teenth": 4007,
      "127": 4008,
      "Pages": 4009,
      "Spear": 4010,
      "ner": 4011,
      "pee": 4012,
      "▁\"India": 4013,
      "▁\"United": 4014,
      "▁\"Indo-": 4015,
      "](https://en.wikipedia.org/wiki/Indo-": 4016,
      "2017": 4017,
      "▁some": 4018,
      "ing_": 4019,
      "▁CE": 4020,
      "▁Arab": 4021,
      "▁Afric": 4022,
      "▁economic": 4023,
      "▁land": 4024,
      ".[[3": 4025,
      "_Summit": 4026,
      "▁General": 4027,
      "▁2005": 4028,
      "ake": 4029,
      "2905": 4030,
      "ineering": 4031,
      "Temple": 4032,
      "key": 4033,
      "arket": 4034,
      "ynast": 4035,
      "rdu": 4036,
      "▁Islands": 4037,
      "▁Act,": 4038,
      "_in_South_Asia": 4039,
      "-780": 4040,
      "1162-2": 4041,
      "-107-11162-2": 4042,
      "978-0-19-882905": 4043,
      "ast_Asia_Summit": 4044,
      "978-0-19-882905-8": 4045,
      "63": 4046,
      "_ए": 4047,
      "eb": 4048,
      "nal": 4049,
      "ंका": 4050,
      "कट": 4051,
      "गंगा": 4052,
      "भो": 4053,
      "शा": 4054,
      "स](https://hi.wikipedia.org/wiki/": 4055,
      "ीमा": 4056,
      "ूह": 4057,
      "▁[सा": 4058,
      "\")[[": 4059,
      "](https://hi.wikipedia.org/wiki/आ": 4060,
      "](https://hi.wikipedia.org/wiki/ल": 4061,
      "▁सभा": 4062,
      "राबाद": 4063,
      "ाने": 4064,
      "र्ना": 4065,
      "▁अप्र": 4066,
      "▁द्वीप": 4067,
      "_का_": 4068,
      "25)": 4069,
      "254": 4070,
      "▁नी": 4071,
      "118": 4072,
      "▁गा": 4073,
      "▁संबंध": 4074,
      "हिमा": 4075,
      "▁[Asher": 4076,
      "▁Kashmir": 4077,
      "त्तरी": 4078,
      "त्तीस": 4079,
      "▁भाषाओं": 4080,
      "ffice": 4081,
      "र्वो": 4082,
      "िस्ट": 4083,
      "ीपी": 4084,
      "िरपे": 4085,
      "▁करने": 4086,
      "▁अन्त": 4087,
      "वायु": 4088,
      "मेर": 4089,
      "▁मेला\")": 4090,
      "meric": 4091,
      "▁हुए": 4092,
      "ैदराबाद": 4093,
      "/article": 4094,
      "▁[हिन्दी](https://hi.wikipedia.org/wiki/": 4095,
      "भीम": 4096,
      "र्नाटक": 4097,
      "िरपेक्ष": 4098,
      "/India": 4099,
      "2–": 4100,
      "6).": 4101,
      "South": 4102,
      "_2": 4103,
      "economic": 4104,
      "ix": 4105,
      "vid": 4106,
      "work": 4107,
      "tition": 4108,
      "lect": 4109,
      "ulti": 4110,
      "003": 4111,
      "28)": 4112,
      "-90": 4113,
      "ingham": 4114,
      ".svg/": 4115,
      "▁territory": 4116,
      ".svg.png": 4117,
      "-a": 4118,
      "3]](https://en.wikipedia.org/wiki/India#cite_note-FOOTNOTE": 4119,
      "6–": 4120,
      "6]](https://en.wikipedia.org/wiki/India#cite_note-": 4121,
      "94": 4122,
      "Pro": 4123,
      "_J": 4124,
      "_en": 4125,
      "_ప్రదేశ్": 4126,
      "busines": 4127,
      "che": 4128,
      "election": 4129,
      "fgh": 4130,
      "ii": 4131,
      "iri": 4132,
      "k:": 4133,
      "my": 4134,
      "pic": 4135,
      "yle": 4136,
      "zation": 4137,
      "थिल": 4138,
      "नु": 4139,
      "फ्रीका": 4140,
      "वास": 4141,
      "ैथिल": 4142,
      "१९": 4143,
      "ం,": 4144,
      "ఉప": 4145,
      "కొ": 4146,
      "కేంద్రపాలిత": 4147,
      "జె": 4148,
      "ఢ్": 4149,
      "ది.": 4150,
      "నాల": 4151,
      "లే": 4152,
      "ళు": 4153,
      "ౌద్ధ": 4154,
      "▁he": 4155,
      "▁భా": 4156,
      "▁2.": 4157,
      "dian": 4158,
      "▁[V": 4159,
      "▁[ह": 4160,
      "▁[వి": 4161,
      "▁[दक्षिण": 4162,
      "▁\"[": 4163,
      "▁\"दक्षिण": 4164,
      "▁\"Oxford": 4165,
      "inance": 4166,
      "ally": 4167,
      "reme": 4168,
      "itary": 4169,
      "▁मुख्य": 4170,
      "oot": 4171,
      "▁social": 4172,
      "ాలీ": 4173,
      "\\_प": 4174,
      "ర్చ": 4175,
      "ISO": 4176,
      "▁minister": 4177,
      "िया](https://mai.wikipedia.org/wiki/": 4178,
      "ility": 4179,
      "▁total": 4180,
      "ాలు?action=edit&redlink=1": 4181,
      "pecial:EditPage/": 4182,
      "▁आधिकारिक": 4183,
      "▁her": 4184,
      "▁Nadu": 4185,
      "-317": 4186,
      "▁...": 4187,
      "overe": 4188,
      "–సా.శ.18": 4189,
      "▁అత్య": 4190,
      "▁संस्कृति": 4191,
      "▁article": 4192,
      "ainism": 4193,
      "▁Official": 4194,
      "apan": 4195,
      "ffer": 4196,
      "logo": 4197,
      "▁ఆధ": 4198,
      "మాఖ్య": 4199,
      "వాణా": 4200,
      "ligence": 4201,
      "ంటి": 4202,
      "▁depend": 4203,
      "▁దేశం": 4204,
      "▁area": 4205,
      "▁\"National": 4206,
      "▁जनगणना": 4207,
      "డ్డ": 4208,
      "▁జనాభా": 4209,
      "దక్షిణాసియా": 4210,
      "▁maj": 4211,
      "▁గల": 4212,
      "phy": 4213,
      "ohn": 4214,
      "▁భారతదేశంలో": 4215,
      "ంగ్లీ": 4216,
      "యునై": 4217,
      "करण": 4218,
      "ష్ణ": 4219,
      "_చరిత్ర?action=edit&redlink=1": 4220,
      "▁రాష్ట్రాలు,": 4221,
      "int:": 4222,
      "_మతము": 4223,
      "▁మొద": 4224,
      "ustralia": 4225,
      "union_territ": 4226,
      "▁చెయ్యబడింది.": 4227,
      "telligence": 4228,
      "arnatak": 4229,
      "urton": 4230,
      "Spear1990": 4231,
      "fghan": 4232,
      "pecial:EditPage/Template:": 4233,
      "యునైటెడ్": 4234,
      "ins": 4235,
      "▁since": 4236,
      "tical_": 4237,
      "▁R.": 4238,
      "▁Raj": 4239,
      "epart": 4240,
      "▁left": 4241,
      "▁used": 4242,
      "epartment": 4243,
      "7_": 4244,
      "Library": 4245,
      "Report": 4246,
      "_इ": 4247,
      "ihar": 4248,
      "len": 4249,
      "ंह": 4250,
      "को": 4251,
      "गल": 4252,
      "झार": 4253,
      "तट": 4254,
      "दि": 4255,
      "पान": 4256,
      "बा": 4257,
      "मालय": 4258,
      "हन": 4259,
      "हरी": 4260,
      "िहार": 4261,
      "▁ऑ": 4262,
      "▁लेख": 4263,
      "▁history": 4264,
      "▁term": 4265,
      "▁[च": 4266,
      "▁[Oxford": 4267,
      "▁\"द": 4268,
      "](https://hi.wikipedia.org/wiki/ओ": 4269,
      "▁they": 4270,
      "▁India*](https://books.google.com/books?id=": 4271,
      "▁Al": 4272,
      "▁केन्द्र": 4273,
      "▁ही": 4274,
      "▁होत": 4275,
      "▁अव": 4276,
      "ियां": 4277,
      "▁Te": 4278,
      "▁बन": 4279,
      "▁नद": 4280,
      "▁नहीं": 4281,
      "▁से](http://": 4282,
      "upta": 4283,
      "पुरा": 4284,
      "स्थ": 4285,
      "स्ला": 4286,
      "▁उद्य": 4287,
      "▁है।[[": 4288,
      "▁रहा": 4289,
      "▁Wiki": 4290,
      "def": 4291,
      "_Delhi": 4292,
      "विशेष:EditPage/": 4293,
      "engali": 4294,
      "▁China": 4295,
      "▁स्था": 4296,
      "▁मेला](https://hi.wikipedia.org/wiki/": 4297,
      "गणराज्य": 4298,
      "श्चिमी": 4299,
      "▁स्रोत/978-1": 4300,
      "](https://hi.wikipedia.org/wiki/विशेष:पुस्तक_स्रोत/978-1": 4301,
      "र्भर": 4302,
      "▁estim": 4303,
      "▁भूम": 4304,
      "▁चुनाव": 4305,
      "रेलू": 4306,
      "▁[पुरालेखित](https://web.archive.org/web/201": 4307,
      "र्वोच्च": 4308,
      "विशेष:EditPage/साँचा:": 4309,
      "01": 4310,
      "1-0": 4311,
      "Taj": 4312,
      "UCN": 4313,
      "az": 4314,
      "e/": 4315,
      "ho": 4316,
      "men": 4317,
      "owe": 4318,
      "▁ci": 4319,
      "▁oc": 4320,
      "orest": 4321,
      "▁[978-0": 4322,
      "▁\"History": 4323,
      "tice": 4324,
      "](https://en.wikipedia.org/wiki/History": 4325,
      "ominal": 4326,
      "its": 4327,
      "2015": 4328,
      "1970": 4329,
      "\\_articles": 4330,
      "▁Cons": 4331,
      "▁SAARC": 4332,
      "▁found": 4333,
      "ada": 4334,
      "▁trans": 4335,
      "▁both": 4336,
      "urban": 4337,
      "mploy": 4338,
      "ight": 4339,
      "▁largest": 4340,
      "industry": 4341,
      "▁India\").": 4342,
      "ayback": 4343,
      "▁2026": 4344,
      "verse": 4345,
      "ains": 4346,
      "](https://en.wikipedia.org/wiki/South": 4347,
      "](Special:BookSources/978-0": 4348,
      "▁\"Special:BookSources/978-0": 4349,
      "riculture": 4350,
      "ssoc": 4351,
      "978-0-19-5": 4352,
      "reek": 4353,
      "qual": 4354,
      "/cb": 4355,
      "▁play": 4356,
      "_at_the": 4357,
      "▁world's": 4358,
      "apita": 4359,
      "▁2006](https://en.wikipedia.org/wiki/India#CITEREFMetcalfMetcalf2006),": 4360,
      "Pages\\_": 4361,
      "▁article:": 4362,
      "fghanistan": 4363,
      "▁occ": 4364,
      "3TR": 4365,
      "5%": 4366,
      "54": 4367,
      "8–": 4368,
      "9,": 4369,
      "RL": 4370,
      "ao": 4371,
      "known": 4372,
      "lance": 4373,
      "नुसार": 4374,
      "▁50": 4375,
      "▁ले": 4376,
      "▁1998": 4377,
      "ara": 4378,
      "20)": 4379,
      "them": 4380,
      "भारत)": 4381,
      "rature": 4382,
      "▁अर्थ": 4383,
      "217": 4384,
      "-30": 4385,
      "harm": 4386,
      "emon": 4387,
      "▁पुरा": 4388,
      "▁वर्ग": 4389,
      "pring": 4390,
      "rishn": 4391,
      "india-glance": 4392,
      "▁शताब्दी": 4393,
      "3TRt": 4394,
      "\"[[": 4395,
      "9).": 4396,
      "Congress": 4397,
      "St": 4398,
      "bank": 4399,
      "itt": 4400,
      "nf": 4401,
      "ser": 4402,
      "▁[19": 4403,
      "ancy": 4404,
      "▁(20": 4405,
      "onsoon": 4406,
      "243": 4407,
      "▁north": 4408,
      "▁status": 4409,
      "endra": 4410,
      "cess": 4411,
      "rown": 4412,
      "ociety": 4413,
      ".aspx?": 4414,
      "-विज्ञान": 4415,
      ":EditPage/": 4416,
      "Ary": 4417,
      "All": 4418,
      "DD": 4419,
      "Robb": 4420,
      "Sharma": 4421,
      "Un": 4422,
      "Wolpert": 4423,
      "_व": 4424,
      "_న": 4425,
      "britannica": 4426,
      "go": 4427,
      "ili": 4428,
      "lack": 4429,
      "ris": 4430,
      "ront": 4431,
      "ंच": 4432,
      "इप्र": 4433,
      "ईरा": 4434,
      "छत्तीस": 4435,
      "तन्त्र": 4436,
      "धन": 4437,
      "लग": 4438,
      "सून": 4439,
      "िंध": 4440,
      "ीच": 4441,
      "८५": 4442,
      "ఖండ": 4443,
      "గం": 4444,
      "టిక": 4445,
      "డే": 4446,
      "ద్య": 4447,
      "మార్": 4448,
      "మాలయ": 4449,
      "లలో": 4450,
      "లకు": 4451,
      "ళ్": 4452,
      "వ](https://te.wikipedia.org/wiki/": 4453,
      "ానికి": 4454,
      "ాళు": 4455,
      "ీర్": 4456,
      "▁భ": 4457,
      "▁యు": 4458,
      "](Category:": 4459,
      "▁[ल": 4460,
      "▁[पाकिस्तान": 4461,
      "▁\"च": 4462,
      "▁\"వి": 4463,
      "▁\"पाकिस्तान": 4464,
      "erry": 4465,
      "▁कई": 4466,
      "▁कश्मीर": 4467,
      "](https://hi.wikipedia.org/wiki/च": 4468,
      "omes": 4469,
      "▁सैन": 4470,
      "▁(India": 4471,
      "▁मो": 4472,
      "▁मैदान": 4473,
      "ram": 4474,
      "▁पर्वत": 4475,
      "▁sp": 4476,
      "▁power": 4477,
      "ాలో": 4478,
      "\\_स": 4479,
      "-16": 4480,
      "▁Company": 4481,
      "ata_": 4482,
      "▁Summit\")": 4483,
      "స్వ": 4484,
      "స్లా": 4485,
      "▁పాల": 4486,
      "vel": 4487,
      "న్\")": 4488,
      "▁अधिकार": 4489,
      "states": 4490,
      "road": 4491,
      "▁member": 4492,
      "वित": 4493,
      "▁दि": 4494,
      "▁Mon": 4495,
      "_का": 4496,
      "▁కార": 4497,
      "▁కలి": 4498,
      "▁Bengal": 4499,
      "▁बीच": 4500,
      "రిహ": 4501,
      "రికత": 4502,
      "క్నాల": 4503,
      "ంది.\n": 4504,
      "▁Delhi": 4505,
      "నిమా": 4506,
      "▁से](http://www.": 4507,
      "▁సంగీతం": 4508,
      "न्दोल": 4509,
      "न्दिर": 4510,
      "क्षा": 4511,
      "▁Gandhi": 4512,
      "▁చి": 4513,
      "▁उत्पाद": 4514,
      "ులు\"),": 4515,
      "–సా.శ.13": 4516,
      "epal": 4517,
      "▁అయ": 4518,
      "▁ప్రధాన": 4519,
      "_मंदिर": 4520,
      "▁\"Category:": 4521,
      "लेट": 4522,
      "▁began": 4523,
      "▁इन": 4524,
      "emale": 4525,
      "ప్రదాయ": 4526,
      "ప్రత్యేక": 4527,
      "ద్వీ": 4528,
      "▁ఉప": 4529,
      "▁రె": 4530,
      "ock": 4531,
      "న్నడ": 4532,
      "ంటు": 4533,
      "▁करोड़": 4534,
      "▁अनु": 4535,
      "▁[अंग्रेज़": 4536,
      "▁దేశంలో": 4537,
      "ssam": 4538,
      "ibet": 4539,
      "uddhism": 4540,
      "ूर्वी": 4541,
      "కాశ్మీ": 4542,
      "viol": 4543,
      "ంధు": 4544,
      "▁राजनी": 4545,
      "వర్గం:Harv": 4546,
      "▁हैं।\n": 4547,
      "ultural": 4548,
      "▁\"पंजाब": 4549,
      "ద్ధం": 4550,
      "ద్ధి": 4551,
      "ాల్దీవ": 4552,
      "▁[पंजाब": 4553,
      "చ్చే": 4554,
      "ducation": 4555,
      "Oxford_University_Press": 4556,
      "దక్షిణ_": 4557,
      "▁కాంగ్రె": 4558,
      "▁होता": 4559,
      "Stein2010),": 4560,
      "74-108": 4561,
      "rgani": 4562,
      "ब्ब": 4563,
      "एसिया": 4564,
      "టెక్నాల": 4565,
      "హిమాలయ": 4566,
      "▁जिसमें": 4567,
      "▁Empire\")": 4568,
      "actbook": 4569,
      "▁कारण": 4570,
      "▁లే": 4571,
      "త్తరా": 4572,
      "నాగరికత": 4573,
      "_मेला?action=edit&redlink=1": 4574,
      "క్కువ": 4575,
      "esert": 4576,
      "క్‌సభ": 4577,
      "▁శాస్త్ర": 4578,
      "गोआ": 4579,
      "धिराज्य": 4580,
      "ెలుగు": 4581,
      "▁2010](https://en.wikipedia.org/wiki/India#CITEREFStein2010),": 4582,
      "▁వచ్చింది.": 4583,
      "हायता": 4584,
      "_ప్రాంత": 4585,
      "yanmar": 4586,
      "▁Press](https://en.wikipedia.org/wiki/Oxford_University_Press": 4587,
      "ultanate": 4588,
      "र्सिट": 4589,
      "ministrative": 4590,
      "श्रीलंका": 4591,
      "ूनिवर्सिट": 4592,
      "ृष्ठसभ": 4593,
      "-78074-108": 4594,
      "\\_पृष्ठसभ": 4595,
      "ర్చ:": 4596,
      ":EditPage/మూస:": 4597,
      "Wolpert2003": 4598,
      "britannica.com/": 4599,
      "ాళుక్య": 4600,
      "ప్రత్యేక:EditPage/మూస:": 4601,
      "▁[अंग्रेज़ी](https://hi.wikipedia.org/wiki/अ": 4602,
      "టెక్నాలజీ": 4603,
      "-78074-108-6": 4604,
      "300": 4605,
      "dr": 4606,
      "detail": 4607,
      "ities": 4608,
      "hief": 4609,
      "itz": 4610,
      "-15": 4611,
      "▁Science": 4612,
      "▁12": 4613,
      "21)": 4614,
      "▁Di": 4615,
      "▁David": 4616,
      "22)": 4617,
      "ubcontinent": 4618,
      "akhand": 4619,
      "▁Valley": 4620,
      "olitical_": 4621,
      "olden": 4622,
      "-largest": 4623,
      ".world": 4624,
      "/D": 4625,
      "1-1": 4626,
      "130": 4627,
      "3),": 4628,
      "eval": 4629,
      "i,": 4630,
      "po": 4631,
      "uth": 4632,
      "गू": 4633,
      "तृत": 4634,
      "फा": 4635,
      "मो": 4636,
      "श्य": 4637,
      "ाटी": 4638,
      "▁imp": 4639,
      "▁\"तमिल": 4640,
      "aran": 4641,
      "ared/": 4642,
      "as,": 4643,
      "ams": 4644,
      "▁co": 4645,
      "▁C.": 4646,
      "▁Con": 4647,
      "ages/": 4648,
      "urn": 4649,
      "linkim": 4650,
      "▁made": 4651,
      "▁2011.": 4652,
      "ाले": 4653,
      "ournal": 4654,
      "▁D.": 4655,
      "-3)": 4656,
      "shared/": 4657,
      "▁लोक": 4658,
      "▁राज्य\")": 4659,
      "ivis": 4660,
      "-pro": 4661,
      "edieval": 4662,
      "nclm.nic.in/shared/": 4663,
      "लयालम": 4664,
      "linkimages/": 4665,
      "nclm.nic.in/shared/linkimages/": 4666,
      "-se": 4667,
      "91": 4668,
      "Ag": 4669,
      "Con": 4670,
      "Ethnologue": 4671,
      "IB": 4672,
      "_Temple": 4673,
      "af": 4674,
      "ball": 4675,
      "eth": 4676,
      "ie": 4677,
      "nominal": 4678,
      "rid": 4679,
      "rust": 4680,
      "ym": 4681,
      "orical": 4682,
      "▁[c": 4683,
      "anc": 4684,
      "anor": 4685,
      "ances": 4686,
      "](https://en.wikipedia.org/wiki/Te": 4687,
      "eries": 4688,
      "arl": 4689,
      "aria": 4690,
      "aldi": 4691,
      "cip": 4692,
      "asing": 4693,
      "icha": 4694,
      "▁ins": 4695,
      "entr": 4696,
      "rim": 4697,
      "ament": 4698,
      "▁country": 4699,
      "▁Affairs": 4700,
      "los": 4701,
      "lowing": 4702,
      "urch": 4703,
      "▁mi": 4704,
      "▁Be": 4705,
      "253": 4706,
      "▁Data": 4707,
      "sian": 4708,
      "ly,": 4709,
      "al_in": 4710,
      "▁rep": 4711,
      "▁relations": 4712,
      "▁From": 4713,
      "▁Fund": 4714,
      "](https://web.archive.org/web/200": 4715,
      "otals": 4716,
      "ommonwealth": 4717,
      "order": 4718,
      "▁[National": 4719,
      "rough": 4720,
      "](https://en.wikipedia.org/wiki/List_of_countries_by": 4721,
      "_East_Asia_Summit": 4722,
      "ography": 4723,
      "AARC_summit": 4724,
      "▁lead": 4725,
      "maputra": 4726,
      "flu": 4727,
      "▁2019.\n": 4728,
      "▁York": 4729,
      "▁prime": 4730,
      "emocracy": 4731,
      "JPG": 4732,
      "rahmaputra": 4733,
      "_Islands": 4734,
      "quality": 4735,
      "Pages\\_us": 4736,
      "Aryan": 4737,
      "omestic": 4738,
      "▁(India)\")": 4739,
      "rganization": 4740,
      "aldives": 4741,
      "ichael": 4742,
      ",NGDP": 4743,
      "-an": 4744,
      "-with": 4745,
      "82": 4746,
      "glia": 4747,
      "i-": 4748,
      "ks": 4749,
      "ling": 4750,
      "ंत": 4751,
      "पक": 4752,
      "मर": 4753,
      "ीगढ़": 4754,
      "ॉक": 4755,
      ".org": 4756,
      "▁[4": 4757,
      "▁[द": 4758,
      "▁[वि": 4759,
      "aries": 4760,
      "208": 4761,
      "▁कु": 4762,
      "भारत\n": 4763,
      "▁स्त": 4764,
      "▁सूचना": 4765,
      "▁मध्य": 4766,
      "ानव": 4767,
      "र्क": 4768,
      "ाल्": 4769,
      "ालदीव": 4770,
      "▁जी": 4771,
      "ेशन": 4772,
      "ेशिया": 4773,
      "▁दशक": 4774,
      "भाज": 4775,
      "षाण": 4776,
      "क्षर": 4777,
      "elang": 4778,
      "काश": 4779,
      "▁शक्ति": 4780,
      "▁शिक्षा": 4781,
      "ंडीगढ़": 4782,
      "▁लोग": 4783,
      "▁क्षेत्रीय": 4784,
      "जनसंख्या": 4785,
      "▁जनसंख्या": 4786,
      "timesofindia": 4787,
      "]](https://hi.wikipedia.org/wiki/भारत#cite_note-FOOTNOTEStein1998": 4788,
      "]](https://hi.wikipedia.org/wiki/भारत#cite_note-FOOTNOTESingh2009": 4789,
      "मुख्य": 4790,
      ".html)": 4791,
      "▁स्थित": 4792,
      "fication": 4793,
      "ूर्ण": 4794,
      "त्तराखण्ड": 4795,
      "etraglia": 4796,
      "▁अप्रैल": 4797,
      "हिमाचल": 4798,
      "▁लेख:": 4799,
      "▁स्थाप": 4800,
      "3TRtDwAAQBAJ&pg=PA": 4801,
      "timesofindia.indiatimes.com/": 4802,
      "_17": 4803,
      "▁ed.).": 4804,
      "on,": 4805,
      "▁(2006": 4806,
      "▁Sec": 4807,
      "▁Publishing": 4808,
      "▁Tamil": 4809,
      "▁Republic": 4810,
      "identifiers": 4811,
      "▁Ex": 4812,
      "ounci": 4813,
      "▁Himalay": 4814,
      "imach": 4815,
      "160": 4816,
      "▁Linguistic": 4817,
      "▁Press,": 4818,
      "visions": 4819,
      "*)": 4820,
      "-n": 4821,
      ".ni": 4822,
      ".పూ.": 4823,
      "/ark": 4824,
      "6_": 4825,
      "7%": 4826,
      "CL": 4827,
      "IJ": 4828,
      "Rowland": 4829,
      "_with": 4830,
      "aury": 4831,
      "cis": 4832,
      "iz": 4833,
      "kar": 4834,
      "mal": 4835,
      "ward": 4836,
      "कणी": 4837,
      "छि": 4838,
      "रत": 4839,
      "रस": 4840,
      "ुम्ब": 4841,
      "ेक": 4842,
      "ంతం": 4843,
      "ఆగ": 4844,
      "కళ": 4845,
      "ఖండ్": 4846,
      "గ్": 4847,
      "గిన": 4848,
      "గఢ్": 4849,
      "జో": 4850,
      "ట్ర": 4851,
      "తెలుగు": 4852,
      "ద్రా": 4853,
      "పద": 4854,
      "భి": 4855,
      "యో": 4856,
      "లక్ష": 4857,
      "వర": 4858,
      "శో": 4859,
      "షా": 4860,
      "హు": 4861,
      "హార్": 4862,
      "హాయ": 4863,
      "ాష్ట్ర": 4864,
      "ీక": 4865,
      "ీహార్": 4866,
      "ుల": 4867,
      "ుల్": 4868,
      "ోల్": 4869,
      "ోత్స": 4870,
      "ౌర్య": 4871,
      "▁his": 4872,
      "oral": 4873,
      "orce": 4874,
      "ortheast": 4875,
      ":/121": 4876,
      "▁[p": 4877,
      "▁[ड": 4878,
      "▁[హ": 4879,
      "▁\"హ": 4880,
      "▁\"ఢిల్లీ": 4881,
      "thnic": 4882,
      "isc": 4883,
      "్రూ": 4884,
      "](https://te.wikipedia.org/wiki/సి": 4885,
      "ాలా": 4886,
      "ాలలో": 4887,
      "rig": 4888,
      "-135": 4889,
      "▁Centre": 4890,
      "్యం": 4891,
      "याधी": 4892,
      "ర్ణా": 4893,
      "ర్మే": 4894,
      "▁अछि": 4895,
      "▁11": 4896,
      "ists": 4897,
      "▁mar": 4898,
      "▁movement": 4899,
      "ोंकणी": 4900,
      "olon": 4901,
      "▁River": 4902,
      "లోక్‌సభ": 4903,
      "▁भारत\")": 4904,
      "▁economy": 4905,
      "▁వంశ": 4906,
      "aylor": 4907,
      "▁आर्थिक": 4908,
      "▁Ge": 4909,
      "ండర్": 4910,
      "](https://mai.wikipedia.org/wiki/क": 4911,
      "force": 4912,
      "▁gre": 4913,
      "abha": 4914,
      "](https://en.wikipedia.org/wiki/India#CITEREFB": 4915,
      "asting": 4916,
      "త్మా": 4917,
      "▁non-": 4918,
      "▁[\"The": 4919,
      "]](https://en.wikipedia.org/wiki/India#cite_note-FOOTNOTEMetcalfMetcalf2006": 4920,
      "overty": 4921,
      "▁అతి": 4922,
      "udi": 4923,
      "ికి": 4924,
      "ద్దు": 4925,
      "o-ope": 4926,
      "▁రహదార": 4927,
      "మాచల్": 4928,
      "▁సామ్రాజ్య": 4929,
      "ummer": 4930,
      "రువా": 4931,
      "రుణా": 4932,
      "ternal": 4933,
      "న్నో": 4934,
      "▁tex": 4935,
      "48/cb": 4936,
      "మిజో": 4937,
      "▁ఇది": 4938,
      "_and_depend": 4939,
      "achine": 4940,
      "▁नेतृत": 4941,
      "▁जनवरी": 4942,
      "▁జరి": 4943,
      "▁విస్త": 4944,
      "▁శతాబ్ద": 4945,
      "ట్టు": 4946,
      "न्तर": 4947,
      "రాష్ట్రాలు": 4948,
      "▁२०१": 4949,
      "వేద": 4950,
      "\")*,": 4951,
      "▁రాజకీయ": 4952,
      "▁ప్రాంతాలు": 4953,
      "హిమాచల్": 4954,
      "ship": 4955,
      "श्मीरी": 4956,
      "హాత్మా": 4957,
      "▁ప్రదేశ్\")": 4958,
      "హారాష్ట్ర": 4959,
      "శాస్త్ర": 4960,
      "రాజస్థాన్": 4961,
      "▁వాతావరణ": 4962,
      "cript": 4963,
      "దినోత్స": 4964,
      "బెంగాలీ": 4965,
      "యన్మార్": 4966,
      "▁ముఖ్య": 4967,
      "णिपुरी": 4968,
      "-lead": 4969,
      ".bnf": 4970,
      "rofile": 4971,
      "ంజాబ్": 4972,
      "▁వ్యాస": 4973,
      "ymbols": 4974,
      ".fr/ark": 4975,
      "duct": 4976,
      "Indonesia": 4977,
      "గుజరాత్": 4978,
      "ఆఫ్ఘనిస్తాన్": 4979,
      "న్‌ఫర్మే": 4980,
      ".svg.png)": 4981,
      "వ](https://te.wikipedia.org/wiki/List_of_": 4982,
      "రిహద్దు": 4983,
      "చ్చేరి": 4984,
      "nominal)": 4985,
      "Rowland1970": 4986,
      "ुम्बई": 4987,
      ":/12148/cb": 4988,
      "याधीश": 4989,
      "ర్ణాటక": 4990,
      "రుణాచల్": 4991,
      ".bnf.fr/ark": 4992,
      "న్‌ఫర్మేషన్": 4993,
      ".bnf.fr/ark:/12148/cb": 4994,
      "-on-": 4995,
      "122": 4996,
      "3/": 4997,
      "QAAQBAJ&pg=PA": 4998,
      "S.": 4999,
      "fob": 5000,
      "ox": 5001,
      "oint": 5002,
      "s18": 5003,
      "▁—": 5004,
      "arath": 5005,
      "educ": 5006,
      "-06": 5007,
      "▁1960": 5008,
      "▁[\"A": 5009,
      "▁Ocean": 5010,
      "▁2,": 5011,
      "▁dispu": 5012,
      "education": 5013,
      "-50": 5014,
      "-29": 5015,
      "/files/": 5016,
      "C-0": 5017,
      "New": 5018,
      "Re": 5019,
      "_उ": 5020,
      "_द": 5021,
      "_राज": 5022,
      "_राज्य": 5023,
      "aut": 5024,
      "bc": 5025,
      "ime": 5026,
      "rial": 5027,
      "y=": 5028,
      "गत": 5029,
      "तम": 5030,
      "धा": 5031,
      "मु": 5032,
      "लिस": 5033,
      "वल": 5034,
      "षय": 5035,
      "िनेमा": 5036,
      "ी.": 5037,
      "ृद्ध": 5038,
      "ॉल": 5039,
      "arli": 5040,
      "▁सक": 5041,
      "्यों": 5042,
      "not": 5043,
      "[[14": 5044,
      "▁P.": 5045,
      "▁Public": 5046,
      "▁प्रेस": 5047,
      "▁प्रौद्योगिक": 5048,
      "▁व्य": 5049,
      "▁गु": 5050,
      "▁new": 5051,
      "▁J.": 5052,
      "▁शु": 5053,
      "ियार": 5054,
      ".gov.in": 5055,
      "▁लग": 5056,
      "ेली": 5057,
      "परमाणु": 5058,
      "atis": 5059,
      "MetcalfMetcalf201": 5060,
      "ज्ज": 5061,
      "▁राजवंश": 5062,
      "▁life": 5063,
      "▁स्थान": 5064,
      "▁जाती": 5065,
      "▁प्राचीन": 5066,
      "▁धर्म\")": 5067,
      "International_": 5068,
      "▁था।": 5069,
      "ांग्लादेश": 5070,
      "View": 5071,
      "hasha": 5072,
      "pectancy": 5073,
      "▁सभ्यता": 5074,
      "▁पहले": 5075,
      "▁Minorities": 5076,
      "ildlife": 5077,
      "▁[हिन्दी](https://hi.wikipedia.org/wiki/हिन्दी": 5078,
      "▁चुनावों": 5079,
      "pringer": 5080,
      "▁सैन्य": 5081,
      "-and": 5082,
      "Gua": 5083,
      "JIJ": 5084,
      "NA": 5085,
      "Zva": 5086,
      "a)": 5087,
      "ez": 5088,
      "lurton": 5089,
      "que": 5090,
      "s\n": 5091,
      "s_of_India": 5092,
      "yy": 5093,
      "▁lo": 5094,
      "▁urban": 5095,
      "▁[Indo-": 5096,
      "ency": 5097,
      "onom": 5098,
      "](https://en.wikipedia.org/wiki/United": 5099,
      "arendra": 5100,
      "ala": 5101,
      "reed": 5102,
      "▁them": 5103,
      "icob": 5104,
      "▁India](https://en.wikipedia.org/wiki/G": 5105,
      "leg": 5106,
      "▁influ": 5107,
      "ravi": 5108,
      "▁summit": 5109,
      "-00": 5110,
      "▁pre": 5111,
      "▁painting": 5112,
      "ature": 5113,
      "agari": 5114,
      "▁S.": 5115,
      "▁billion": 5116,
      "lopedia": 5117,
      "lief": 5118,
      "▁dire": 5119,
      "▁western": 5120,
      "▁Territory": 5121,
      "▁app": 5122,
      "nium": 5123,
      "▁eastern": 5124,
      "▁employ": 5125,
      "▁Europe": 5126,
      "▁Government": 5127,
      "407": 5128,
      "uduch": 5129,
      "▁Incre": 5130,
      "▁Lank": 5131,
      "emic": 5132,
      "▁Kingdom": 5133,
      "avi": 5134,
      "▁[↑](https://en.wikipedia.org/wiki/India#cite_ref-FOOTNOTEMetcalfMetcalf2006": 5135,
      "ogue": 5136,
      "ternational": 5137,
      "overnment_of_India": 5138,
      "_Nadu": 5139,
      "ikkim": 5140,
      "general_": 5141,
      "amil_Nadu": 5142,
      "▁contrib": 5143,
      "_Indian_general_": 5144,
      "vanagari": 5145,
      "%7C": 5146,
      "%7c": 5147,
      "cyclopedia": 5148,
      "cording": 5149,
      "Wikipedia\\_articles": 5150,
      "volution": 5151,
      "fferent": 5152,
      "Pages\\_using\\_": 5153,
      "GuaJIJ": 5154,
      "ZvaGuaJIJ": 5155,
      "uducherry": 5156,
      "_Indian_general_election": 5157,
      "ZvaGuaJIJgo": 5158,
      "-D": 5159,
      "-शासित": 5160,
      "/g": 5161,
      "125": 5162,
      "320": 5163,
      "52": 5164,
      "66": 5165,
      "7.\n": 5166,
      "9–": 5167,
      ":**": 5168,
      "Vu": 5169,
      "ZVu": 5170,
      "_on": 5171,
      "kZVu": 5172,
      "lm": 5173,
      "ving": 5174,
      "yam": 5175,
      "एन": 5176,
      "पार": 5177,
      "भिय": 5178,
      "्म": 5179,
      "▁[य": 5180,
      "▁\"य": 5181,
      "भारतीय": 5182,
      "▁(अ": 5183,
      "▁मह": 5184,
      "▁पै": 5185,
      "▁पश्चिम": 5186,
      "ripura": 5187,
      "_(भारत)": 5188,
      "▁नव": 5189,
      "▁व्या": 5190,
      "▁1965": 5191,
      "ड़िया": 5192,
      "साई": 5193,
      "anipur": 5194,
      "▁\"ब्रिटिश": 5195,
      "▁राजधान": 5196,
      "india.gov.in/india-glance": 5197,
      "official": 5198,
      "▁साम्राज्य\")": 5199,
      "धुनिक": 5200,
      "दिल्ली": 5201,
      "cyclop": 5202,
      "Uttarakhand": 5203,
      "_साम्राज्य": 5204,
      "123": 5205,
      "3-8": 5206,
      "53": 5207,
      "577": 5208,
      "7).": 5209,
      ";\n": 5210,
      "_9": 5211,
      "_24": 5212,
      "bbc": 5213,
      "hra": 5214,
      "tl": 5215,
      "y,": 5216,
      "▁6.": 5217,
      "▁[U": 5218,
      "tered": 5219,
      "isl": 5220,
      "▁culture": 5221,
      "ource": 5222,
      "105": 5223,
      "▁report": 5224,
      "27)": 5225,
      "dex": 5226,
      "ection": 5227,
      "article": 5228,
      "arch_": 5229,
      "▁right": 5230,
      "urrent": 5231,
      "▁Indus": 5232,
      "langoff-1": 5233,
      "ristian": 5234,
      "1200": 5235,
      "219": 5236,
      "318": 5237,
      "5/": 5238,
      "B0%": 5239,
      "De": 5240,
      "Kashmir": 5241,
      "SAARC_summit": 5242,
      "_h": 5243,
      "_घ": 5244,
      "_languages": 5245,
      "ax": 5246,
      "lood": 5247,
      "m2": 5248,
      "mrits": 5249,
      "oard": 5250,
      "ple": 5251,
      "tw": 5252,
      "ंति": 5253,
      "अरब": 5254,
      "क्": 5255,
      "क\\_पृष्ठसभ": 5256,
      "खन": 5257,
      "ग्व": 5258,
      "च्": 5259,
      "जं": 5260,
      "डो": 5261,
      "फोर्ड": 5262,
      "ब्ल": 5263,
      "बेट": 5264,
      "भु": 5265,
      "म\")": 5266,
      "यत": 5267,
      "यर": 5268,
      "रि": 5269,
      "लों": 5270,
      "ैंक": 5271,
      "ॉंग्रेस": 5272,
      "ौक्स": 5273,
      "ौसेना": 5274,
      "२००": 5275,
      "ంతి": 5276,
      "కాల": 5277,
      "కారం": 5278,
      "ఖ్": 5279,
      "గంగా": 5280,
      "టో": 5281,
      "డిన": 5282,
      "తీ": 5283,
      "ధి": 5284,
      "ధించ": 5285,
      "నల్": 5286,
      "మన": 5287,
      "మర": 5288,
      "ర్యా": 5289,
      "లం": 5290,
      "లతో": 5291,
      "లమె": 5292,
      "ీస్": 5293,
      "ూప": 5294,
      "ూరు": 5295,
      "ెనీ": 5296,
      "ౌక": 5297,
      "▁·": 5298,
      "▁ద": 5299,
      "▁ఫ": 5300,
      "▁im": 5301,
      "▁దక్షిణ": 5302,
      "▁హిందూ": 5303,
      "▁గాంధీ": 5304,
      "ors": 5305,
      "▁[ग": 5306,
      "▁[భారతదేశం": 5307,
      "▁[ఢిల్లీ": 5308,
      "▁\"In": 5309,
      "2025": 5310,
      "alam": 5311,
      "ारी": 5312,
      "esti": 5313,
      "](https://hi.wikipedia.org/wiki/पाकिस्तान": 5314,
      "thehind": 5315,
      "▁साल": 5316,
      "▁स्व": 5317,
      "▁स्वतंत्रता": 5318,
      "ారస": 5319,
      "▁मौ": 5320,
      "राम": 5321,
      "raz": 5322,
      "ानगर": 5323,
      "ాలను": 5324,
      "\\_मा": 5325,
      "\\_cont": 5326,
      "\\_identifiers": 5327,
      "](https://hi.wikipedia.org/wiki/भारत_के": 5328,
      "స్](https://te.wikipedia.org/wiki/": 5329,
      "▁far": 5330,
      "adwe": 5331,
      "▁పెద్ద": 5332,
      "ర్లు": 5333,
      "urve": 5334,
      "ver,": 5335,
      "uled": 5336,
      "hell": 5337,
      "FOOTNOTENational_Informatics_Centre2005": 5338,
      "fir": 5339,
      "00–సా.శ.పూ.": 5340,
      "न्स": 5341,
      "లు\")": 5342,
      "▁women": 5343,
      "▁दिल्ल": 5344,
      "_की_": 5345,
      "▁प्रस": 5346,
      "ंगाना": 5347,
      "ంది": 5348,
      "▁వే": 5349,
      "index": 5350,
      "▁\"भारतक": 5351,
      "tures": 5352,
      ".[[23": 5353,
      ".[[40": 5354,
      "▁Gu": 5355,
      "▁November": 5356,
      "▁Nehru": 5357,
      "](https://mai.wikipedia.org/wiki/स": 5358,
      "architecture": 5359,
      "22-9": 5360,
      "_Affairs": 5361,
      "త్తం": 5362,
      "ड़ियाँ": 5363,
      "▁कोर": 5364,
      "▁(సా.శ.13": 5365,
      "▁(సా.శ.15": 5366,
      "▁उन": 5367,
      "]](https://en.wikipedia.org/wiki/India#cite_note-FOOTNOTEStein2010": 5368,
      "▁అనే": 5369,
      "काता": 5370,
      "▁forest": 5371,
      "▁ప్రజ": 5372,
      "hap": 5373,
      "తం\")": 5374,
      "▁विस्त": 5375,
      "▁विदेश": 5376,
      "](https://en.wikipedia.org/wiki/South_Asian_": 5377,
      "ంచి": 5378,
      "▁इंडिया": 5379,
      "aves": 5380,
      "▁ఆఫ్": 5381,
      "▁सागर": 5382,
      "▁సాం": 5383,
      "▁[Ministry": 5384,
      "undament": 5385,
      "ార్లమె": 5386,
      "ecu": 5387,
      "ंडोन": 5388,
      "▁\"British": 5389,
      "कारीब": 5390,
      "▁राज्यक्षेत्र": 5391,
      "arty": 5392,
      "ंग्रेज": 5393,
      "ोलकाता": 5394,
      "కిస్థాన్": 5395,
      "oreign": 5396,
      "▁क्षेत्रों": 5397,
      "▁technology": 5398,
      "iley": 5399,
      "▁నే": 5400,
      "▁నగర": 5401,
      "▁\"अंग्रेज़ी": 5402,
      "ंध्र": 5403,
      "▁ext": 5404,
      "ాయి.": 5405,
      "भिज्ञा": 5406,
      "టిబె": 5407,
      "_GDP": 5408,
      "▁[Government": 5409,
      "్రీ.పూ.": 5410,
      "▁देश\")": 5411,
      "hmed": 5412,
      "िशा": 5413,
      "](https://en.wikipedia.org/wiki/National_": 5414,
      "athura": 5415,
      "हरिया": 5416,
      "ండియా": 5417,
      "पुरम": 5418,
      "](https://en.wikipedia.org/wiki/List_of_SAARC_summit": 5419,
      "▁produc": 5420,
      "िवस": 5421,
      "▁ఎక్కువ": 5422,
      "▁ఎన్నో": 5423,
      "▁मेला\"),": 5424,
      "दक्षिण_": 5425,
      "ष्ण": 5426,
      "ंग्रेज़ी_भाषा": 5427,
      "html).": 5428,
      "law": 5429,
      "anta": 5430,
      "▁./వర్గం:Wikipedia\\_articles": 5431,
      "▁second": 5432,
      "▁regions": 5433,
      "ashmiri": 5434,
      "न्नई": 5435,
      "▁./श्रेणी:जान": 5436,
      "_సం": 5437,
      "ారు.\n": 5438,
      "समिया": 5439,
      "▁Hinduism": 5440,
      "▁मानसून": 5441,
      "rancis": 5442,
      "టుంబ": 5443,
      "awahar": 5444,
      "▁पुरालेखित।,": 5445,
      "आईएस": 5446,
      "बंधन": 5447,
      "▁భారత్": 5448,
      "▁शासित": 5449,
      "kingdom": 5450,
      "_और_संघ": 5451,
      "ेरल": 5452,
      "तेलंगाना": 5453,
      "మెరి": 5454,
      "क्सफोर्ड": 5455,
      "▁మొత్తం": 5456,
      "▁युग": 5457,
      "रक्षा": 5458,
      "_के_आधार_पर_भारत_के_राज्यों_की_सूची": 5459,
      "लोकसभा": 5460,
      "బాద్": 5461,
      "eserve": 5462,
      "ంపెనీ": 5463,
      "चेन्नई": 5464,
      "▁बहुत": 5465,
      "हितक\\_पृष्ठसभ": 5466,
      "హ్మ": 5467,
      "-4020": 5468,
      "▁ఏర్": 5469,
      "पीठ": 5470,
      "\\_देशमे": 5471,
      "▁groups": 5472,
      "akshadwe": 5473,
      "్రిటిషు": 5474,
      "omason": 5475,
      "▁ओर": 5476,
      "_BRICS_summit": 5477,
      "त्रिपुरा": 5478,
      "▁Persian": 5479,
      "▁निर्माण": 5480,
      "पदण्ड": 5481,
      "तेलुगू": 5482,
      "भीमबेट": 5483,
      "Provision": 5484,
      "ootball": 5485,
      "overeign": 5486,
      "▁అత్యధిక": 5487,
      "झारखंड": 5488,
      "नुसार_देश": 5489,
      "छत्तीसगढ़": 5490,
      "िंधु": 5491,
      "ీర్ణ": 5492,
      "\\_सहितक\\_पृष्ठसभ": 5493,
      "దక్షిణ_ఆసియా": 5494,
      "ब्बत": 5495,
      "हायता:": 5496,
      "▁[अंग्रेज़ी](https://hi.wikipedia.org/wiki/अंग्रेज़ी_भाषा": 5497,
      "▁कुछ": 5498,
      "भाजपा": 5499,
      "icobar": 5500,
      "▁summits\")": 5501,
      "ZvaGuaJIJgoC&pg=PA": 5502,
      "च्छ": 5503,
      "\\_मापदण्ड": 5504,
      "\\_contain": 5505,
      "कारीबौक्स": 5506,
      "भिज्ञापक": 5507,
      "_GDP_(": 5508,
      "](https://en.wikipedia.org/wiki/List_of_SAARC_summits": 5509,
      "▁./श्रेणी:जानकारीबौक्स": 5510,
      "awaharl": 5511,
      "akshadweep": 5512,
      "भीमबेटका": 5513,
      "\\_सहितक\\_पृष्ठसभ#": 5514,
      ".0": 5515,
      "/hind": 5516,
      "350": 5517,
      "34)": 5518,
      "Census": 5519,
      "HA": 5520,
      "_15": 5521,
      "c/c": 5522,
      "nc": 5523,
      "entury": 5524,
      "0000": 5525,
      "-0)\n": 5526,
      "267": 5527,
      "▁H.": 5528,
      "archive.org/detail": 5529,
      "166": 5530,
      "rief": 5531,
      "exis": 5532,
      "_population": 5533,
      "▁addition": 5534,
      "▁2024.": 5535,
      "catal": 5536,
      "](https://doi.org/10.10": 5537,
      ".php?": 5538,
      "archive.org/details/": 5539,
      "-S": 5540,
      "/india": 5541,
      "National": 5542,
      "_v": 5543,
      "_43": 5544,
      "cog": 5545,
      "ds": 5546,
      "ek": 5547,
      "garh": 5548,
      "ues": 5549,
      "▁°": 5550,
      "▁३": 5551,
      "▁५": 5552,
      "▁ला": 5553,
      "▁United": 5554,
      "▁Qu": 5555,
      "▁[प्र": 5556,
      "▁[तमिल": 5557,
      "▁[नेपाल": 5558,
      "en,": 5559,
      "▁\"ड": 5560,
      "▁\"नेपाल": 5561,
      "▁कम": 5562,
      "▁सह": 5563,
      "▁(c": 5564,
      "lem": 5565,
      "राक": 5566,
      "raj": 5567,
      "र्श": 5568,
      "urity": 5569,
      "▁जय": 5570,
      "▁Rothermund": 5571,
      "103": 5572,
      "260": 5573,
      "content": 5574,
      "28.": 5575,
      "▁आर": 5576,
      "▁व्यवस्था": 5577,
      "▁human": 5578,
      "aryana": 5579,
      "▁religious": 5580,
      "▁name": 5581,
      "त्ति": 5582,
      "issile": 5583,
      "feb": 5584,
      "_128": 5585,
      "onstitutional": 5586,
      "▁sector": 5587,
      "%E0%A4%A": 5588,
      "रेन्द्र": 5589,
      "िन्धु": 5590,
      "कालीन": 5591,
      "हित्य": 5592,
      "▁देख": 5593,
      "▁Plateau": 5594,
      "प्राचीन": 5595,
      "▁Wikidata": 5596,
      "▁\"पाकिस्तान\")": 5597,
      "uthority": 5598,
      "▁नेतृत्व": 5599,
      "-e": 5600,
      "-India": 5601,
      ".\")\n": 5602,
      ".](https://upload.wikimedia.org/wikipedia/commons/thumb/": 5603,
      "0)": 5604,
      "2]](https://en.wikipedia.org/wiki/India#cite_note-": 5605,
      "313": 5606,
      "4]](https://en.wikipedia.org/wiki/India#cite_note-": 5607,
      "674": 5608,
      "MC": 5609,
      "MID": 5610,
      "Ministry_of_": 5611,
      "a-": 5612,
      "aul": 5613,
      "ather": 5614,
      "cise": 5615,
      "code": 5616,
      "casting": 5617,
      "dish": 5618,
      "ece": 5619,
      "ham": 5620,
      "hat": 5621,
      "had": 5622,
      "hol": 5623,
      "ij": 5624,
      "ker": 5625,
      "lue": 5626,
      "ncient": 5627,
      "ott": 5628,
      "pture": 5629,
      "▁z": 5630,
      "▁low": 5631,
      "iam": 5632,
      "orn": 5633,
      "tte": 5634,
      "▁[f": 5635,
      "▁[World": 5636,
      "▁\"19": 5637,
      "ants": 5638,
      "th_BRICS_summit": 5639,
      "Indian_": 5640,
      "arlo": 5641,
      "araj": 5642,
      "aland": 5643,
      "alli": 5644,
      "ret": 5645,
      "outheast": 5646,
      "icon": 5647,
      "rat": 5648,
      "▁sq": 5649,
      "rime": 5650,
      "uss": 5651,
      "▁caus": 5652,
      "▁Civil": 5653,
      "▁tree": 5654,
      "loth": 5655,
      "\"),[[": 5656,
      "▁Punjab": 5657,
      "ular": 5658,
      "_of_2011": 5659,
      "▁man": 5660,
      "▁2014.": 5661,
      "▁This": 5662,
      "▁M.": 5663,
      "▁Research": 5664,
      ".jpe": 5665,
      "iger": 5666,
      ".[[4": 5667,
      "▁hum": 5668,
      "▁house": 5669,
      "oples": 5670,
      "50th": 5671,
      "▁these": 5672,
      "hatt": 5673,
      "emographic": 5674,
      "_Paper": 5675,
      "▁[↑](https://en.wikipedia.org/wiki/India#cite_ref-FOOTNOTEB": 5676,
      "a_d": 5677,
      "▁[British": 5678,
      "ligions": 5679,
      "ockey": 5680,
      "▁Press](https://en.wikipedia.org/wiki/C": 5681,
      "opulation_T": 5682,
      "▁language\"),": 5683,
      "▁def": 5684,
      "▁development": 5685,
      "▁\"Government": 5686,
      "ibcode": 5687,
      "ext": 5688,
      "▁[![A": 5689,
      "ikhism": 5690,
      "ender": 5691,
      "▁[Dyson": 5692,
      "▁\"Re": 5693,
      "](https://en.wikipedia.org/wiki/Re": 5694,
      "_1_of_2011": 5695,
      "merg": 5696,
      "phere": 5697,
      "▁1994": 5698,
      "▁control": 5699,
      "▁languages\")": 5700,
      "▁when": 5701,
      "_Lank": 5702,
      "ighth": 5703,
      "▁Islands\")": 5704,
      "▁Programme": 5705,
      "uisine": 5706,
      "▁km2": 5707,
      "▁composed": 5708,
      "ondon": 5709,
      "odiversity": 5710,
      "gypt": 5711,
      "▁wide": 5712,
      "dependence": 5713,
      ".html).": 5714,
      "▁along": 5715,
      "struc": 5716,
      "▁Registrar": 5717,
      "al_Population_T": 5718,
      "ennai": 5719,
      "arnatic": 5720,
      "Articles\\_contain": 5721,
      "ynasty": 5722,
      "ssociation": 5723,
      "roadcasting": 5724,
      "entral_": 5725,
      "otals_Paper": 5726,
      "o-operation": 5727,
      "▁Increase": 5728,
      "Provisional_Population_T": 5729,
      "_1_of_2011_India": 5730,
      "otals_Paper_1_of_2011_India": 5731,
      "Provisional_Population_Totals_Paper_1_of_2011_India": 5732,
      "-k": 5733,
      ".uk": 5734,
      "1-4": 5735,
      "AG": 5736,
      "ES": 5737,
      "EX": 5738,
      "\\*": 5739,
      "_श": 5740,
      "_धर्म": 5741,
      "i.": 5742,
      "p)": 5743,
      "ँची": 5744,
      "एल": 5745,
      "गाल": 5746,
      "टना": 5747,
      "द्वार": 5748,
      "बल": 5749,
      "भग": 5750,
      "मरी": 5751,
      "स्व": 5752,
      "िंग": 5753,
      "ेड": 5754,
      "ोला": 5755,
      "▁औ": 5756,
      "▁भाग": 5757,
      "▁\"ग": 5758,
      "▁\"सा": 5759,
      "\")\"": 5760,
      "infob": 5761,
      "ars": 5762,
      "rel": 5763,
      "▁काल": 5764,
      "▁कॉंग्रेस": 5765,
      "](https://hi.wikipedia.org/wiki/तमिल": 5766,
      "्रय": 5767,
      "▁सित": 5768,
      "▁समाज": 5769,
      "▁(क": 5770,
      "▁मई": 5771,
      "▁मिल": 5772,
      "▁मशीन": 5773,
      "\\_(": 5774,
      "\\_country": 5775,
      "ेंगल": 5776,
      "](https://hi.wikipedia.org/wiki/भारत_के_राज्य": 5777,
      "▁में,": 5778,
      "▁2012.": 5779,
      "▁des": 5780,
      "▁जब": 5781,
      "भाई": 5782,
      "भाष": 5783,
      "10)": 5784,
      "115": 5785,
      "_Act": 5786,
      "akrishn": 5787,
      "▁गई": 5788,
      "▁[मध्य": 5789,
      "_महासागर": 5790,
      "▁शहर": 5791,
      "म्भ": 5792,
      "संधान": 5793,
      "ियर": 5794,
      "]](https://hi.wikipedia.org/wiki/भारत#cite_note-pib": 5795,
      "_के_अ": 5796,
      "ज़ा": 5797,
      "जापान": 5798,
      "▁लिये": 5799,
      "▁यूनिवर्सिट": 5800,
      "▁जनता": 5801,
      "▁जनजाति": 5802,
      "रुणा": 5803,
      "PPP": 5804,
      "ोर्ट": 5805,
      "▁[संयुक्त": 5806,
      "वादी": 5807,
      "▁\"संस्कृत": 5808,
      "adhya": 5809,
      "ताजमह": 5810,
      "▁(2018),": 5811,
      "▁[पाकिस्तान](https://hi.wikipedia.org/wiki/पाकिस्तान": 5812,
      "क्षरता": 5813,
      "kZVuDwAAQBAJ&pg=PA": 5814,
      "infobox": 5815,
      "ेंगलुरु": 5816,
      "akrishnan": 5817,
      "▁यूनिवर्सिटी": 5818,
      "/).": 5819,
      "1-3": 5820,
      "2)\n": 5821,
      "Th": 5822,
      "_38": 5823,
      "day": 5824,
      "hut": 5825,
      "most": 5826,
      "ption": 5827,
      "▁36": 5828,
      "▁old": 5829,
      "es,": 5830,
      "of\\_": 5831,
      "▁prom": 5832,
      "\\_of\\_": 5833,
      "▁Central": 5834,
      "109": 5835,
      "▁2001": 5836,
      "▁only": 5837,
      "▁[Singh": 5838,
      "▁near": 5839,
      "▁[Kulke": 5840,
      "1971": 5841,
      "▁use": 5842,
      "Hindustan": 5843,
      "▁estimate": 5844,
      "arliest": 5845,
      "-j": 5846,
      "-national": 5847,
      "2-4": 5848,
      "2)[[": 5849,
      "5).": 5850,
      "7C": 5851,
      "F)": 5852,
      "Front": 5853,
      "Home": 5854,
      "IF": 5855,
      "IUCN": 5856,
      "M50th": 5857,
      "NCL": 5858,
      "Ze": 5859,
      "_pe": 5860,
      "_In": 5861,
      "_20": 5862,
      "_26": 5863,
      "_జాబితా": 5864,
      "b)": 5865,
      "b/": 5866,
      "eat": 5867,
      "each": 5868,
      "epend": 5869,
      "ethnologue": 5870,
      "equality": 5871,
      "hang": 5872,
      "jan": 5873,
      "ute": 5874,
      "y-": 5875,
      "इव": 5876,
      "त\\_मापदण्ड": 5877,
      "थम": 5878,
      "नत्व": 5879,
      "पया": 5880,
      "पदी": 5881,
      "हम": 5882,
      "ुवै": 5883,
      "ौपदी": 5884,
      "ఆంధ": 5885,
      "కీ": 5886,
      "కాలు": 5887,
      "క్రమ": 5888,
      "గర్": 5889,
      "డో": 5890,
      "థి": 5891,
      "నె": 5892,
      "నాలు": 5893,
      "పించ": 5894,
      "బడ్డ": 5895,
      "భర": 5896,
      "మహ": 5897,
      "మై": 5898,
      "యన": 5899,
      "రంగ": 5900,
      "లయా": 5901,
      "వార": 5902,
      "శీ": 5903,
      "షనల్": 5904,
      "స్య": 5905,
      "ృద్ధి": 5906,
      "ెంగ": 5907,
      "ేర": 5908,
      "–24": 5909,
      "▁`": 5910,
      "▁hist": 5911,
      "▁దా": 5912,
      "▁నాగరికత": 5913,
      "▁టెక్నాలజీ": 5914,
      "iary": 5915,
      "org": 5916,
      "](Template:": 5917,
      "▁[राज्य": 5918,
      "▁\"Template:": 5919,
      "anat": 5920,
      "thang": 5921,
      "him": 5922,
      "hild": 5923,
      "erman": 5924,
      "aro": 5925,
      "ार्व": 5926,
      "thema": 5927,
      "ed,": 5928,
      "anda": 5929,
      "▁सँ": 5930,
      "్రై": 5931,
      "్రప్రదేశ్": 5932,
      "](https://te.wikipedia.org/wiki/ఢిల్లీ": 5933,
      "asi": 5934,
      "ashi": 5935,
      "▁मन": 5936,
      "▁India*.": 5937,
      "▁India](https://en.wikipedia.org/wiki/C": 5938,
      "idy": 5939,
      "rahm": 5940,
      "▁si": 5941,
      "र्ग": 5942,
      "▁colle": 5943,
      "▁Cooperation": 5944,
      "దేశం": 5945,
      "దేశాల": 5946,
      "దేశాలు": 5947,
      "స్\")": 5948,
      "▁fam": 5949,
      "adras": 5950,
      "ర్‌": 5951,
      "main": 5952,
      "▁Park": 5953,
      "comm": 5954,
      "_of_B": 5955,
      "न्ध": 5956,
      "లు?action=edit&redlink=1": 5957,
      "రాఠ": 5958,
      "]](https://en.wikipedia.org/wiki/India#cite_note-Combined": 5959,
      "▁Man": 5960,
      "▁top": 5961,
      "▁కి": 5962,
      "▁కో": 5963,
      "▁B.;": 5964,
      "लाओ": 5965,
      "ign_": 5966,
      "igarh": 5967,
      "క్టో": 5968,
      "నియా": 5969,
      "▁వర్": 5970,
      "▁వారస": 5971,
      "irth": 5972,
      "ల్వే": 5973,
      "pecially": 5974,
      "▁సరిహద్దు": 5975,
      "▁మన": 5976,
      "▁మూ": 5977,
      "▁आन्दोल": 5978,
      "▁Games": 5979,
      "ండమా": 5980,
      "_in_New": 5981,
      "▁చిన్న": 5982,
      "▁growth": 5983,
      "తాన": 5984,
      "▁religion": 5985,
      "ముఖ": 5986,
      "▁through": 5987,
      "ability": 5988,
      "▁गठ": 5989,
      "త్వం": 5990,
      "▁[\"P": 5991,
      "▁(సా.శ.17": 5992,
      "▁(సా.శ.14": 5993,
      "]](https://en.wikipedia.org/wiki/India#cite_note-FOOTNOTEB": 5994,
      "ులు,": 5995,
      "–సా.శ.15": 5996,
      "–సా.శ.17": 5997,
      "▁ప్రతి": 5998,
      "▁ప్రస్తు": 5999,
      "▁ప్రకారం": 6000,
      "▁ప్రముఖ": 6001,
      "AAJ": 6002,
      "▁Languages": 6003,
      "ంచిన": 6004,
      "కుడు": 6005,
      "నుమ": 6006,
      "ింది.\n": 6007,
      "osphere": 6008,
      "▁\"Mughal": 6009,
      "▁రో": 6010,
      "▁రంగ": 6011,
      "▁రవాణా": 6012,
      "▁సాధించ": 6013,
      "](https://en.wikipedia.org/wiki/Mugh": 6014,
      "a_Empire": 6015,
      "ష్టు": 6016,
      "eccan": 6017,
      "मन्त": 6018,
      "%20A": 6019,
      "हात्": 6020,
      "▁within": 6021,
      "](https://en.wikipedia.org/wiki/British": 6022,
      "-107-0": 6023,
      "ంతో": 6024,
      "्राष्ट्र": 6025,
      "र्मू": 6026,
      "▁తరువా": 6027,
      "పాలన": 6028,
      "▁exp": 6029,
      "issing": 6030,
      "ोगरी": 6031,
      "ం](https://te.wikipedia.org/wiki/భారతీయ": 6032,
      "గుర్": 6033,
      "నేషనల్": 6034,
      "49-2": 6035,
      "▁[ब्रिटिश": 6036,
      ",_కేంద్రపాలిత": 6037,
      "▁ప్రాంతం": 6038,
      "▁चार": 6039,
      "వందే": 6040,
      "▁రాజ్యం](https://te.wikipedia.org/wiki/": 6041,
      "▁mathema": 6042,
      "▁బా": 6043,
      "▁బహు": 6044,
      "▁బెంగ": 6045,
      "सभ\\_सहितक\\_पृष्ठसभ#": 6046,
      "द्रौपदी": 6047,
      "ాల్లో": 6048,
      "▁घाटी": 6049,
      "न्नड़": 6050,
      "जराय": 6051,
      "శ్వా": 6052,
      "ological": 6053,
      "_Force": 6054,
      "ారిటీ": 6055,
      "handigarh": 6056,
      "AsherTalbot20": 6057,
      "▁ప్రాంతాలు\")": 6058,
      "గోళ": 6059,
      "ynth": 6060,
      "బడిన": 6061,
      "ediff": 6062,
      "▁News": 6063,
      "▁ago": 6064,
      "attle": 6065,
      "తున్న": 6066,
      "న్నిక": 6067,
      "▁స్వాతంత్ర్య": 6068,
      "▁కాలంలో": 6069,
      "countries_and_depend": 6070,
      "ote:": 6071,
      "mitt": 6072,
      "त्पत्ति": 6073,
      "Dyson2018),": 6074,
      "](https://mai.wikipedia.org/wiki/भारतक": 6075,
      "ortal:": 6076,
      "▁रहल": 6077,
      "ంపి": 6078,
      "encies_by": 6079,
      "బెంగాల్": 6080,
      "rishna": 6081,
      "▁especially": 6082,
      "ెలవు": 6083,
      "](https://te.wikipedia.org/wiki/భారతదేశంలో_": 6084,
      "▁Buddhist": 6085,
      "वार्ता:": 6086,
      "olkata": 6087,
      "ज्ञात\\_मापदण्ड": 6088,
      "▁increased": 6089,
      "▁అధికారిక": 6090,
      "culpture": 6091,
      "ilgrim": 6092,
      ".htm)": 6093,
      "▁2018](https://en.wikipedia.org/wiki/India#CITEREFDyson2018),": 6094,
      "_न्या": 6095,
      "ఆర్ధిక": 6096,
      "\\_अज्ञात\\_मापदण्ड": 6097,
      "▁పట్టణ": 6098,
      "▁కాశ్మీరు": 6099,
      "▁वार्ता:": 6100,
      "▁dependencies": 6101,
      "ంగ్లీషు": 6102,
      "arnataka": 6103,
      "Report.pdf)": 6104,
      "▁అయిన": 6105,
      "▁రెండు": 6106,
      "violence": 6107,
      "ాల్దీవులు": 6108,
      "एसियाक": 6109,
      "nclm.nic.in/shared/linkimages/NCL": 6110,
      "ట్రో": 6111,
      "ుల్తాన": 6112,
      "రాష్ట్రాలు,_కేంద్రపాలిత": 6113,
      "దినోత్సవం": 6114,
      "▁వ్యాసం:": 6115,
      "urvey": 6116,
      "ార్లమెంట": 6117,
      "▁./వర్గం:Wikipedia\\_articles\\_with\\_": 6118,
      "▁ఏర్ప": 6119,
      "\\_देशमे\\_अज्ञात\\_मापदण्ड": 6120,
      "▁./श्रेणी:जानकारीबौक्स\\_देशमे\\_अज्ञात\\_मापदण्ड": 6121,
      "▁Quote:": 6122,
      "hattis": 6123,
      "M50thReport.pdf)": 6124,
      "ethnologue.com/": 6125,
      "ुवैत": 6126,
      "ఆంధ్రప్రదేశ్": 6127,
      "లయాళ": 6128,
      "_in_New_Delhi": 6129,
      "](https://en.wikipedia.org/wiki/Mughal_": 6130,
      "हात्मा": 6131,
      "countries_and_dependencies_by": 6132,
      "nclm.nic.in/shared/linkimages/NCLM50thReport.pdf)": 6133,
      "రాష్ట్రాలు,_కేంద్రపాలిత_ప్రాంత": 6134,
      "▁./श्रेणी:जानकारीबौक्स\\_देशमे\\_अज्ञात\\_मापदण्डसभ\\_सहितक\\_पृष्ठसभ#": 6135,
      "-C": 6136,
      "-r": 6137,
      "2%": 6138,
      "9/": 6139,
      "Alig": 6140,
      "PO": 6141,
      "ault": 6142,
      "mil": 6143,
      "ns": 6144,
      "vent": 6145,
      "▁[978-0-521": 6146,
      "the-": 6147,
      "atab": 6148,
      "▁14.": 6149,
      "709": 6150,
      "48)": 6151,
      "iance": 6152,
      "on-Alig": 6153,
      "8/8": 6154,
      ".nlm": 6155,
      "▁People": 6156,
      "bi.nlm": 6157,
      "4/4": 6158,
      ".nih": 6159,
      "mritsar": 6160,
      "ncbi.nlm": 6161,
      "on-Aligned": 6162,
      "ncbi.nlm.nih": 6163,
      ".co": 6164,
      ";[[": 6165,
      "AS": 6166,
      "A5%": 6167,
      "Pakistan": 6168,
      "_त": 6169,
      "_36": 6170,
      "bhasha": 6171,
      "kb": 6172,
      "ंतर": 6173,
      "ईल": 6174,
      "घर": 6175,
      "घालय": 6176,
      "चें": 6177,
      "तुल": 6178,
      "थियार": 6179,
      "मक": 6180,
      "ल](https://hi.wikipedia.org/wiki/": 6181,
      "वेश": 6182,
      "वैद": 6183,
      "िबंध": 6184,
      "ृष": 6185,
      "ेन्द्र": 6186,
      "ोट": 6187,
      "्लेट": 6188,
      "४७": 6189,
      "५०": 6190,
      "▁,": 6191,
      "▁46": 6192,
      "▁[गुजरात": 6193,
      "India_": 6194,
      "ारो": 6195,
      "ारम्भ": 6196,
      "](https://hi.wikipedia.org/wiki/ज": 6197,
      "](https://hi.wikipedia.org/wiki/न": 6198,
      "्रह": 6199,
      "▁(S": 6200,
      "▁popul": 6201,
      "ets": 6202,
      "\\_क": 6203,
      "र्ट": 6204,
      "र्त": 6205,
      "ेंस": 6206,
      "ator": 6207,
      "agen": 6208,
      "](https://hi.wikipedia.org/wiki/भारत_स": 6209,
      "▁हर": 6210,
      "▁See": 6211,
      "▁Society": 6212,
      "78.": 6213,
      "▁अमेर": 6214,
      "▁अलग": 6215,
      "ults": 6216,
      "ालैंड": 6217,
      "वियत": 6218,
      "▁जिन": 6219,
      "▁देव": 6220,
      "▁दोन": 6221,
      "▁Muslim": 6222,
      "भाजन": 6223,
      "▁प्रधानमंत्री": 6224,
      "▁बंगाल": 6225,
      "▁बड़े": 6226,
      "▁Dictionary": 6227,
      "_से": 6228,
      "▁सेवा": 6229,
      "▁काम": 6230,
      "oung": 6231,
      "▁आक": 6232,
      "ustrial": 6233,
      "▁संस्थान": 6234,
      "▁परि": 6235,
      "संबर": 6236,
      "ियन": 6237,
      "▁रक्षा": 6238,
      "](https://hi.wikipedia.org/wiki/भारत#cite_ref-pib": 6239,
      "](https://hi.wikipedia.org/wiki/भारत#cite_ref-langoff": 6240,
      "]](https://hi.wikipedia.org/wiki/भारत#cite_note-langoff-1": 6241,
      "ndhra": 6242,
      "o-d": 6243,
      "ी](https://hi.wikipedia.org/wiki/म": 6244,
      "▁\"मध्य": 6245,
      "-7mar": 6246,
      "हाँ": 6247,
      "ोली": 6248,
      "aith": 6249,
      "ंधी": 6250,
      "](https://hi.wikipedia.org/wiki/मध्य": 6251,
      "_proj": 6252,
      "द्यालय": 6253,
      "▁Chand": 6254,
      "गुप्त": 6255,
      "Asher2006": 6256,
      "AsherAsher2006": 6257,
      "120]](https://hi.wikipedia.org/wiki/भारत#cite_note-langoff-1": 6258,
      "मेव": 6259,
      "html)": 6260,
      "न्तु": 6261,
      "▁घाट": 6262,
      "▁(2014).": 6263,
      "▁./श्रेणी:CS1": 6264,
      "](https://hi.wikipedia.org/wiki/पंजाब": 6265,
      "](https://hi.wikipedia.org/wiki/पश्चिम": 6266,
      "▁मानव": 6267,
      "Stein1998),": 6268,
      "Singh2009),": 6269,
      "▁CITEREFStein1998": 6270,
      "▁CITEREFSingh2009": 6271,
      "ों_की_सूची?action=edit&redlink=1": 6272,
      "](https://hi.wikipedia.org/wiki/भारत#CITEREFStein1998),": 6273,
      "](https://hi.wikipedia.org/wiki/भारत#CITEREFSingh2009),": 6274,
      "्वतन्त्र": 6275,
      "KulkeRothermund200": 6276,
      "गुजराती": 6277,
      "▁थे": 6278,
      "1947)": 6279,
      "ureau": 6280,
      "वर्त": 6281,
      "▁पाकिस्तान": 6282,
      "▁मंदिर\")": 6283,
      "राष्ट्रपति\")": 6284,
      "त्यमेव": 6285,
      "ृष्ण": 6286,
      "नागालैंड": 6287,
      "▁वर्षों": 6288,
      "▁2009](https://hi.wikipedia.org/wiki/भारत#CITEREFSingh2009),": 6289,
      "रोहर": 6290,
      "▁ईसा": 6291,
      "राठी": 6292,
      "_from": 6293,
      "▁दृष्ट": 6294,
      "▁दृश्य": 6295,
      "troduction": 6296,
      "text": 6297,
      "▁सिनेमा\"),": 6298,
      "▁होती": 6299,
      "▁भूमिका": 6300,
      "▁1998](https://hi.wikipedia.org/wiki/भारत#CITEREFStein1998),": 6301,
      "▁अर्थव्यवस्था": 6302,
      "bank.org/": 6303,
      "▁दिसंबर": 6304,
      "▁स्तर": 6305,
      "ouncil": 6306,
      "रुणाचल": 6307,
      "चेंज": 6308,
      "वैदिक": 6309,
      "िबंधीय": 6310,
      "](https://hi.wikipedia.org/wiki/भारत#cite_ref-langoff_128": 6311,
      "-7mar2011": 6312,
      "120]](https://hi.wikipedia.org/wiki/भारत#cite_note-langoff-128)": 6313,
      "्वतन्त्रता": 6314,
      "*](http://": 6315,
      "09": 6316,
      "126": 6317,
      "5]](https://en.wikipedia.org/wiki/India#cite_note-FOOTNOTE": 6318,
      "677": 6319,
      "9]](https://en.wikipedia.org/wiki/India#cite_note-": 6320,
      "Ex": 6321,
      "Language": 6322,
      "Paki": 6323,
      "Petraglia": 6324,
      "_&": 6325,
      "_2024": 6326,
      "aha": 6327,
      "baki": 6328,
      "ka": 6329,
      "khand": 6330,
      "late": 6331,
      "oin": 6332,
      "oes": 6333,
      "page": 6334,
      "rance": 6335,
      "s:": 6336,
      "subcontinent": 6337,
      "tain": 6338,
      "tandard": 6339,
      "vil": 6340,
      "wana": 6341,
      "▁eng": 6342,
      "orship": 6343,
      "tter": 6344,
      "▁[n": 6345,
      "tection": 6346,
      "ences": 6347,
      "▁\"U": 6348,
      "▁\"World": 6349,
      "in-": 6350,
      "anchi": 6351,
      "ties/": 6352,
      "](https://en.wikipedia.org/wiki/World": 6353,
      "erved": 6354,
      "artition": 6355,
      "alit": 6356,
      "rest": 6357,
      "ester": 6358,
      "ederal": 6359,
      "▁(19": 6360,
      "▁(ed.).": 6361,
      "ichell": 6362,
      "ately": 6363,
      "▁political": 6364,
      "▁coast": 6365,
      "▁Comp": 6366,
      "atna": 6367,
      "▁As": 6368,
      "ager": 6369,
      "ref-10": 6370,
      "note-10": 6371,
      "ango": 6372,
      "angam": 6373,
      "▁bu": 6374,
      "lock": 6375,
      "lite": 6376,
      "lima": 6377,
      "umar": 6378,
      "umeration": 6379,
      "urry": 6380,
      "vert": 6381,
      "very": 6382,
      "_of_Congress": 6383,
      "978-3": 6384,
      "stani": 6385,
      "▁work": 6386,
      "iland": 6387,
      "ourts": 6388,
      "ourbaki": 6389,
      "oln": 6390,
      "▁Michael": 6391,
      "▁Bi": 6392,
      "▁By": 6393,
      "269,": 6394,
      "24.": 6395,
      "india.com/": 6396,
      "287,": 6397,
      "upreme": 6398,
      "-415": 6399,
      "-459": 6400,
      "▁ge": 6401,
      "▁gen": 6402,
      "-85": 6403,
      "▁1962": 6404,
      "ghts": 6405,
      "▁International": 6406,
      "hai": 6407,
      "▁\"Cambridge": 6408,
      "harkhand": 6409,
      "▁before": 6410,
      "_Comm": 6411,
      "_Pro": 6412,
      "▁[Cambridge": 6413,
      "oss": 6414,
      "▁[↑](https://en.wikipedia.org/wiki/India#cite_ref-FOOTNOTEStein2010": 6415,
      "▁original](http://www.": 6416,
      "_Mah": 6417,
      "inema": 6418,
      "arden": 6419,
      "▁range": 6420,
      "class": 6421,
      "▁[New": 6422,
      "vention": 6423,
      "▁lite": 6424,
      "onstitution_of_India": 6425,
      "amese": 6426,
      "ambridge_University_Press": 6427,
      "▁vill": 6428,
      "alayalam": 6429,
      "erves": 6430,
      "▁2007](https://en.wikipedia.org/wiki/India#CITEREF": 6431,
      "aceu": 6432,
      "ollingham": 6433,
      "▁different": 6434,
      "f/f": 6435,
      "cheduled": 6436,
      "▁including": 6437,
      "ritsch": 6438,
      "▁[India](https://en.wikipedia.org/wiki/India": 6439,
      "▁(identifier)\"):[10.10": 6440,
      "vatsyayan-lord-4": 6441,
      "vatsyayan-lord_43": 6442,
      "▁(1,269,": 6443,
      "▁3,287,": 6444,
      "nergy": 6445,
      "6]](https://en.wikipedia.org/wiki/India#cite_note-vatsyayan-lord-4": 6446,
      "owever,": 6447,
      "harmaceu": 6448,
      "Allchin": 6449,
      "▁mi)": 6450,
      "olonial": 6451,
      "reedom": 6452,
      "hmedabad": 6453,
      "▁Press](https://en.wikipedia.org/wiki/Cambridge_University_Press": 6454,
      "hutan": 6455,
      "Pakistani": 6456,
      "PetragliaAllchin": 6457,
      "\"](http://": 6458,
      "%3": 6459,
      "4,": 6460,
      "NG": 6461,
      "_0": 6462,
      "hdr": 6463,
      "jpg": 6464,
      "ject": 6465,
      "round": 6466,
      "sources": 6467,
      "दय": 6468,
      "दर्श": 6469,
      "ुक": 6470,
      "▁:": 6471,
      "▁ऐ": 6472,
      "▁\"राष्ट्रीय": 6473,
      "्रु": 6474,
      "भारत)\")": 6475,
      "▁(भारत)\")": 6476,
      "▁पहु": 6477,
      "▁अधिराज्य": 6478,
      "▁दी": 6479,
      "23.": 6480,
      "238": 6481,
      "न्दा": 6482,
      "▁Health": 6483,
      "22.": 6484,
      "▁[\"G": 6485,
      "म्प्र": 6486,
      "राष्ट्रीय_": 6487,
      "ी\"))": 6488,
      "हिन्द_महासागर": 6489,
      "धानमन्त": 6490,
      "2011religion": 6491,
      "%2C_India": 6492,
      "▁Chinese": 6493,
      "पुर\")": 6494,
      "▁घोष": 6495,
      "▁[उत्तर": 6496,
      "▁मान्यता": 6497,
      "▁\"उत्तर": 6498,
      "▁एशिया\")": 6499,
      "तुर्क": 6500,
      "▁उत्तर-प": 6501,
      "local_": 6502,
      "-language\\_sources": 6503,
      "८५७": 6504,
      "न्तर्राष्ट्र": 6505,
      "▁व्यापार": 6506,
      "Census2011religion": 6507,
      "-language\\_sources\\_(": 6508,
      "-ex": 6509,
      "2),": 6510,
      "226": 6511,
      "418": 6512,
      "534": 6513,
      "C)": 6514,
      "Mumbai": 6515,
      "Sanskrit": 6516,
      "TO": 6517,
      "](https://id": 6518,
      "es.": 6519,
      "ica": 6520,
      "id-": 6521,
      "-1\").\n": 6522,
      "▁Ad": 6523,
      "▁Stu": 6524,
      "loped": 6525,
      "▁Minister": 6526,
      "bert": 6527,
      "opland": 6528,
      "▁2007.": 6529,
      "ody": 6530,
      "17.": 6531,
      "▁[Ar": 6532,
      "mblem": 6533,
      "svg": 6534,
      "orthographic": 6535,
      "▁contin": 6536,
      "▁2020.": 6537,
      "▁commun": 6538,
      "-of-india": 6539,
      "IMFWEO.IN-": 6540,
      "tiger": 6541,
      "...]": 6542,
      "▁Minorities,": 6543,
      "_projection": 6544,
      "orthographic_projection": 6545,
      "&ss": 6546,
      ")\"),": 6547,
      "*](https://": 6548,
      "-w": 6549,
      "/national": 6550,
      "1]](https://en.wikipedia.org/wiki/India#cite_note-": 6551,
      "221": 6552,
      "3,": 6553,
      "400": 6554,
      "5]](https://en.wikipedia.org/wiki/India#cite_note-": 6555,
      "6)\n": 6556,
      "6]](https://en.wikipedia.org/wiki/India#cite_note-FOOTNOTE": 6557,
      "7]](https://en.wikipedia.org/wiki/India#cite_note-": 6558,
      "8+": 6559,
      "Collingham": 6560,
      "Official": 6561,
      "S$": 6562,
      "Tarlo": 6563,
      "_-": 6564,
      "_te": 6565,
      "_వి": 6566,
      "_industry": 6567,
      "_కాశ్మీ": 6568,
      "athe": 6569,
      "aos": 6570,
      "athematics": 6571,
      "caste": 6572,
      "d/": 6573,
      "dis": 6574,
      "gu": 6575,
      "gion": 6576,
      "hl": 6577,
      "hal": 6578,
      "janta": 6579,
      "mill": 6580,
      "odia": 6581,
      "ren": 6582,
      "rune": 6583,
      "yd": 6584,
      "yer": 6585,
      "zer": 6586,
      "ंश": 6587,
      "ईद": 6588,
      "ऍथ": 6589,
      "ऑक्सफोर्ड": 6590,
      "ख़": 6591,
      "गध": 6592,
      "जपुरी": 6593,
      "जिस्ट": 6594,
      "ञ्": 6595,
      "ताल": 6596,
      "तंत्र": 6597,
      "थल": 6598,
      "दल": 6599,
      "दान": 6600,
      "नोल": 6601,
      "पि": 6602,
      "पीय": 6603,
      "फ्रां": 6604,
      "बू": 6605,
      "भ्स": 6606,
      "भुट": 6607,
      "मत": 6608,
      "मृत": 6609,
      "वत": 6610,
      "शत": 6611,
      "शोक": 6612,
      "हें": 6613,
      "ी](https://mai.wikipedia.org/wiki/": 6614,
      "ुरा": 6615,
      "ूबर": 6616,
      "ेद": 6617,
      "ेघालय": 6618,
      "ॉग": 6619,
      "२६": 6620,
      "ంస్కృ": 6621,
      "ఉత్తరా": 6622,
      "ఖో": 6623,
      "ఘాలయ": 6624,
      "చ్": 6625,
      "టై": 6626,
      "టర్": 6627,
      "డమ్": 6628,
      "డఖ్": 6629,
      "ణే": 6630,
      "ణంగా": 6631,
      "తే": 6632,
      "తెల": 6633,
      "దరంగ": 6634,
      "నో": 6635,
      "నంద": 6636,
      "బర్": 6637,
      "బార్": 6638,
      "యె": 6639,
      "రె": 6640,
      "లడఖ్": 6641,
      "ళా": 6642,
      "ళి": 6643,
      "శు": 6644,
      "హించ": 6645,
      "ుకు": 6646,
      "ెన్న": 6647,
      "ెట్రో": 6648,
      "ేతి": 6649,
      "ేఘాలయ": 6650,
      "ైనిక": 6651,
      "ొగలు": 6652,
      "ోళ": 6653,
      "‌కా": 6654,
      "‌మహ": 6655,
      "▁९": 6656,
      "▁ఐ": 6657,
      "▁ఖ": 6658,
      "▁रा": 6659,
      "▁ना": 6660,
      "▁web": 6661,
      "▁–సా.శ.": 6662,
      "▁భారతీయ": 6663,
      "▁kingdom": 6664,
      "▁[Y": 6665,
      "▁[श": 6666,
      "▁[In": 6667,
      "▁[రాష్ట్ర": 6668,
      "▁[జన": 6669,
      "▁[గో": 6670,
      "▁[978-81": 6671,
      "▁\"పా": 6672,
      "▁\"साँच": 6673,
      "▁\"జన": 6674,
      "▁\"గో": 6675,
      "▁\"साँचा:": 6676,
      "▁\"మూస:": 6677,
      "ino-": 6678,
      "tile": 6679,
      "arth": 6680,
      "](https://hi.wikipedia.org/wiki/ग": 6681,
      "](https://hi.wikipedia.org/wiki/द": 6682,
      "](https://hi.wikipedia.org/wiki/ह": 6683,
      "](https://hi.wikipedia.org/wiki/साँच": 6684,
      "](https://hi.wikipedia.org/wiki/साँचा:": 6685,
      "्रार": 6686,
      "ofker": 6687,
      "omo": 6688,
      "▁सूच": 6689,
      "▁सीमा": 6690,
      "itation": 6691,
      "](https://te.wikipedia.org/wiki/B": 6692,
      "](https://te.wikipedia.org/wiki/G": 6693,
      "](https://te.wikipedia.org/wiki/భారతదేశ": 6694,
      "](https://te.wikipedia.org/wiki/గో": 6695,
      "](https://te.wikipedia.org/wiki/మూస:": 6696,
      "asthan": 6697,
      "ారస్వ": 6698,
      "्यूरो": 6699,
      "▁मन्दिर": 6700,
      "▁inte": 6701,
      "रात": 6702,
      "ratic": 6703,
      "▁पड़": 6704,
      "▁प्लेट": 6705,
      "▁school": 6706,
      "ాలె": 6707,
      "etry": 6708,
      "ries/": 6709,
      "riya": 6710,
      "acmill": 6711,
      "\\_te": 6712,
      "ingap": 6713,
      "amy": 6714,
      "▁can": 6715,
      "▁capita": 6716,
      "ating": 6717,
      "▁Asher": 6718,
      "▁हाला": 6719,
      "▁हथियार": 6720,
      "▁Sabha": 6721,
      "స్ట": 6722,
      "స్వాతంత్ర్య": 6723,
      "▁four": 6724,
      "▁fol": 6725,
      "▁fig": 6726,
      "angered": 6727,
      "▁పర": 6728,
      "▁పండు": 6729,
      "िकी": 6730,
      "urk": 6731,
      "uran": 6732,
      "well": 6733,
      "978-9": 6734,
      "stor": 6735,
      "ालर": 6736,
      "లు](https://te.wikipedia.org/wiki/": 6737,
      "▁would": 6738,
      "రాన్": 6739,
      "రాస్య": 6740,
      "▁ज़": 6741,
      "▁Machine": 6742,
      "▁Routledge": 6743,
      "▁కే": 6744,
      "▁కోర్": 6745,
      "▁B.": 6746,
      "త్రిక": 6747,
      "igved": 6748,
      "igration": 6749,
      "▁बार": 6750,
      "▁बने": 6751,
      "▁बड़ा": 6752,
      "క్స్": 6753,
      "క్కి": 6754,
      "तिब्बत": 6755,
      "▁ele": 6756,
      "▁emerg": 6757,
      "▁వె": 6758,
      "▁వంట": 6759,
      "्टॉक": 6760,
      "▁नौसेना": 6761,
      "▁led": 6762,
      "indhi": 6763,
      "▁\"Sanskrit": 6764,
      "▁*India": 6765,
      "ంగో": 6766,
      "1991": 6767,
      "▁సముద్ర": 6768,
      "▁సూచ": 6769,
      "▁సౌక": 6770,
      "upt": 6771,
      "్రామ": 6772,
      "▁वृद्ध": 6773,
      "क्षण": 6774,
      "क्षद्वीप": 6775,
      "▁Greek": 6776,
      "▁N.": 6777,
      "▁Nicobar": 6778,
      "-345": 6779,
      "ండా": 6780,
      "ండీ": 6781,
      "ండ్య": 6782,
      "తాజ్": 6783,
      "▁rel": 6784,
      "నాథ": 6785,
      "▁third": 6786,
      "रीब": 6787,
      "_A7C": 6788,
      "త్వా": 6789,
      "थाईल": 6790,
      "▁[SAARC": 6791,
      "▁(సా.శ.16": 6792,
      "ులు?action=edit&redlink=1": 6793,
      "]](https://hi.wikipedia.org/wiki/भारत#cite_note-10": 6794,
      "ountain": 6795,
      "ountries/": 6796,
      "▁అభి": 6797,
      "कांक": 6798,
      "▁[महाराष्ट्र": 6799,
      "▁ప్రజా": 6800,
      "हिमालय": 6801,
      "hailand": 6802,
      "తం?action=edit&redlink=1": 6803,
      "mplates": 6804,
      "▁विज्ञान": 6805,
      "▁Organization": 6806,
      "పూర్": 6807,
      "_Pradesh": 6808,
      "aph": 6809,
      "सां": 6810,
      "ngineering": 6811,
      "▁[Central": 6812,
      "](https://books.google.com/books?id=3TRtDwAAQBAJ&pg=PA": 6813,
      "ప్రిల్": 6814,
      "▁ఉంట": 6815,
      "▁ఉత్తర": 6816,
      "▁\"महाराष्ट्र": 6817,
      "▁సామా": 6818,
      "వాద": 6819,
      "](Special:BookSources/978-81": 6820,
      "a_1": 6821,
      "విధ": 6822,
      "ార్ఖండ్": 6823,
      "otal": 6824,
      "ंडमान": 6825,
      "క్షరాస్య": 6826,
      "▁लिया": 6827,
      "▁\"Special:BookSources/978-81": 6828,
      "ogri": 6829,
      "_March_": 6830,
      "मीरात": 6831,
      "▁now": 6832,
      "परेशन": 6833,
      "పుర": 6834,
      "▁నడి": 6835,
      "▁करना": 6836,
      "▁करता": 6837,
      "▁ఇండియా": 6838,
      "_and_union_territ": 6839,
      "](https://hi.wikipedia.org/wiki/महाराष्ट्र": 6840,
      "▁areas": 6841,
      "_River": 6842,
      "ंदोल": 6843,
      "▁Ved": 6844,
      "_Goa": 6845,
      "గుప్": 6846,
      "డుకు": 6847,
      "నేషియా": 6848,
      "aking": 6849,
      "▁[![The": 6850,
      "ంగాణ": 6851,
      "▁జన": 6852,
      "లియా": 6853,
      "▁[2](https://hi.wikipedia.org/wiki/भारत#cite_ref-FOOTNOTE": 6854,
      "▁ప్రాచ": 6855,
      "▁విభ": 6856,
      "▁వివిధ": 6857,
      "▁भाषा\")[[": 6858,
      "▁సంఘ": 6859,
      "▁[1](https://hi.wikipedia.org/wiki/भारत#cite_ref-FOOTNOTE": 6860,
      "ameez": 6861,
      "ండిచ్చేరి": 6862,
      "▁main": 6863,
      "▁like": 6864,
      "राष्ट्रीय_स": 6865,
      "सभक": 6866,
      "▁वर्षा": 6867,
      "हारजिस्ट": 6868,
      "egistrar": 6869,
      "mergency": 6870,
      "_भारतीय_": 6871,
      "ा_वार्ता:": 6872,
      "33-7": 6873,
      "-symbols": 6874,
      "1962": 6875,
      "1967": 6876,
      "జీరియా": 6877,
      "▁घरेलू": 6878,
      "▁Urdu": 6879,
      "ంకేతి": 6880,
      "DwAAQBAJ": 6881,
      "न्नड": 6882,
      "alaysia": 6883,
      "వేలీ": 6884,
      "समूह": 6885,
      "▁निभाई": 6886,
      "](https://hi.wikipedia.org/wiki/पूर्व": 6887,
      "_Fund": 6888,
      "▁2007\n": 6889,
      "rates": 6890,
      "–సా.శ.పూ.3": 6891,
      "ukesh": 6892,
      "బియా": 6893,
      "दाख": 6894,
      "▁river": 6895,
      "▁change": 6896,
      "డామన్": 6897,
      "▁రాష్ట్రపతి": 6898,
      "▁agriculture": 6899,
      "▁था,": 6900,
      "త్రిపుర": 6901,
      "क्षेत्रफल": 6902,
      "_కాల": 6903,
      "▁రైల్వే": 6904,
      "▁Pradesh\")": 6905,
      "ographical": 6906,
      "ेर-": 6907,
      "య్యూ": 6908,
      "త్తీస్": 6909,
      "▁ప్రదేశ్](https://te.wikipedia.org/wiki/": 6910,
      "▁disc": 6911,
      "▁[Archived](https://web.archive.org/web/20210": 6912,
      "ंपन": 6913,
      "ंपरा": 6914,
      "▁अपने": 6915,
      "▁[↑](https://hi.wikipedia.org/wiki/भारत#cite_ref-10": 6916,
      "నాగాలా": 6917,
      "जयनगर": 6918,
      "▁These": 6919,
      "–123": 6920,
      "ार्कट": 6921,
      "▁न्यायाधीश": 6922,
      "▁\"జమ్మూ": 6923,
      "pib.nic.in/": 6924,
      "▁subcontinent\")": 6925,
      "▁\"संयुक्त": 6926,
      "ambodia": 6927,
      "▁పాకిస్తాన్": 6928,
      "tected": 6929,
      "▁तटीय": 6930,
      "ually": 6931,
      "కోవ": 6932,
      "కోబార్": 6933,
      "](https://te.wikipedia.org/wiki/జమ్మూ": 6934,
      "ల్లవ": 6935,
      "Chennai": 6936,
      "▁Force": 6937,
      "भूट": 6938,
      "▁species": 6939,
      "chedule": 6940,
      "emocratic": 6941,
      "_पार्ट": 6942,
      "▁पार्टी": 6943,
      "sites/": 6944,
      "రేబియా": 6945,
      "Insur": 6946,
      "▁सदस": 6947,
      "▁सुरक्षा": 6948,
      "्रांति": 6949,
      "▁rock": 6950,
      "ominion": 6951,
      "▁2025.": 6952,
      "िज़ोर": 6953,
      "టాక్": 6954,
      "ataraj": 6955,
      "▁మాత్ర": 6956,
      "్రిటిష్": 6957,
      "पातकाल": 6958,
      "వెను": 6959,
      "ూచి": 6960,
      "_of_South_Asia": 6961,
      "భారతదేశ_రాష్ట్రాలు,_కేంద్రపాలిత_ప్రాంత": 6962,
      "्यानमार": 6963,
      "▁जलवायु": 6964,
      "ప్పటిక": 6965,
      "भोजपुरी": 6966,
      "lectri": 6967,
      "business/": 6968,
      "లేషియా": 6969,
      "▁majority": 6970,
      "▁మొదల": 6971,
      "Spear199024": 6972,
      "दिभ्स": 6973,
      "▁Temple": 6974,
      "स्लाम": 6975,
      "Taj_Mah": 6976,
      "▁occup": 6977,
      "Sharma2007": 6978,
      "इप्रस": 6979,
      "ద్యు": 6980,
      "▁చిత్ర": 6981,
      "ద్వీప్": 6982,
      "▁ఉపఖండ": 6983,
      "▁దేశంలోని": 6984,
      "▁राजनीतिक": 6985,
      "▁[पंजाब](https://hi.wikipedia.org/wiki/पंजाब": 6986,
      "▁కాంగ్రెసు": 6987,
      "फाएं": 6988,
      "▁Before": 6989,
      "al_in_March_": 6990,
      "ाल्दिभ्स": 6991,
      "elangana": 6992,
      "ఆగష్టు": 6993,
      "లక్షద్వీప్": 6994,
      "హాయం:": 6995,
      "ీకరణ": 6996,
      "ోల్‌కా": 6997,
      "మిజోరా": 6998,
      "_राजवंश": 6999,
      "▁शुरू": 7000,
      "▁लगभग": 7001,
      "lurton199": 7002,
      "ravidian": 7003,
      "▁appro": 7004,
      "▁employed": 7005,
      "खनऊ": 7006,
      "ర్యానా": 7007,
      "▁[ఢిల్లీ](https://te.wikipedia.org/wiki/ఢిల్లీ": 7008,
      "thehindu": 7009,
      "razil": 7010,
      "టిబెట్": 7011,
      "हरियाणा": 7012,
      "మెరికా": 7013,
      "lothing": 7014,
      "▁widely": 7015,
      "_के_अनुसार_देश": 7016,
      "-national-language": 7017,
      "Home_Affairs": 7018,
      "IFT": 7019,
      "బడ్డీ": 7020,
      "ేరళ": 7021,
      "్రైస్త": 7022,
      "ండమాన్": 7023,
      "ెలవుదిన": 7024,
      "▁./श्रेणी:जानकारीबौक्स\\_देशमे\\_अज्ञात\\_मापदण्डसभ\\_सहितक\\_पृष्ठसभ#l": 7025,
      "तुल्य": 7026,
      "ृषि": 7027,
      "▁दोनों": 7028,
      "olnar": 7029,
      "_Commission": 7030,
      "/national-symbols": 7031,
      "Tarlo1996": 7032,
      "runei": 7033,
      "ऍथनोल": 7034,
      "తెలంగాణ": 7035,
      "ెన్నై": 7036,
      "‌మహల్": 7037,
      "▁\"साँचा": 7038,
      "](https://hi.wikipedia.org/wiki/साँचा_वार्ता:": 7039,
      "acmillan": 7040,
      "ingapore": 7041,
      "▁Asher,": 7042,
      "▁वृद्धि": 7043,
      "తాజ్‌మహల్": 7044,
      "▁[महाराष्ट्र](https://hi.wikipedia.org/wiki/महाराष्ट्र": 7045,
      "▁\"महाराष्ट्र\")": 7046,
      "క్షరాస్యత": 7047,
      "_and_union_territories": 7048,
      "हारजिस्ट्रार": 7049,
      "నాగాలాండ్": 7050,
      "ार्कटिका": 7051,
      "](https://te.wikipedia.org/wiki/జమ్మూ_కాశ్మీ": 7052,
      "Taj_Mahal_in_March_": 7053,
      "ోల్‌కాతా": 7054,
      "ऍथनोलॉग": 7055,
      "Taj_Mahal_in_March_2004": 7056,
      ".ed": 7057,
      "0/0": 7058,
      "220": 7059,
      "Jha": 7060,
      "t-": 7061,
      "▁40": 7062,
      "onk": 7063,
      "tification": 7064,
      "▁(a)": 7065,
      "▁(b)": 7066,
      "asht": 7067,
      "19.": 7068,
      "▁Policy": 7069,
      "107": 7070,
      "▁Day": 7071,
      "_of_India.svg": 7072,
      "search": 7073,
      "▁Asia:": 7074,
      "1):": 7075,
      "type": 7076,
      "857": 7077,
      "isease": 7078,
      "58)": 7079,
      "▁Short": 7080,
      "a/a": 7081,
      "cms).": 7082,
      "itzel": 7083,
      ".edu": 7084,
      "ashtra": 7085,
      "2nd": 7086,
      "=`": 7087,
      "KI": 7088,
      "_14": 7089,
      "_term": 7090,
      "even": 7091,
      "here": 7092,
      "i/": 7093,
      "via": 7094,
      "ंस": 7095,
      "इटे": 7096,
      "क\")": 7097,
      "नो": 7098,
      "फगान": 7099,
      "मस": 7100,
      "मिर": 7101,
      "लिम": 7102,
      "ैली": 7103,
      "ोण": 7104,
      "▁9.": 7105,
      "orig": 7106,
      "्रिस": 7107,
      "▁सन्": 7108,
      "▁सम्प": 7109,
      "▁India\"](https://web.archive.org/web/201": 7110,
      "ations/": 7111,
      "-138": 7112,
      "▁men": 7113,
      "unknown": 7114,
      "illi": 7115,
      "ilbert": 7116,
      "नाइटे": 7117,
      "▁Mar": 7118,
      "▁Br": 7119,
      "▁ब्रिटिश": 7120,
      "_सागर": 7121,
      "▁Economy": 7122,
      "▁आधुनिक": 7123,
      "▁वे": 7124,
      "स्लिम": 7125,
      "ablish": 7126,
      "1857": 7127,
      "aving": 7128,
      "स्तान\")": 7129,
      "▁Hindus": 7130,
      "_Gandhi": 7131,
      "मान्य": 7132,
      "iteracy": 7133,
      "853": 7134,
      "▁निर्भर": 7135,
      "ctorate": 7136,
      "तिहासिक": 7137,
      "▁[संस्कृत": 7138,
      "ights": 7139,
      "▁Environmental": 7140,
      ".worldbank.org/": 7141,
      "aranth": 7142,
      "imachal": 7143,
      "tlas": 7144,
      "दक्षिण_एशिया": 7145,
      "cogni": 7146,
      "▁`|": 7147,
      "hattisgarh": 7148,
      "फगानिस्तान": 7149,
      "्रिसमस": 7150,
      "नाइटेड": 7151,
      "%)": 7152,
      "-II": 7153,
      "-logo": 7154,
      "/M": 7155,
      "1.\n": 7156,
      "3).": 7157,
      "3.\n": 7158,
      "5-3": 7159,
      "6.\n": 7160,
      "Countries": 7161,
      "Constituent": 7162,
      "Forest": 7163,
      "States": 7164,
      "Wright": 7165,
      "_18": 7166,
      "_per": 7167,
      "_1.": 7168,
      "_2011": 7169,
      "_Union": 7170,
      "aci": 7171,
      "cu": 7172,
      "cod": 7173,
      "cted": 7174,
      "ctive": 7175,
      "d/d": 7176,
      "hā": 7177,
      "mation": 7178,
      "mall": 7179,
      "ots": 7180,
      "rban": 7181,
      "s_in_India": 7182,
      "tou": 7183,
      "tate": 7184,
      "u,": 7185,
      "uries": 7186,
      "upee": 7187,
      "wat": 7188,
      "yth": 7189,
      "▁7.": 7190,
      "▁ob": 7191,
      "iated": 7192,
      "orpor": 7193,
      "pen": 7194,
      "](https://www": 7195,
      "▁[History": 7196,
      "enj": 7197,
      "enous": 7198,
      "▁\"Template": 7199,
      "▁\"International": 7200,
      "ina\")": 7201,
      "inated": 7202,
      "an,": 7203,
      "Inf": 7204,
      "er-": 7205,
      "alace": 7206,
      "alk:": 7207,
      "reen": 7208,
      "itar": 7209,
      "▁(in": 7210,
      "▁(199": 7211,
      "▁(2011": 7212,
      "▁(2007": 7213,
      "▁(India)": 7214,
      "ick": 7215,
      "▁inter": 7216,
      "▁independence": 7217,
      "raw": 7218,
      "raman": 7219,
      "aten": 7220,
      "-0\").\n": 7221,
      "▁prac": 7222,
      "etwork": 7223,
      "acred": 7224,
      "ation,": 7225,
      "ustice": 7226,
      "▁cre": 7227,
      "▁census": 7228,
      "▁Agency": 7229,
      "▁Sub": 7230,
      "▁talk:": 7231,
      "▁band": 7232,
      "▁based": 7233,
      "lose": 7234,
      "▁[↑](https://en.wikipedia.org/wiki/India#cite_": 7235,
      "rove": 7236,
      "rowing": 7237,
      "rocod": 7238,
      "ficient": 7239,
      "▁divis": 7240,
      "▁domestic": 7241,
      "ilk": 7242,
      "ily": 7243,
      "ourism": 7244,
      "▁Tim": 7245,
      "▁Trade": 7246,
      "](https://en.wikipedia.org/wiki/India#cite_ref-vatsyayan-lord_43": 7247,
      "igenous": 7248,
      "▁Dance": 7249,
      "▁Dyson": 7250,
      "▁east": 7251,
      "2649": 7252,
      "▁last": 7253,
      "▁\"Special:EditPage/Template:": 7254,
      "ayana": 7255,
      "lymp": 7256,
      "▁[↑](https://en.wikipedia.org/wiki/India#cite_ref-4": 7257,
      "Univers": 7258,
      "beral": 7259,
      "▁Ganges": 7260,
      "▁Gujarat": 7261,
      "-349": 7262,
      "formatics": 7263,
      "-4\").\n": 7264,
      "2221": 7265,
      "▁though": 7266,
      "](https://en.wikipedia.org/wiki/India#CITEREFM": 7267,
      "akers": 7268,
      "sey": 7269,
      "▁Francis": 7270,
      "40px-": 7271,
      "▁Informatics": 7272,
      "_and_Development": 7273,
      "▁\"Central": 7274,
      "▁\"Climate": 7275,
      "▁become": 7276,
      "_Ch": 7277,
      "osa": 7278,
      "Harv\\_and\\_Sfn\\_no-target\\_errors\n": 7279,
      "▁\"Ministry": 7280,
      "](Special:EditPage/Template:": 7281,
      ")[[3": 7282,
      "undarb": 7283,
      "](https://en.wikipedia.org/wiki/Ministry_of_": 7284,
      "](Special:BookSources/978-0-521": 7285,
      "a_M": 7286,
      "▁\"Special:BookSources/978-0-521": 7287,
      "dies": 7288,
      "lled": 7289,
      "▁str": 7290,
      "ajasthan": 7291,
      "rchitecture": 7292,
      "orea": 7293,
      "▁tea": 7294,
      "489": 7295,
      "_and_N": 7296,
      "398": 7297,
      "▁ancient": 7298,
      "▁\"Delhi": 7299,
      "_Ram": 7300,
      "▁Vedic": 7301,
      "_Times": 7302,
      "_Nations": 7303,
      "](https://en.wikipedia.org/wiki/Delhi": 7304,
      "▁2011](https://en.wikipedia.org/wiki/India#CITEREF": 7305,
      "▁\"Routledge": 7306,
      "](https://en.wikipedia.org/wiki/Routledge": 7307,
      "▁mathematics": 7308,
      "▁[Routledge": 7309,
      "angetic": 7310,
      "▁[Tamil": 7311,
      "▁2014](https://en.wikipedia.org/wiki/India#CITEREF": 7312,
      "_Economic": 7313,
      "▁centre": 7314,
      "▁centuries": 7315,
      "mplate_tal": 7316,
      "▁US$": 7317,
      "▁sever": 7318,
      "▁(2017).": 7319,
      "▁adop": 7320,
      "▁milk": 7321,
      "▁military": 7322,
      "▁millen": 7323,
      "▁leg": 7324,
      "ina](https://en.wikipedia.org/wiki/Ch": 7325,
      "▁plain": 7326,
      "orities/": 7327,
      "▁[Fisher": 7328,
      "▁[t](https://en.wikipedia.org/wiki/Te": 7329,
      "▁parliament": 7330,
      "▁known": 7331,
      "230-345": 7332,
      "Information": 7333,
      "ronom": 7334,
      "▁Indo-": 7335,
      "▁[China](https://en.wikipedia.org/wiki/Ch": 7336,
      "▁[e](Special:EditPage/Template:": 7337,
      "▁[v](Template:": 7338,
      "▁numbers": 7339,
      "-level": 7340,
      "▁Talbot,": 7341,
      "Fisher2018),": 7342,
      "▁Buddha": 7343,
      "/authorities/": 7344,
      "▁upper": 7345,
      "cms)": 7346,
      "IAF": 7347,
      "▁2025.\n": 7348,
      "Environment": 7349,
      "▁refor": 7350,
      "arliamentary": 7351,
      "Hindustani": 7352,
      "▁2018](https://en.wikipedia.org/wiki/India#CITEREFFisher2018),": 7353,
      "-language\\_text": 7354,
      "merican": 7355,
      "Library_of_Congress": 7356,
      "default": 7357,
      "](https://en.wikipedia.org/wiki/History_of_": 7358,
      "▁Conservation": 7359,
      "▁Monetary": 7360,
      "ibetan": 7361,
      "ield": 7362,
      "▁republic": 7363,
      "forcement": 7364,
      "▁India](https://en.wikipedia.org/wiki/Government_of_India": 7365,
      "▁direct": 7366,
      "first": 7367,
      "disha": 7368,
      "▁zone": 7369,
      "▁1994](https://en.wikipedia.org/wiki/India#CITEREF": 7370,
      "struction": 7371,
      "▁Games\")": 7372,
      "-107-02649": 7373,
      "▁engineering": 7374,
      "limate_": 7375,
      "▁village": 7376,
      "8+5": 7377,
      "Wright2010": 7378,
      "touch": 7379,
      "▁(2007).": 7380,
      "▁Dyson,": 7381,
      "undarbans": 7382,
      "▁\"Routledge\").": 7383,
      "▁[Routledge](https://en.wikipedia.org/wiki/Routledge": 7384,
      "mplate_talk:": 7385,
      "▁millennium": 7386,
      "▁[t](https://en.wikipedia.org/wiki/Template_talk:": 7387,
      "230-34549-2": 7388,
      "▁[China](https://en.wikipedia.org/wiki/China": 7389,
      "-107-02649-0": 7390,
      "\"](https://web.archive.org/web/20": 7391,
      ")[": 7392,
      "*](https://web.archive.org/web/201": 7393,
      "-गंगा": 7394,
      "/we": 7395,
      "1%20": 7396,
      "41": 7397,
      "528": 7398,
      "CH": 7399,
      "E﻿": 7400,
      "OLA": 7401,
      "YS": 7402,
      "_50": 7403,
      "egh": 7404,
      "fun": 7405,
      "gar": 7406,
      "voy": 7407,
      "ँकि": 7408,
      "ईसाई": 7409,
      "ऊर्जा": 7410,
      "ऋतु": 7411,
      "ऑपरेशन": 7412,
      "ख्य": 7413,
      "त्या": 7414,
      "थी": 7415,
      "थाली": 7416,
      "दु": 7417,
      "नत": 7418,
      "ल्त": 7419,
      "वली": 7420,
      "शील": 7421,
      "सत": 7422,
      "सैन": 7423,
      "ाय": 7424,
      "ूस": 7425,
      "ोब": 7426,
      "ोडिया": 7427,
      "१८५७": 7428,
      "४.": 7429,
      "▁[चीन": 7430,
      "▁\"प्र": 7431,
      "▁\"विशेष:EditPage/साँचा:": 7432,
      "India.pdf)": 7433,
      "arak": 7434,
      "report": 7435,
      "▁क्रम": 7436,
      "▁कर्ज": 7437,
      "](https://hi.wikipedia.org/wiki/य": 7438,
      "](https://hi.wikipedia.org/wiki/विशेष:EditPage/साँचा:": 7439,
      "▁सूर": 7440,
      "asp?": 7441,
      "▁मील": 7442,
      "lease": 7443,
      "-13": 7444,
      "ume": 7445,
      "विद्यालय": 7446,
      "21.": 7447,
      "राजनी": 7448,
      "लावा": 7449,
      "▁प्रण": 7450,
      "▁प्रभा": 7451,
      "▁प्रकार": 7452,
      "▁प्रारम्भ": 7453,
      "▁बि": 7454,
      "▁बनी": 7455,
      "▁बड़ी": 7456,
      "263": 7457,
      "▁निय": 7458,
      "▁नृत्य": 7459,
      "_सिनेमा": 7460,
      "▁*B": 7461,
      "स्ता": 7462,
      "ित्व": 7463,
      "▁आय": 7464,
      "-45": 7465,
      "508": 7466,
      "स्‍": 7467,
      "री\")": 7468,
      "रीक्षण": 7469,
      "▁गए": 7470,
      "geoh": 7471,
      "ादरा": 7472,
      "135": 7473,
      "15/": 7474,
      "▁संख्या": 7475,
      "▁पर्यटन": 7476,
      "▁परमाणु": 7477,
      "▁परंपरा": 7478,
      "नेट": 7479,
      "▁विवाद": 7480,
      "▁विभाग": 7481,
      "14.": 7482,
      "monsoon": 7483,
      "▁भाषाएँ": 7484,
      "_के_देश": 7485,
      "ी](https://hi.wikipedia.org/wiki/प": 7486,
      "ी](https://hi.wikipedia.org/wiki/स": 7487,
      "_Data_": 7488,
      "▁[भारत](https://hi.wikipedia.org/wiki/भारत": 7489,
      "भिन्न": 7490,
      "▁Vol": 7491,
      "▁[GDP": 7492,
      "द्यान": 7493,
      "▁धी": 7494,
      "newsite": 7495,
      "▁जाते": 7496,
      "general": 7497,
      "िवेश": 7498,
      "▁इसी": 7499,
      "%E0%A5%": 7500,
      "2004).": 7501,
      "▁समूह": 7502,
      "ध्यम": 7503,
      "ंबर": 7504,
      "34238": 7505,
      "▁१९९": 7506,
      "-in-india": 7507,
      "▁किन्तु": 7508,
      "▁जिसके": 7509,
      "▁सिंह": 7510,
      "](https://hi.wikipedia.org/wiki/उत्तर": 7511,
      "्यटन\")": 7512,
      "▁notation": 7513,
      "▁[t](https://hi.wikipedia.org/wiki/साँचा_वार्ता:": 7514,
      "वर्ष": 7515,
      "▁अपनी": 7516,
      "जयपुर": 7517,
      "▁2016.\n": 7518,
      "श्रीनगर": 7519,
      "▁रहे": 7520,
      "दिल्ली](https://hi.wikipedia.org/wiki/": 7521,
      "▁[e](https://hi.wikipedia.org/wiki/विशेष:EditPage/साँचा:": 7522,
      "▁[v](https://hi.wikipedia.org/wiki/साँचा:": 7523,
      "▁वायु": 7524,
      "2001),": 7525,
      "▁डॉल": 7526,
      "▁ऊर्जा": 7527,
      ".net": 7528,
      "▁ईस्ट": 7529,
      "माजिक": 7530,
      "▁हुआ।": 7531,
      "](https://hi.wikipedia.org/wiki/संस्कृत": 7532,
      "▁2004](https://hi.wikipedia.org/wiki/भारत#CITEREF": 7533,
      "/articleshow/5": 7534,
      "▁प्रतिशत": 7535,
      "ूरोपीय": 7536,
      "11934238": 7537,
      "_का_खाना": 7538,
      "-a-b": 7539,
      "वासी": 7540,
      "▁उद्यान": 7541,
      "▁उद्यान\")": 7542,
      ".aspx?rel": 7543,
      "▁शक्तिपीठ": 7544,
      "_उत्पाद": 7545,
      "_राज्यक्षेत्र": 7546,
      "▁राजवंश\")": 7547,
      "▁विदेशी": 7548,
      "ंडोनेशिया": 7549,
      "_और_संघ_क्षेत्र": 7550,
      "▁सहयोग": 7551,
      "rajbhasha": 7552,
      "_Lanka": 7553,
      "AGE": 7554,
      "▁सितंबर": 7555,
      "▁जबकि": 7556,
      "▁गठबंधन": 7557,
      "_तथा": 7558,
      "-language\\_sources\\_(en": 7559,
      "pib.nic.in/newsite": 7560,
      "_पार्टी": 7561,
      "_के_अनुसार_देशों_की_सूची": 7562,
      "ल्तनत": 7563,
      "सैनिक": 7564,
      "lease.aspx?rel": 7565,
      "geohack": 7566,
      "▁डॉलर": 7567,
      "-asia": 7568,
      "2.\n": 7569,
      "3–": 7570,
      "4-3": 7571,
      "623": 7572,
      "96": 7573,
      "First": 7574,
      "Flag": 7575,
      "Republic": 7576,
      "_10": 7577,
      "_45": 7578,
      "music": 7579,
      "tle": 7580,
      "var": 7581,
      "wa": 7582,
      "▁X": 7583,
      "orial": 7584,
      "tten": 7585,
      "istered": 7586,
      "2013": 7587,
      "2011.": 7588,
      "ices": 7589,
      "icator": 7590,
      "19)": 7591,
      "-05": 7592,
      "▁poll": 7593,
      "\\_par": 7594,
      "ing,": 7595,
      "atch": 7596,
      "[[18": 7597,
      "▁Report": 7598,
      "▁Book": 7599,
      "indicator": 7600,
      "▁Ne": 7601,
      "-39": 7602,
      "opal": 7603,
      "29)": 7604,
      "establish": 7605,
      "▁John": 7606,
      "▁Ins": 7607,
      "270": 7608,
      "▁Library": 7609,
      "▁On": 7610,
      "▁West": 7611,
      "-5196": 7612,
      "384": 7613,
      "▁expectancy": 7614,
      "ssamese": 7615,
      "ameters": 7616,
      "\"](https://web.archive.org/web/20140": 7617,
      "times.indiatimes.com/": 7618,
      "▁[Ludden": 7619,
      "/articles/": 7620,
      "▁consid": 7621,
      "unjabi": 7622,
      "place": 7623,
      "▁[*An": 7624,
      "resident_of_India": 7625,
      "▁2022.\n": 7626,
      "KulkeRothermund2004),": 7627,
      "▁(2018).": 7628,
      "economictimes.indiatimes.com/": 7629,
      "ksai": 7630,
      "▁(2006).": 7631,
      "Pages\\_using\\_infobox": 7632,
      "\\_country\\_with\\_": 7633,
      "onkani": 7634,
      "\\_parameters": 7635,
      "\\_parameters#": 7636,
      "-H": 7637,
      "-R": 7638,
      "-th": 7639,
      "-st": 7640,
      "-27": 7641,
      "-कार": 7642,
      ".t": 7643,
      ".JPG": 7644,
      "0&s": 7645,
      "1).": 7646,
      "2-0": 7647,
      "2-10": 7648,
      "3-7": 7649,
      "613": 7650,
      "9]](https://en.wikipedia.org/wiki/India#cite_note-FOOTNOTE": 7651,
      "9-6": 7652,
      ":IN": 7653,
      "CCN": 7654,
      "DR": 7655,
      "David": 7656,
      "Gum": 7657,
      "HQ": 7658,
      "MAAJ": 7659,
      "SN": 7660,
      "South_Asian_": 7661,
      "Sanchi": 7662,
      "Web": 7663,
      "Yum": 7664,
      "_అ": 7665,
      "_ఎ": 7666,
      "_ర": 7667,
      "_World": 7668,
      "_యు": 7669,
      "_రాజ": 7670,
      "_శాస్త్ర": 7671,
      "cia": 7672,
      "dic": 7673,
      "evanagari": 7674,
      "government": 7675,
      "ji": 7676,
      "lar": 7677,
      "mand": 7678,
      "mas": 7679,
      "more": 7680,
      "oz": 7681,
      "p.org/": 7682,
      "rian": 7683,
      "rince": 7684,
      "tar": 7685,
      "top": 7686,
      "uin": 7687,
      "xim": 7688,
      "आर": 7689,
      "ख्": 7690,
      "तार": 7691,
      "द्रा": 7692,
      "पूर्ण": 7693,
      "फिल": 7694,
      "बन": 7695,
      "बे": 7696,
      "भौ": 7697,
      "भरत": 7698,
      "लक": 7699,
      "विक": 7700,
      "ाबा": 7701,
      "२.": 7702,
      "ఒలి": 7703,
      "కూ": 7704,
      "క్ర": 7705,
      "గే": 7706,
      "గ్ర": 7707,
      "గతి": 7708,
      "జు": 7709,
      "ఞాన": 7710,
      "టం": 7711,
      "టన్": 7712,
      "పం": 7713,
      "పో": 7714,
      "పచ్చ": 7715,
      "మ్య": 7716,
      "యాలో": 7717,
      "లె": 7718,
      "వై": 7719,
      "వ్": 7720,
      "వత్స": 7721,
      "వృద్ధి": 7722,
      "శ్రమ": 7723,
      "సీ": 7724,
      "స్రా": 7725,
      "హక": 7726,
      "హన": 7727,
      "ాంగ": 7728,
      "ీఠ": 7729,
      "ువు": 7730,
      "ూపా": 7731,
      "ృష్": 7732,
      "ెహ": 7733,
      "ెట్": 7734,
      "ేన": 7735,
      "ైద": 7736,
      "ైగా": 7737,
      "ొయ": 7738,
      "▁७": 7739,
      "▁ఘ": 7740,
      "▁ve": 7741,
      "▁జా": 7742,
      "▁education": 7743,
      "orse": 7744,
      "▁[గ": 7745,
      "▁[కు": 7746,
      "▁[పా": 7747,
      "▁[దక్షిణ": 7748,
      "▁[హిందూ": 7749,
      "▁[लोक": 7750,
      "▁[పాకిస్తాన్": 7751,
      "▁[ముంబై": 7752,
      "▁[International": 7753,
      "en:": 7754,
      "ene": 7755,
      "▁\"గ": 7756,
      "▁\"ची": 7757,
      "▁\"రాష్ట్ర": 7758,
      "▁\"దక్షిణ": 7759,
      "▁\"మూస": 7760,
      "▁\"హిందూ": 7761,
      "▁\"పాకిస్తాన్": 7762,
      "▁\"ప్రపంచ": 7763,
      "▁\"ముంబై": 7764,
      "▁\"Indus": 7765,
      "▁\"వర్గం:Harv": 7766,
      "▁\"ప్రత్యేక:EditPage/మూస:": 7767,
      "\")1": 7768,
      "in,": 7769,
      "inan": 7770,
      "anada": 7771,
      "tis": 7772,
      "till": 7773,
      "](https://en.wikipedia.org/wiki/U": 7774,
      "](https://en.wikipedia.org/wiki/Indus": 7775,
      "India_Goa": 7776,
      "eri": 7777,
      "ergy": 7778,
      "arv": 7779,
      "arrow": 7780,
      "reater": 7781,
      "ising": 7782,
      "isted": 7783,
      "cid": 7784,
      "cir": 7785,
      "▁(nominal)": 7786,
      "▁often": 7787,
      "](https://te.wikipedia.org/wiki/మూస": 7788,
      "](https://te.wikipedia.org/wiki/జన": 7789,
      "](https://te.wikipedia.org/wiki/వర్గం:Harv": 7790,
      "](https://te.wikipedia.org/wiki/ప్రత్యేక:EditPage/మూస:": 7791,
      "▁महा": 7792,
      "▁मिला": 7793,
      "ico": 7794,
      "▁India\n": 7795,
      "▁India.[[": 7796,
      "190": 7797,
      "lex": 7798,
      "leavy": 7799,
      "rak": 7800,
      "▁su": 7801,
      "▁set": 7802,
      "▁served": 7803,
      "ानी": 7804,
      "▁pur": 7805,
      "\\_n": 7806,
      "\\_link": 7807,
      "uscript": 7808,
      "▁cul": 7809,
      "▁Cather": 7810,
      "్యాలె": 7811,
      "▁After": 7812,
      "స్వా": 7813,
      "▁festi": 7814,
      "ad-": 7815,
      "adakh": 7816,
      "▁పొ": 7817,
      "▁పద్ధ": 7818,
      "▁పైగా": 7819,
      "▁trade": 7820,
      "िकिस्तान": 7821,
      "ర్ద": 7822,
      "ర్ష": 7823,
      "umer": 7824,
      "maint:": 7825,
      "న్ను": 7826,
      "▁Portal": 7827,
      "comp": 7828,
      "hek": 7829,
      "cha": 7830,
      "fied": 7831,
      "▁middle": 7832,
      "▁market": 7833,
      "00–": 7834,
      "una": 7835,
      "unleavy": 7836,
      "न्डिया": 7837,
      "రాజ్యం": 7838,
      "]](https://en.wikipedia.org/wiki/India#cite_note-1": 7839,
      "▁Mana": 7840,
      "లోయ": 7841,
      "▁కేంద్ర": 7842,
      "▁కంపెనీ": 7843,
      "ला\")": 7844,
      "लाका": 7845,
      "ాలు\")\n": 7846,
      "ాలుగా": 7847,
      "▁प्रशास": 7848,
      "▁भारतक": 7849,
      "ंगला": 7850,
      "క్తి": 7851,
      "▁even": 7852,
      "▁early": 7853,
      "▁వై": 7854,
      "ayashi": 7855,
      "భారతదేశం\n": 7856,
      "▁[↑](https://en.wikipedia.org/wiki/India#cite_ref-3": 7857,
      "ional": 7858,
      "▁సమా": 7859,
      "▁సర్వ": 7860,
      "▁సుల్తాన": 7861,
      "ldlife": 7862,
      "▁आ॔": 7863,
      "▁Home": 7864,
      "bercu": 7865,
      "▁Gana": 7866,
      "▁Nuclear": 7867,
      "](https://mai.wikipedia.org/wiki/अ": 7868,
      "](https://mai.wikipedia.org/wiki/सं": 7869,
      "-405": 7870,
      "_in_the": 7871,
      "elated": 7872,
      "▁చర్చ:": 7873,
      "पुत्र": 7874,
      "-8\").\n": 7875,
      "తాక": 7876,
      "▁religions": 7877,
      "నాట": 7878,
      ".in)\n": 7879,
      "తి](https://te.wikipedia.org/wiki/": 7880,
      "abel": 7881,
      "_Agency": 7882,
      "astronom": 7883,
      "సింది.": 7884,
      "▁गान": 7885,
      "▁गेल": 7886,
      "ishers": 7887,
      "▁ne": 7888,
      "–సా.శ.14": 7889,
      "–సా.శ.1947)": 7890,
      "▁అను": 7891,
      "काउ": 7892,
      "▁संयुक्त": 7893,
      "नेई": 7894,
      "ిక,": 7895,
      "िलि": 7896,
      "haw": 7897,
      "AAMAAJ": 7898,
      "163": 7899,
      "लेस": 7900,
      "लेबन": 7901,
      "▁Law": 7902,
      "](https://en.wikipedia.org/wiki/South_Asia": 7903,
      "▁Indians": 7904,
      "▁being": 7905,
      "కుపచ్చ": 7906,
      "](https://te.wikipedia.org/wiki/భారతదేశం#CITEREF": 7907,
      "emen": 7908,
      "▁Wiley": 7909,
      "▁[Craven": 7910,
      "](https://en.wikipedia.org/wiki/Central_": 7911,
      "osys": 7912,
      "▁ఆకుపచ్చ": 7913,
      "-2\").": 7914,
      "▁రే": 7915,
      "మాతర": 7916,
      "మాబాద్": 7917,
      "రుపు": 7918,
      "రుగు": 7919,
      "alls": 7920,
      "allav": 7921,
      "dira": 7922,
      "हिन्दू": 7923,
      "किर्ग": 7924,
      "_Modi": 7925,
      "ommaraj": 7926,
      "मी2": 7927,
      "earning": 7928,
      "kee": 7929,
      "▁నది": 7930,
      "▁[Pakistan": 7931,
      "మించ": 7932,
      "▁తన": 7933,
      "ublishers": 7934,
      "▁१५": 7935,
      "▁deb": 7936,
      "▁deve": 7937,
      "▁\"En": 7938,
      "%2C5": 7939,
      "▁any": 7940,
      "issions": 7941,
      "](https://en.wikipedia.org/wiki/En": 7942,
      "ం](https://te.wikipedia.org/wiki/అ": 7943,
      "ం](https://te.wikipedia.org/wiki/క": 7944,
      "▁rise": 7945,
      "▁rural": 7946,
      "▁rupee": 7947,
      "▁\"Ge": 7948,
      "ంబంధ": 7949,
      "ians": 7950,
      "▁V.": 7951,
      "_Tamil_Nadu": 7952,
      "గువ": 7953,
      "▁\"Tamil": 7954,
      "▁[Delhi": 7955,
      "▁సంస్థ": 7956,
      "▁సంవత్స": 7957,
      "neworld": 7958,
      "డియా": 7959,
      "▁maint:": 7960,
      "मेनि": 7961,
      "ట్లు": 7962,
      "ational_P": 7963,
      "ोकोस": 7964,
      "_చర్చ:": 7965,
      "रबै": 7966,
      "▁\"మధ్య": 7967,
      "▁\"पूर्वी": 7968,
      "%E0%B0%": 7969,
      "▁ఎన్నిక": 7970,
      "▁ఎన్ను": 7971,
      "▁[మధ్య": 7972,
      "▁(సా.శ.పూ.1200": 7973,
      "▁గణ": 7974,
      "▁सूची\"))": 7975,
      "](https://te.wikipedia.org/wiki/మధ్య": 7976,
      ".nic.in)\n": 7977,
      "ohan": 7978,
      "ohenj": 7979,
      "amily": 7980,
      "▁central": 7981,
      "▁हिस्": 7982,
      "▁uni": 7983,
      "▁./వర్గం:Harv\\_and\\_Sfn\\_no-target\\_errors\n": 7984,
      "]](https://te.wikipedia.org/wiki/భారతదేశం#cite_note-india.gov.in": 7985,
      "efficient": 7986,
      "▁1997": 7987,
      "_సంగీతం": 7988,
      "▁where": 7989,
      "▁whose": 7990,
      "_dance": 7991,
      "▁State": 7992,
      "▁([help](https://te.wikipedia.org/wiki/వర్గం:Harv": 7993,
      "ారిగా": 7994,
      "rupee": 7995,
      "నాయక": 7996,
      "హాస": 7997,
      "2014-p": 7998,
      "▁rights": 7999,
      "ोर्नो": 8000,
      "దావరి": 8001,
      "▁కూడిన": 8002,
      "्वरूप": 8003,
      "निर्भर": 8004,
      "KulkeRothermund2016": 8005,
      "▁నిర్వ": 8006,
      "▁స్థా": 8007,
      "▁[t](https://te.wikipedia.org/wiki/మూస": 8008,
      "raditional": 8009,
      "oorkee": 8010,
      "son2014-p": 8011,
      "ోర్చు": 8012,
      "](https://mai.wikipedia.org/wiki/भारतीय_": 8013,
      "▁Shankar": 8014,
      "శాఖ": 8015,
      "▁[జమ్మూ": 8016,
      "▁\"Official": 8017,
      "▁పాత్ర": 8018,
      "_War": 8019,
      "▁\"చైనా": 8020,
      "▁[e](https://te.wikipedia.org/wiki/ప్రత్యేక:EditPage/మూస:": 8021,
      "▁[v](https://te.wikipedia.org/wiki/మూస:": 8022,
      "ropped": 8023,
      "▁century,": 8024,
      "▁ఉన్నాయి.\n": 8025,
      "▁ఒకటి": 8026,
      "▁28.": 8027,
      "▁Art": 8028,
      "జ్ఞాన": 8029,
      "cott": 8030,
      "▁speakers": 8031,
      "cat.org/": 8032,
      "▁మార్గాలు": 8033,
      "▁include": 8034,
      "Wikipedia:": 8035,
      "రోపా": 8036,
      "▁2008](https://en.wikipedia.org/wiki/India#CITEREF": 8037,
      "▁భారతదేశానికి": 8038,
      "ताजिकिस्तान": 8039,
      "▁మతము\")": 8040,
      "▁మతము\"),": 8041,
      "athakali": 8042,
      "Ludden2014": 8043,
      "▁According": 8044,
      "_1960": 8045,
      "riage": 8046,
      "ీనంలో": 8047,
      "▁జాబితా\")\n": 8048,
      "▁ప్రపంచంలో": 8049,
      "▁ప్రభుత్వ": 8050,
      "▁ప్రభుత్వం": 8051,
      "%20%20%20%20%20%20%20%20": 8052,
      "क_सूची": 8053,
      "▁Africa": 8054,
      "business-": 8055,
      "▁major": 8056,
      "▁మొదటి": 8057,
      "union_territory": 8058,
      "▁cities": 8059,
      "lackb": 8060,
      "స్లామాబాద్": 8061,
      "▁పాలన": 8062,
      "▁కార్య": 8063,
      "▁కారణంగా": 8064,
      "▁కలిగి": 8065,
      "ంటుంది.": 8066,
      "anorama": 8067,
      "arlung": 8068,
      "losis": 8069,
      "శోకుడు": 8070,
      "rigonom": 8071,
      "▁జరిగిన": 8072,
      "▁२०११": 8073,
      "వ](https://te.wikipedia.org/wiki/List_of_countries_by": 8074,
      "▁local": 8075,
      "▁[భారతదేశంలో": 8076,
      "▁అనేక": 8077,
      "undamental": 8078,
      "ecutive": 8079,
      "▁ఎక్కువగా": 8080,
      "awaharlal": 8081,
      "▁जयते": 8082,
      "▁caused": 8083,
      "a_dynasty": 8084,
      "▁oldest": 8085,
      "FrontView": 8086,
      "ार्वभौ": 8087,
      "▁వారసత్వ": 8088,
      "▁ప్రస్తుతం": 8089,
      "▁రోడ్": 8090,
      "▁తరువాత": 8091,
      "▁బెంగాల్": 8092,
      "ంపిక్": 8093,
      "](https://en.wikipedia.org/wiki/Mughal_Empire": 8094,
      "countries_and_dependencies_by_population": 8095,
      "o-daro": 8096,
      "▁दृष्टि": 8097,
      "▁[India](https://en.wikipedia.org/wiki/India)": 8098,
      "harmaceutical": 8099,
      "्रुनेई": 8100,
      "तुर्कमेनि": 8101,
      "भुटान": 8102,
      "ంస్కృతం": 8103,
      "▁వెబ్": 8104,
      "▁సౌకర్య": 8105,
      "ండీగఢ్": 8106,
      "▁అభివృద్ధి": 8107,
      "▁నడిపించ": 8108,
      "గుప్త": 8109,
      "sites/default": 8110,
      "భారతదేశ_రాష్ట్రాలు,_కేంద్రపాలిత_ప్రాంతాలు": 8111,
      "Tarlo1996-26": 8112,
      "_and_union_territories_of_India": 8113,
      "Infosys": 8114,
      "▁[↑](https://en.wikipedia.org/wiki/India#cite_ref-1": 8115,
      "beralisation": 8116,
      "-काराबा": 8117,
      "Davidson2014-p": 8118,
      "Gumpa": 8119,
      "HQFrontView": 8120,
      "Sanchi2": 8121,
      "Yumthang": 8122,
      "बेकिस्तान": 8123,
      "ృష్ణా": 8124,
      "inancial": 8125,
      "▁Catherine": 8126,
      "berculosis": 8127,
      "▁(సా.శ.పూ.1200–సా.శ.పూ.": 8128,
      "ohenjo-daro": 8129,
      "▁([help](https://te.wikipedia.org/wiki/వర్గం:Harv_and_Sfn_template_errors": 8130,
      "ोर्नो-काराबा": 8131,
      "▁[t](https://te.wikipedia.org/wiki/మూస_చర్చ:": 8132,
      "ోర్చుగ": 8133,
      "ार्वभौम": 8134,
      "sites/default/files/": 8135,
      "InfosysHQFrontView": 8136,
      "\";\n": 8137,
      ",4": 8138,
      "4_": 8139,
      "CA": 8140,
      "Political_": 8141,
      "_history": 8142,
      "post": 8143,
      "sc": 8144,
      "spect": 8145,
      "▁<": 8146,
      "inal_": 8147,
      "an-": 8148,
      "hib": 8149,
      "ed\\_": 8150,
      "▁(1):": 8151,
      "▁Century": 8152,
      "istrib": 8153,
      "chol": 8154,
      "stat": 8155,
      "▁Tw": 8156,
      "▁Movement": 8157,
      "mem": 8158,
      "▁1980": 8159,
      "▁1971": 8160,
      "ovt": 8161,
      ".gov.": 8162,
      "▁[*M": 8163,
      "alaya": 8164,
      "tence": 8165,
      "▁subject": 8166,
      "/profile": 8167,
      "ukh": 8168,
      "AsherTalbot2008),": 8169,
      "ocuments/": 8170,
      "atabase": 8171,
      "\"](http://www.": 8172,
      "/s": 8173,
      "1)\n": 8174,
      "2%29": 8175,
      "3-": 8176,
      "310": 8177,
      "DS": 8178,
      "Pe": 8179,
      "RA": 8180,
      "Raj": 8181,
      "_28": 8182,
      "_30": 8183,
      "_यु": 8184,
      "_map": 8185,
      "_शासित": 8186,
      "_द्वीप": 8187,
      "aver": 8188,
      "bd": 8189,
      "bu": 8190,
      "dy": 8191,
      "gration": 8192,
      "os/": 8193,
      "ंजन": 8194,
      "उद्": 8195,
      "एम": 8196,
      "कृति": 8197,
      "चार": 8198,
      "जल": 8199,
      "तमान": 8200,
      "धर्": 8201,
      "मय": 8202,
      "मूल": 8203,
      "यपालिका": 8204,
      "र-": 8205,
      "ल्ड": 8206,
      "शक्ति": 8207,
      "सर": 8208,
      "हू": 8209,
      "िरा": 8210,
      "िंह": 8211,
      "ीक": 8212,
      "ीर": 8213,
      "ीकरण": 8214,
      "ुस्तान": 8215,
      "ूनाइटेड": 8216,
      "ेय": 8217,
      "ोत्तर": 8218,
      "–17": 8219,
      "–120": 8220,
      "▁झ": 8221,
      "▁ता": 8222,
      "▁establish": 8223,
      "win": 8224,
      "https": 8225,
      "](https://catal": 8226,
      "▁[ए": 8227,
      "▁[ख": 8228,
      "▁[28": 8229,
      "▁[राष्ट्रीय": 8230,
      "▁[राजस्थान": 8231,
      "▁[दिल्ली](https://hi.wikipedia.org/wiki/": 8232,
      "▁\"श": 8233,
      "▁\"वि": 8234,
      "▁\"पु": 8235,
      "▁\"दिल्ल": 8236,
      "▁\"गुजरात": 8237,
      "▁\"विश्व": 8238,
      "▁\"राजस्थान": 8239,
      "2020": 8240,
      "2022": 8241,
      "▁कह": 8242,
      "](https://hi.wikipedia.org/wiki/ड": 8243,
      "](https://hi.wikipedia.org/wiki/वि": 8244,
      "](https://hi.wikipedia.org/wiki/प्र": 8245,
      "](https://hi.wikipedia.org/wiki/गुजरात": 8246,
      "](https://hi.wikipedia.org/wiki/राजस्थान": 8247,
      "▁सश": 8248,
      "▁समा": 8249,
      "▁समान": 8250,
      "▁सल्तनत": 8251,
      "▁(J": 8252,
      "्यु": 8253,
      "्यपालिका": 8254,
      "▁मंत्र": 8255,
      "▁India\"](https://": 8256,
      "let": 8257,
      "रान": 8258,
      "rame": 8259,
      "▁पहा": 8260,
      "▁sim": 8261,
      "200853": 8262,
      "ानून": 8263,
      "▁policy": 8264,
      "ritten": 8265,
      "\\_c": 8266,
      "\\_Wiki": 8267,
      "-100": 8268,
      "▁हिल": 8269,
      "▁Summit": 8270,
      "िकता": 8271,
      "िकेट": 8272,
      "▁अभी": 8273,
      "▁अभिय": 8274,
      "▁12.": 8275,
      "stre": 8276,
      "ाली](https://hi.wikipedia.org/wiki/": 8277,
      "्षिक": 8278,
      "ilar": 8279,
      "▁जै": 8280,
      "▁जिन्": 8281,
      "ेशिया\")": 8282,
      "?action=edit&redlink=1#": 8283,
      "olia": 8284,
      "▁Modi": 8285,
      "▁Ram": 8286,
      "_केंद्र": 8287,
      "results": 8288,
      "▁air": 8289,
      "▁Bengali": 8290,
      "▁बल": 8291,
      "▁बौद्ध": 8292,
      "▁बैंक": 8293,
      "ंगल": 8294,
      "ंगीत": 8295,
      "108": 8296,
      "▁नगर": 8297,
      "_सु": 8298,
      "_स्": 8299,
      "_सभा": 8300,
      "▁से](https://": 8301,
      "▁*A": 8302,
      "▁आप": 8303,
      "▁आंदोल": 8304,
      "116": 8305,
      "▁ती": 8306,
      "▁तो": 8307,
      "▁तुल": 8308,
      "▁तीस": 8309,
      "स्चेंज": 8310,
      "abin": 8311,
      "▁गति": 8312,
      "ड़िशा": 8313,
      "▁nation": 8314,
      "▁उस": 8315,
      "▁उद्योग": 8316,
      "15)": 8317,
      "▁संस्कृत": 8318,
      "▁around": 8319,
      "्याचल": 8320,
      "▁रु": 8321,
      "]](https://hi.wikipedia.org/wiki/भारत#cite_note-Combined": 8322,
      "त्ता": 8323,
      "uccess": 8324,
      "▁भाषाएं": 8325,
      "ी](https://hi.wikipedia.org/wiki/न": 8326,
      "▁\"मुंबई": 8327,
      "पांड": 8328,
      "ंडल": 8329,
      "dire": 8330,
      "कार्यपालिका": 8331,
      "ocs/": 8332,
      "▁क्षेत्र,": 8333,
      "▁[↑](https://hi.wikipedia.org/wiki/भारत#cite_ref-Combined": 8334,
      "द्वित": 8335,
      "्राम": 8336,
      "वाँ": 8337,
      "irectorate": 8338,
      "▁पुलिस": 8339,
      "▁प्रदेश](https://hi.wikipedia.org/wiki/मध्य": 8340,
      "ंदर": 8341,
      "▁धरोहर": 8342,
      "ublications/": 8343,
      "त्न": 8344,
      "▁वर्ण": 8345,
      "▁वर्तमान": 8346,
      "िवास": 8347,
      "गणतंत्र": 8348,
      "](https://hi.wikipedia.org/wiki/ब्रिटिश": 8349,
      "▁हिमालय": 8350,
      "▁[उर्दू": 8351,
      "▁किया।": 8352,
      "%E0%A4%9": 8353,
      "▁\"उर्दू": 8354,
      "AsherTalbot200853": 8355,
      "▁CITEREFKulkeRothermund2004": 8356,
      "▁गया।[[": 8357,
      "स्थाप": 8358,
      "▁१९८": 8359,
      "आई.": 8360,
      "data.worldbank.org/": 8361,
      "](https://hi.wikipedia.org/wiki/उर्दू": 8362,
      "वर्ल्ड": 8363,
      "०००": 8364,
      "▁मुर्मू": 8365,
      "▁पूर्वी": 8366,
      "▁अपना": 8367,
      "ूचना-विज्ञान": 8368,
      "▁Thomas": 8369,
      "▁[↑](https://hi.wikipedia.org/wiki/भारत#cite_ref-FOOTNOTEStein1998": 8370,
      "▁माध्यम": 8371,
      "▁across": 8372,
      "ड़ीसा": 8373,
      "▁बहुमत": 8374,
      "▁थी।": 8375,
      "कल_घ": 8376,
      "▁सुधार": 8377,
      "▁इतिहास\")": 8378,
      "हायक": 8379,
      "ministered": 8380,
      "▁संगीत": 8381,
      "ause": 8382,
      "formation": 8383,
      "▁शांति": 8384,
      "▁वार्षिक": 8385,
      "_एवं": 8386,
      "कटिबंधीय": 8387,
      "▁सभा\")": 8388,
      "▁नीति": 8389,
      "ीपी)": 8390,
      "ैथिली": 8391,
      "▁ऑफ": 8392,
      "रेलू_उत्पाद": 8393,
      "▁लेकर": 8394,
      "▁अनुसंधान": 8395,
      "britannica.com/place": 8396,
      "▁सूचना-विज्ञान": 8397,
      "MetcalfMetcalf2012-": 8398,
      "▁मौसम": 8399,
      "▁विस्तृत": 8400,
      "ष्णकटिबंधीय": 8401,
      "▁लाख": 8402,
      "िन्धु-गंगा": 8403,
      ".jpeg": 8404,
      "जरायल": 8405,
      "\\_कड़ियाँ": 8406,
      "▁अमेरिका": 8407,
      "_सेना": 8408,
      "▁पहुँच": 8409,
      "▁हालाँकि": 8410,
      "भूटान": 8411,
      "▁[भारत](https://hi.wikipedia.org/wiki/भारत)": 8412,
      "▁धीरे": 8413,
      "▁2004](https://hi.wikipedia.org/wiki/भारत#CITEREFKulkeRothermund2004),": 8414,
      "_map_en": 8415,
      "मूल्य": 8416,
      "▁[राजस्थान](https://hi.wikipedia.org/wiki/राजस्थान": 8417,
      "▁\"दिल्ली\")": 8418,
      "▁\"राजस्थान\")": 8419,
      "▁similar": 8420,
      "▁हिल्स": 8421,
      "▁तुलना": 8422,
      "▁प्रदेश](https://hi.wikipedia.org/wiki/मध्य_प्रदेश": 8423,
      "▁[उर्दू](https://hi.wikipedia.org/wiki/उर्दू": 8424,
      "data.worldbank.org/indicator": 8425,
      "कल_घरेलू_उत्पाद": 8426,
      "%,": 8427,
      "*),": 8428,
      "*](https://web.archive.org/web/200": 8429,
      ",_India": 8430,
      "/)": 8431,
      "/news/": 8432,
      "1st": 8433,
      "223": 8434,
      "2-7": 8435,
      "4-0": 8436,
      "4]](https://en.wikipedia.org/wiki/India#cite_note-FOOTNOTE": 8437,
      "41)": 8438,
      "7)[[": 8439,
      "BI": 8440,
      "Bangalore": 8441,
      "Ge": 8442,
      "Gangetic": 8443,
      "K:": 8444,
      "Mon": 8445,
      "NI": 8446,
      "Navy": 8447,
      "OV": 8448,
      "Oj": 8449,
      "PT": 8450,
      "VII": 8451,
      "Zor": 8452,
      "_21": 8453,
      "_india": 8454,
      "_con": 8455,
      "_se": 8456,
      "_2008": 8457,
      "aur": 8458,
      "audi": 8459,
      "bird": 8460,
      "cutt": 8461,
      "dministrative": 8462,
      "ful": 8463,
      "hag": 8464,
      "jayan": 8465,
      "lé": 8466,
      "mon": 8467,
      "ocal": 8468,
      "pi": 8469,
      "pub": 8470,
      "pper": 8471,
      "rang": 8472,
      "uters": 8473,
      "vin": 8474,
      "ypr": 8475,
      "–11": 8476,
      "–Pakistan": 8477,
      "▁ter": 8478,
      "▁35": 8479,
      "▁4.": 8480,
      "▁5.": 8481,
      "▁8.": 8482,
      "▁times": 8483,
      "ora": 8484,
      "oria": 8485,
      "oram": 8486,
      "orary": 8487,
      "orne": 8488,
      "ttac": 8489,
      ".wikidata": 8490,
      ".org/wiki/Q": 8491,
      "▁[te": 8492,
      "▁[Harle": 8493,
      "▁[978-0-19-9": 8494,
      "▁[978-0-521-80904-7": 8495,
      "teri": 8496,
      "anch": 8497,
      "onal": 8498,
      "though": 8499,
      "](https://en.wikipedia.org/wiki/International_": 8500,
      "hili": 8501,
      "era": 8502,
      "ardian": 8503,
      "ales": 8504,
      "alakrishnan": 8505,
      "alcutt": 8506,
      "isa": 8507,
      "ison": 8508,
      "istic": 8509,
      "isak": 8510,
      "tion,": 8511,
      "anding": 8512,
      "omain": 8513,
      "ito": 8514,
      "itor": 8515,
      "itchi": 8516,
      "▁(union": 8517,
      "ought": 8518,
      "asar": 8519,
      "ases": 8520,
      "asian": 8521,
      "▁India](https://en.wikipedia.org/wiki/P": 8522,
      "▁inequality": 8523,
      "▁so": 8524,
      "▁stu": 8525,
      "▁sultanate": 8526,
      "▁small": 8527,
      "etnam": 8528,
      "▁char": 8529,
      "▁cap": 8530,
      "▁Cynth": 8531,
      "▁Singh": 8532,
      "▁Social": 8533,
      "▁Schwartzberg": 8534,
      "▁Schedule": 8535,
      "▁fl": 8536,
      "ads": 8537,
      "▁trib": 8538,
      "urg": 8539,
      "urasia": 8540,
      "urasian": 8541,
      "▁Prin": 8542,
      "lines": 8543,
      "uler": 8544,
      "istorical": 8545,
      "heet": 8546,
      "heel": 8547,
      "_of_N": 8548,
      "ially": 8549,
      "rotected": 8550,
      "▁mark": 8551,
      "▁2016.": 8552,
      "▁data": 8553,
      "ilt": 8554,
      "olid": 8555,
      "olice": 8556,
      "mentin-": 8557,
      "▁ap": 8558,
      "▁Bharat": 8559,
      "mporary": 8560,
      "nific": 8561,
      "ignific": 8562,
      "_(union_territory": 8563,
      "▁Desert": 8564,
      "▁eaten": 8565,
      "ir_Force": 8566,
      "24_A7C": 8567,
      "▁India\").[[": 8568,
      "▁India\")*.": 8569,
      "▁[↑](https://en.wikipedia.org/wiki/India#cite_ref-Combined": 8570,
      "▁E.": 8571,
      "1999": 8572,
      ".[[28": 8573,
      ".[[35": 8574,
      "forest": 8575,
      "_in_T": 8576,
      "elug": 8577,
      "▁2009.": 8578,
      "▁remain": 8579,
      "▁three": 8580,
      "abour": 8581,
      "](https://en.wikipedia.org/wiki/India#CITEREFCraven1997": 8582,
      "_Ag": 8583,
      "aks": 8584,
      "akes": 8585,
      "ishes": 8586,
      "▁1970": 8587,
      "▁[Sri": 8588,
      "▁Journal": 8589,
      "▁[\"M": 8590,
      "40.": 8591,
      "epali": 8592,
      "27.": 8593,
      "16]](https://en.wikipedia.org/wiki/India#cite_note-": 8594,
      "ained": 8595,
      "▁L.": 8596,
      "▁London": 8597,
      "conomist": 8598,
      "▁Organisation": 8599,
      "▁Olymp": 8600,
      "_Census": 8601,
      "-9\").\n": 8602,
      "emi": 8603,
      "](https://en.wikipedia.org/wiki/Climate_": 8604,
      "Harvard": 8605,
      "-2\").\n": 8606,
      "-2](Special:BookSources/978-1": 8607,
      "▁[↑](https://en.wikipedia.org/wiki/India#cite_ref-FOOTNOTEM": 8608,
      "▁[↑](https://en.wikipedia.org/wiki/India#cite_ref-FOOTNOTECraven1997": 8609,
      ")[[13": 8610,
      "ysis": 8611,
      "ummary": 8612,
      "▁[Mughal": 8613,
      "](Special:BookSources/978-0-19-9": 8614,
      "alled": 8615,
      "▁\"Special:BookSources/978-0-19-9": 8616,
      "▁[BRICS": 8617,
      "▁\"BRICS": 8618,
      "▁original](http://": 8619,
      "artial": 8620,
      "7080": 8621,
      "2006),": 8622,
      "▁*[B": 8623,
      "anies": 8624,
      "▁\"East": 8625,
      "▁\"Economic": 8626,
      "](https://en.wikipedia.org/wiki/Economic": 8627,
      "_Re": 8628,
      "ible": 8629,
      "ibli": 8630,
      "_Games": 8631,
      "_National_P": 8632,
      "_Bank": 8633,
      "▁\"New": 8634,
      "▁31": 8635,
      "▁\"Th": 8636,
      "_pro": 8637,
      "▁\"Russia": 8638,
      "](https://en.wikipedia.org/wiki/Russia": 8639,
      "▁[Russia": 8640,
      "ultur": 8641,
      "1965": 8642,
      "laci": 8643,
      "▁(2016).": 8644,
      "ervice": 8645,
      "_capita": 8646,
      "_Indian_subcontinent": 8647,
      "▁plate": 8648,
      "data.bnf.fr/ark:/12148/cb": 8649,
      "oriz": 8650,
      "▁./Category:Articles\\_contain": 8651,
      "2_22": 8652,
      "_relations": 8653,
      "Army": 8654,
      "▁2023.": 8655,
      "▁2023](https://en.wikipedia.org/wiki/India#CITEREF": 8656,
      "▁regional": 8657,
      "▁Religion": 8658,
      "ortality": 8659,
      "oastrian": 8660,
      "-203": 8661,
      "ppines": 8662,
      "crimin": 8663,
      "▁\"China\")": 8664,
      "ujarati": 8665,
      "▁music\")": 8666,
      "▁diversity": 8667,
      "Vijayan": 8668,
      "Vietnam": 8669,
      "▁common": 8670,
      "▁about": 8671,
      "ID-19": 8672,
      "ample": 8673,
      "▁election\"),": 8674,
      "▁traditional": 8675,
      "▁well": 8676,
      "al_Pradesh": 8677,
      "aharashtra": 8678,
      "_News": 8679,
      "Articles\\_with\\_": 8680,
      "Harle1994),": 8681,
      "_Shankar": 8682,
      "▁highest": 8683,
      "▁longer": 8684,
      ".svg/40px-": 8685,
      "▁player": 8686,
      "Robb2011": 8687,
      "ilies": 8688,
      "olden_Temple": 8689,
      "anoram": 8690,
      "timesofindia.indiatimes.com/india/": 8691,
      "▁Publishing\").": 8692,
      "izoram": 8693,
      "▁texts": 8694,
      ".svg.png)](File:": 8695,
      "▁Europe*](https://books.google.com/books?id=": 8696,
      "ogue.bnf.fr/ark:/12148/cb": 8697,
      "▁contribu": 8698,
      "ristianity": 8699,
      "5/5": 8700,
      ".[[406]](https://en.wikipedia.org/wiki/India#cite_note-vatsyayan-lord-4": 8701,
      "Ministry_of_Home_Affairs": 8702,
      "Zealand": 8703,
      "b/b": 8704,
      "hanghai": 8705,
      "▁historical": 8706,
      "▁size": 8707,
      "▁colleges": 8708,
      "kbar": 8709,
      "▁popular": 8710,
      "67733-7": 8711,
      "ichell2000": 8712,
      "](https://id.": 8713,
      "▁kingdoms": 8714,
      "▁following": 8715,
      "▁emerged": 8716,
      "ataraja": 8717,
      "lectricity": 8718,
      "▁approxim": 8719,
      "IFTY": 8720,
      "](https://www.wikidata": 8721,
      "▁divisions": 8722,
      "▁adopted": 8723,
      "▁legisl": 8724,
      "▁1994](https://en.wikipedia.org/wiki/India#CITEREFHarle1994),": 8725,
      "touchability": 8726,
      "wait": 8727,
      "rincely": 8728,
      "▁festival": 8729,
      "▁developed": 8730,
      "▁1997](https://en.wikipedia.org/wiki/India#CITEREFCraven1997": 8731,
      "OVID-19": 8732,
      "Ojha": 8733,
      "Zoroastrian": 8734,
      "lémentin-": 8735,
      "yprus": 8736,
      "hilippines": 8737,
      "alcutta": 8738,
      "itchison": 8739,
      "▁Cynthia": 8740,
      "_(union_territory)": 8741,
      "_National_Park": 8742,
      "Vijayanagar": 8743,
      "Ministry_of_Home_Affairs_1960": 8744,
      "](https://www.wikidata.org/wiki/Q": 8745,
      "▁1997](https://en.wikipedia.org/wiki/India#CITEREFCraven1997),": 8746,
      "lémentin-Ojha": 8747,
      "#P": 8748,
      ",6": 8749,
      "-for": 8750,
      "/C-0": 8751,
      "1b": 8752,
      "2-1": 8753,
      "9857": 8754,
      "HDR": 8755,
      "LS": 8756,
      "MDD": 8757,
      "Tab": 8758,
      "W00": 8759,
      "XLS": 8760,
      "_ध": 8761,
      "_य": 8762,
      "_he": 8763,
      "_जन": 8764,
      "_ex": 8765,
      "culture": 8766,
      "jana": 8767,
      "med.": 8768,
      "tats": 8769,
      "}}": 8770,
      "क्र": 8771,
      "ङ्ला": 8772,
      "दी_": 8773,
      "पिय": 8774,
      "लिया": 8775,
      "ोड": 8776,
      "०,": 8777,
      "or\\_": 8778,
      "▁\"ISO": 8779,
      "isni": 8780,
      "ispu": 8781,
      "acts": 8782,
      "\\_or\\_": 8783,
      "▁tril": 8784,
      "urmu": 8785,
      "▁Present": 8786,
      "00%20A": 8787,
      "213": 8788,
      "▁जीत": 8789,
      "▁दिवस": 8790,
      "▁Mani": 8791,
      "▁Britannica": 8792,
      "▁Barb": 8793,
      "▁प्रमाण": 8794,
      "▁*2011": 8795,
      "▁आज": 8796,
      "113": 8797,
      "-49857": 8798,
      "50)": 8799,
      "▁2002": 8800,
      "18)": 8801,
      "▁[\"World": 8802,
      "15.": 8803,
      "_मु": 8804,
      "▁Ludden": 8805,
      "ndl": 8806,
      "-2_Data_": 8807,
      "▁साम": 8808,
      "▁साहित्य": 8809,
      "47.": 8810,
      "%202-": 8811,
      "ana-m": 8812,
      "ana-49857": 8813,
      ".jp/auth": 8814,
      "opulation_en": 8815,
      "▁अनुस": 8816,
      "▁१२": 8817,
      "▁१८": 8818,
      "7.208": 8819,
      "%2C_A": 8820,
      "%2C_M": 8821,
      "news18": 8822,
      "म्बन्ध": 8823,
      "▁77.208": 8824,
      "IND": 8825,
      "/countries/": 8826,
[...]
