{"name":"era-v5-s2-bpe","version":2,"vocab_size":10000,"langs":["en","hi","te","ne"],"algo":"codepoint-level BPE; lowercase normalization; whitespace pre-tokenization (no cross-word merges); greedy rank-based merge application; unseen unit -> <unk>","normalize":"lower","en_target":1.2,"sources":{"en":{"title":"India","revid":1362789340,"url":"https://en.wikipedia.org/w/index.php?oldid=1362789340"},"hi":{"title":"भारत","revid":6579409,"url":"https://hi.wikipedia.org/w/index.php?oldid=6579409"},"te":{"title":"భారతదేశం","revid":4848340,"url":"https://te.wikipedia.org/w/index.php?oldid=4848340"},"ne":{"title":"भारत","revid":1343084,"url":"https://ne.wikipedia.org/w/index.php?oldid=1343084"}},"unk":"<unk>","base":["\"","$","%","&","'","(",")","+",",","-",".","/","0","1","2","3","4","5","6","7","8","9",":",";","=","[","]","^","a","b","c","d","e","f","g","h","i","j","k","l","m","n","o","p","q","r","s","t","u","v","w","x","y","z","|","°","á","â","í","ö","ā","ī","ś","ū","ə","ɦ","ɪ","ɾ","ʊ","ʱ","ˈ","ː","ί","α","δ","ν","ο","ς","ό","ँ","ं","ः","अ","आ","इ","ई","उ","ऊ","ऋ","ए","ऐ","ऑ","ओ","औ","क","ख","ग","घ","ङ","च","छ","ज","झ","ञ","ट","ठ","ड","ढ","ण","त","थ","द","ध","न","प","फ","ब","भ","म","य","र","ल","व","श","ष","स","ह","़","ा","ि","ी","ु","ू","ृ","े","ै","ॉ","ो","ौ","्","।","०","१","२","३","४","५","६","७","८","९","॰","ం","ః","అ","ఆ","ఇ","ఈ","ఉ","ఋ","ఎ","ఏ","ఐ","ఒ","ఓ","ఔ","క","ఖ","గ","ఘ","చ","ఛ","జ","ఞ","ట","ఠ","డ","ఢ","ణ","త","థ","ద","ధ","న","ప","ఫ","బ","భ","మ","య","ర","ల","ళ","వ","శ","ష","స","హ","ా","ి","ీ","ు","ూ","ృ","ె","ే","ై","ొ","ో","ౌ","్","ṅ","ṇ","ṣ","ṭ","ἰ","‌","‍","–","—","‘","’","“","”","†","′","₹"],"merges":[["i","n"],["t","h"],["a","n"],["th","e"],["e","r"],["o","n"],["r","e"],["a","l"],["e","n"],["s","t"],["d","i"],["a","t"],["a","r"],["e","d"],["an","d"],["o","r"],["o","f"],["a","s"],["i","t"],["i","on"],["in","di"],["e","s"],["i","c"],["i","s"],["in","g"],["en","t"],["t","o"],["o","m"],["indi","a"],["o","u"],["e","c"],["l","y"],["u","r"],["l","e"],["c","h"],["a","m"],["d","e"],["l","i"],["v","er"],["c","e"],["i","l"],["c","on"],["r","i"],["r","a"],["o","l"],["u","l"],["s","e"],["at","ion"],["b","y"],["v","e"],["r","o"],["a","d"],["b","e"],["s",","],["t","ion"],["indi","an"],["e","m"],["f","or"],["m","o"],["u","n"],["i","st"],["g","e"],["a","st"],["l","o"],["1","9"],["u","s"],["t","er"],["w","e"],["w","i"],["re","s"],["w","h"],["g","h"],["m","a"],["i","r"],["s","u"],["2","0"],["'","s"],["e","x"],["s","."],["wi","th"],["i","m"],["at","e"],["m","ent"],["a","c"],["w","as"],["a","b"],["d","u"],["a","re"],["ar","t"],["d","er"],["p","o"],["r","om"],["i","es"],["u","t"],["ic","al"],["o","ver"],["w","er"],["c","om"],["h","as"],["p","er"],["f","rom"],["ic","h"],["a","g"],["an","g"],["s","o"],["c","ent"],["e","t"],["i","al"],["in","c"],["s","h"],["it","s"],["il","l"],["p","l"],["s","i"],["wh","ich"],["a","f"],["w","or"],["0","0"],["a","in"],["a","y"],["e","ar"],["it","y"],["m","e"],["on","g"],["p","ro"],["con","t"],["the","r"],["u","re"],["r","it"],["s","ou"],["u","m"],["ul","t"],["an","t"],["c","o"],["l","d"],["ar","y"],["india","'s"],["s","p"],["a",","],["a","k"],["i","d"],["ec","on"],["i","ve"],["l","u"],["ou","n"],["wer","e"],["l","ar"],["n","o"],["t","ed"],["a","p"],["at","ed"],["for","m"],["g","en"],["i","g"],["m","in"],["e","l"],["m","ar"],["n","e"],["we","st"],["g","ion"],["i","v"],["lar","ge"],["n","or"],["p","art"],["al","l"],["is","h"],["is","m"],["p","or"],["r","u"],["an","s"],["econ","om"],["es",","],["g","over"],["h","i"],["o","d"],["y",","],["a","ge"],["a","v"],["af","ter"],["am","e"],["as","s"],["en","d"],["gover","n"],["lo","w"],["o","p"],["ou","gh"],["wor","ld"],["e","st"],["f","o"],["in","du"],["ou","s"],["sou","th"],["u","p"],["al","ly"],["an","y"],["b","ec"],["b","er"],["em","p"],["govern","ment"],["ou","r"],["an","ce"],["ur","ing"],["cent","ur"],["in","d"],["in","to"],["m","ill"],["t","s"],["20","1"],["as","i"],["d","ec"],["er","n"],["india",","],["l","at"],["p","ul"],["st","it"],["t","ra"],["ang","u"],["com","p"],["d","ing"],["d","uring"],["f","e"],["l","angu"],["su","b"],["u","tion"],["an","c"],["b","ut"],["h","a"],["i",","],["min","ist"],["o","g"],["u","c"],["1",","],["c","l"],["e","ast"],["f","ir"],["fo","re"],["i","re"],["in","e"],["p","ri"],["res","s"],["t","r"],["y","ear"],["20","0"],["b","o"],["es","."],["g","an"],["h","indu"],["inc","lu"],["po","pul"],["q","u"],["re","gion"],["re","li"],["u","d"],["v","ed"],["con","stit"],["er","al"],["fir","st"],["g","re"],["s","c"],["s","y"],["w","ar"],["der","n"],["di","tion"],["du","c"],["ec","tion"],["en","ce"],["h","o"],["l","and"],["p","e"],["p","ol"],["re","as"],["v","i"],["bec","ame"],["com","m"],["en","g"],["ex","t"],["h","ad"],["india","."],["l","ong"],["m","us"],["mo","dern"],["n","ation"],["n","i"],["ro","w"],["so","c"],["st","em"],["sy","stem"],["us","ed"],["y","."],["al","so"],["at","es"],["be","en"],["c","ast"],["cont","in"],["emp","ire"],["f","ic"],["ha","ve"],["inc","reas"],["j","or"],["large","st"],["ma","jor"],["minist","er"],["mo","st"],["om","e"],["p","ar"],["p","re"],["r","ic"],["s","er"],["th","is"],["the","m"],["west","ern"],["b","an"],["con","g"],["ec","t"],["h","ist"],["mill","ion"],["mo","re"],["p","h"],["r","al"],["su","ch"],["the","ir"],["the","re"],["ther","n"],["ur","al"],["w","o"],["am","ong"],["at","ic"],["be","t"],["bo","th"],["c","oun"],["c","ult"],["cl","ass"],["cong","ress"],["constit","ution"],["d","om"],["h","er"],["in","f"],["m","any"],["n","um"],["ou","t"],["p","t"],["th","at"],["tra","dition"],["w","n"],["wh","o"],["b","l"],["c","or"],["c","t"],["d","ance"],["di","ver"],["g","row"],["im","al"],["li","m"],["m","u"],["nation","al"],["ne","w"],["no","t"],["nor","th"],["oun","d"],["por","t"],["pri","me"],["t","a"],["t","wo"],["un","der"],["19","5"],["19","6"],["19","9"],["a","."],["b","ce"],["b","i"],["bet","we"],["betwe","en"],["cast","e"],["cent","ral"],["econom","ic"],["el","ection"],["es","s"],["f","f"],["f","ol"],["h","e"],["is","ation"],["ist","an"],["it","ion"],["le","ar"],["ma","in"],["th","ough"],["u","res"],["ur","ban"],["year","s"],["1","."],["20","2"],["am","ent"],["ar","i"],["b","rit"],["b","ud"],["brit","ish"],["bud","d"],["c","a"],["contin","ent"],["d","es"],["gh","t"],["in","ce"],["k","ing"],["l","ed"],["langu","age"],["li","fe"],["n","on"],["n","uc"],["nuc","lear"],["num","ber"],["o","c"],["popul","ation"],["r","ough"],["su","p"],["6","%"],["ag","es"],["ak","istan"],["be","gan"],["class","ical"],["em","er"],["ex","p"],["g","ra"],["ial","ly"],["ical","ly"],["ism",","],["low","ing"],["m","id"],["ol","og"],["p","akistan"],["p","u"],["ri","ver"],["s","ity"],["se","t"],["t","ec"],["a","ch"],["ab","le"],["ac","t"],["ang","es"],["b","al"],["c","al"],["c","re"],["d","ed"],["de","l"],["de","ve"],["e","ur"],["en","c"],["gen","eral"],["h","ar"],["hist","or"],["ies",","],["il","it"],["it","ed"],["k","ed"],["l","it"],["lat","er"],["lo","p"],["non","-"],["nor","thern"],["o","-"],["p","res"],["per","i"],["po","wer"],["r","ate"],["r","is"],["s","ince"],["s","ing"],["sp","ec"],["t","im"],["t","ing"],["th","an"],["world","'s"],["0",","],["00","0"],["1","8"],["7",","],["b","as"],["bl","ic"],["c","our"],["ch","o"],["d","ra"],["deve","lop"],["di","c"],["g","r"],["h","um"],["in","ter"],["inclu","ding"],["increas","ed"],["inf","lu"],["it","e"],["k","et"],["k","h"],["l","ish"],["le","g"],["lit","er"],["o","ther"],["on","e"],["pl","ate"],["pol","it"],["pu","blic"],["r","y"],["reli","gion"],["s","ome"],["st","at"],["sub","continent"],["ul","ar"],["v","al"],["19","4"],["a","w"],["anc","i"],["anci","ent"],["as",","],["ate","ly"],["ation","s"],["c","ol"],["ch","in"],["cult","ure"],["di","s"],["diver","sity"],["ear","ly"],["fore","st"],["gh","al"],["hi","gh"],["ig","n"],["is","ed"],["j","p"],["k","rit"],["li","ament"],["m","er"],["m","ilit"],["mu","ghal"],["mus","ic"],["oc","c"],["of","fic"],["op","le"],["par","liament"],["pe","ople"],["peri","od"],["po","s"],["re","n"],["ru","le"],["st","ate"],["st","y"],["t","e"],["t","en"],["t","ri"],["tec","h"],["th","rough"],["un","ion"],["us","$"],["2","."],["5","."],["a","u"],["ans","krit"],["ap","p"],["asi","a"],["ation",","],["b","eng"],["beng","al"],["c","an"],["ca","used"],["co","o"],["comm","on"],["comp","any"],["coun","tr"],["de","m"],["de","mo"],["di","re"],["e",","],["econom","y"],["en","ni"],["enni","um"],["eur","op"],["fol","lowing"],["g","i"],["g","u"],["id","ent"],["ies","."],["ind","us"],["j","ab"],["k","e"],["le","ad"],["m","an"],["ma","them"],["milit","ary"],["mill","ennium"],["p","un"],["pl","ain"],["pun","jab"],["r","at"],["r","on"],["s","anskrit"],["s","ur"],["ser","ved"],["si","g"],["soc","i"],["soc","ial"],["t","ro"],["ult","an"],["v","ent"],["ve","ment"],["wor","k"],["-","largest"],["0","."],["19","8"],["5",","],["ac","k"],["ag","o"],["am","p"],["are","d"],["as","h"],["b","ill"],["bill","ion"],["c","ar"],["c","iv"],["centur","y"],["co","ast"],["cor","ding"],["cour","t"],["dom","in"],["duc","ed"],["e","f"],["emer","g"],["en","s"],["er","ed"],["europ","e"],["f","am"],["f","ar"],["f","er"],["g","a"],["gen","er"],["h","imal"],["himal","ay"],["ho","we"],["howe","ver"],["however",","],["i","ed"],["ic","s"],["ind","o-"],["ir","d"],["j","an"],["l","l"],["ly",","],["m","al"],["major","ity"],["me","di"],["mus","lim"],["n","at"],["n","ed"],["part","y"],["r","ural"],["reli","gi"],["rit","or"],["s","s"],["ter","ritor"],["th","re"],["the","ast"],["the","se"],["the","y"],["un","ited"],["v","ing"],["v","ol"],["wi","de"],["%","."],[")",","],["1","7"],["19","7"],["201","1"],["a","ce"],["a","ir"],["ac","cording"],["ag","ric"],["agric","ult"],["an","ge"],["an","n"],["and","hi"],["ar","ch"],["ar","m"],["b","a"],["bas","ed"],["bi","o"],["c","it"],["centur","y,"],["co","al"],["cont","r"],["cont","ri"],["contr","ol"],["d","ay"],["d","le"],["de","v"],["del","hi"],["dire","ct"],["e","i"],["east","ern"],["ec","ted"],["emerg","ed"],["er","s"],["f","ed"],["f","in"],["f","l"],["f","t"],["fe","at"],["g","andhi"],["g","ar"],["gre","at"],["grow","th"],["hum","an"],["i","an"],["i","li"],["ig","in"],["in","s"],["inclu","de"],["indu","st"],["influ","enc"],["j","ain"],["l","ast"],["langu","ages"],["lo","cal"],["lo","wer"],["ma","de"],["mar","ri"],["mid","dle"],["mo","vement"],["o","b"],["o","wn"],["om","en"],["om","et"],["or","igin"],["p","ain"],["p","end"],["polit","ical"],["re","d"],["re","public"],["religi","ous"],["s","ultan"],["sc","ri"],["se","ver"],["si","kh"],["st","ates"],["sultan","ate"],["t",","],["t","re"],["th","ird"],["tr","ans"],["u","st"],["ver","y"],["w","omen"],[")","."],["2",","],["3","."],["4","%"],["6",","],["7","."],["9","."],["a","th"],["ad","es"],["am","an"],["an","imal"],["are","as"],["b","ir"],["b","jp"],["b","od"],["b","ra"],["b","re"],["c","ap"],["c","ial"],["c","ru"],["c","ur"],["civ","il"],["countr","y"],["d","a"],["d","s"],["de","pend"],["demo","c"],["di","ff"],["di","v"],["e","p"],["ec","ially"],["econ","d"],["ed","uc"],["eng","lish"],["es","p"],["esp","ecially"],["et","y"],["europe","an"],["f","ast"],["f","ig"],["f","ound"],["form","ed"],["g","anges"],["gre","w"],["h","indi"],["h","ru"],["h","y"],["ic",","],["il","d"],["increas","ing"],["ing",","],["is","l"],["ity",","],["iv","es"],["k","a"],["l","ing"],["liter","ac"],["m","en"],["m","i"],["m","on"],["mar","ket"],["mathem","atic"],["ment","s"],["n","olog"],["ne","hru"],["o","se"],["occ","up"],["offic","ial"],["og","ra"],["ogra","ph"],["or","gan"],["p","ed"],["pain","ting"],["parliament","ary"],["pro","v"],["r","ul"],["re","l"],["re","main"],["s","econd"],["sc","ul"],["scul","pt"],["sh","o"],["st","e"],["t","al"],["t","i"],["t","ur"],["t","y"],["tech","nolog"],["u","ally"],["un","d"],["v","en"],["0","%"],["1","5"],["19","3"],["194","7,"],["4","."],["4","00"],["4","2"],["6","."],["7","%"],["8","."],["ad","minist"],["al","though"],["all","ed"],["am","il"],["anc","es"],["and","aman"],["ant","s"],["art",","],["at","ing"],["b","ack"],["b","h"],["bec","ome"],["bod","y"],["budd","h"],["budd","hist"],["c","."],["c","ess"],["c","k"],["c","lo"],["centur","ies"],["ch","ed"],["chin","a"],["com","pos"],["comm","er"],["cont","ain"],["cre","ated"],["d","en"],["d","p"],["de","fin"],["de","st"],["dec","l"],["diver","se"],["e","th"],["ear","li"],["ec","ut"],["ed",","],["educ","ation"],["em","ber"],["en","dem"],["en","ins"],["er","e"],["er","s,"],["ex","ecut"],["ex","por"],["f","act"],["f","ied"],["f","ive"],["f","our"],["f","ur"],["fed","eral"],["fic","ant"],["fore","ign"],["fur","ther"],["g","dp"],["g","o"],["ge","ograph"],["gr","ou"],["grou","p"],["he","ad"],["her","e"],["i","de"],["i","p"],["ic","e"],["im","port"],["indian","s"],["ion","s"],["isl","am"],["ist","ic"],["king","dom"],["land","s"],["le","ft"],["li","ber"],["lo","y"],["long","er"],["m","it"],["n","al"],["ni","ficant"],["o",","],["o","k"],["o","s"],["of","ten"],["ou","ld"],["p","enins"],["p","rom"],["per","si"],["pl","ay"],["popul","ar"],["qu","ent"],["r","ates"],["ra",","],["region","al"],["ris","e"],["s","ist"],["se","quent"],["ser","v"],["si","ve"],["sig","nificant"],["sou","theast"],["sou","thern"],["sty","l"],["su","m"],["sup","p"],["t","amil"],["t","il"],["ter","m"],["thre","e"],["tradition","al"],["u","se"],["un","til"],["ure",","],["v","a"],["val","le"],["vi","ol"],["w","a"],["w","ay"],["w","on"],["we","ll"],["who","se"],["y","a"],["y","an"],["-","d"],["0","s,"],["1","%"],["1","3"],["3","%"],["3",","],["9","%"],["a","de"],["ab","lish"],["ab","out"],["al","e"],["al","li"],["al","ong"],["al","s"],["al","th"],["an","k"],["and",","],["ang","ered"],["ant","ed"],["ar","a"],["ar","d"],["ar","n"],["ar","ound"],["asi","a,"],["asi","an"],["at","ive"],["at","t"],["b","har"],["b","le"],["b","or"],["b","ro"],["be","fore"],["bhar","at"],["bir","th"],["bra","h"],["c","av"],["c","ens"],["c","lim"],["c","ri"],["cap","it"],["ce",","],["cens","us"],["ch","ar"],["ch","e"],["cho","ol"],["coal","ition"],["comp","le"],["con","duc"],["con","si"],["consi","der"],["contin","u"],["coo","ked"],["cur","ren"],["der","s"],["develop","ment"],["di","sp"],["di","st"],["diff","er"],["disp","ut"],["e","k"],["e","very"],["earli","est"],["ei","ght"],["election",","],["em","per"],["emp","loy"],["en","ac"],["end","angered"],["er",","],["est","ablish"],["est","im"],["ex","ter"],["execut","ive"],["exter","nal"],["fam","ili"],["g","lo"],["g","up"],["ge","t"],["gh","at"],["gra","du"],["gra","ph"],["grow","ing"],["h","av"],["h","ou"],["he","ld"],["i","-"],["i","ans"],["i","z"],["il","ity"],["import","ant"],["in","depend"],["influenc","ed"],["ing","s"],["is","e"],["iv","ed"],["j","ust"],["jan","u"],["janu","ary"],["k","ash"],["k","no"],["kno","wn"],["l","f"],["l","ine"],["lead","ing"],["li","d"],["literac","y"],["m","ary"],["m","ember"],["m","ult"],["mid","-"],["n","ic"],["no","w"],["od","s"],["of","f"],["or","s"],["p","ical"],["p","le"],["p","p"],["p","r"],["p","ra"],["p","tion"],["penins","ular"],["persi","an"],["pl","ace"],["plate","au"],["po","in"],["pol","ic"],["pres","ent"],["pres","ident"],["pro","duc"],["r","am"],["r","ation"],["r","ich"],["re","ad"],["re","cor"],["re","g"],["religion","s"],["res","p"],["ro","ck"],["ro","ss"],["s","chool"],["s","ec"],["s","im"],["s","it"],["sanskrit",","],["set","t"],["sp","e"],["sp","or"],["sp","read"],["spec","ies,"],["st","r"],["st","ru"],["sty","le"],["sub","sequent"],["sur","v"],["system",","],["tim","e"],["tim","es"],["tre","at"],["u","al"],["v","ari"],["v","ast"],["v","ill"],["v","is"],["w","an"],["w","ild"],["west",","],["wh","en"],["wide","ly"],["wor","n"],["-d","ram"],["-dram","as"],["0,","000"],["1","0"],["1","200"],["195","0,"],["2","%"],["2","5"],["200","1"],["3","00"],["4",","],["5","%"],["5","0"],["8",","],["a","di"],["a","h"],["a","i"],["a","ver"],["ab","ility"],["ab","l"],["ab","ly"],["ac","ross"],["ad","v"],["af","f"],["af","ric"],["afric","a"],["ag","ain"],["ago","."],["agricult","ural"],["agricult","ure"],["ain","ed"],["ak","ing"],["ak","sh"],["al","i"],["alli","ance"],["ament","al"],["ap","on"],["ap","pro"],["appro","x"],["approx","im"],["approxim","ately"],["ar",","],["ar","ab"],["ar","ies"],["ar","ma"],["arch","it"],["archit","ect"],["are","n"],["areas","."],["arma","ce"],["armace","ut"],["armaceut","ical"],["art","ic"],["as","soci"],["ast","ri"],["at","a"],["at","ical"],["b","and"],["b","s"],["b","u"],["b","ution"],["bce",","],["be","low"],["bio","diversity"],["buddh","ism"],["c","alled"],["c","es"],["c","rit"],["c","tion"],["c","u"],["c","y,"],["ch","ange"],["ch","anges"],["cit","ies"],["civil","isation"],["commer","cial"],["common","ly"],["comp","an"],["compos","ed"],["con","sist"],["con","so"],["conduc","ted"],["conso","lid"],["constitution","al"],["continu","ed"],["contri","but"],["contri","bution"],["coo","king"],["cru","st"],["culture","."],["d","ances"],["d","own"],["d","ri"],["dance","-dramas"],["dec","ades"],["democ","r"],["democr","atic"],["develop","ed"],["di","an"],["di","sh"],["di","t"],["differ","ent"],["direct","ly"],["domin","ion"],["dra","vi"],["dravi","dian"],["e","."],["e","qu"],["ect","ive"],["el","ected"],["el","it"],["el","l"],["election","s"],["emer","gen"],["en","er"],["en","sive"],["enac","ted"],["ener","g"],["energ","y"],["er","t"],["es","i"],["establish","ed"],["estim","ated"],["et","work"],["exp","and"],["exp","ress"],["ext","ant"],["f","em"],["f","und"],["famili","es"],["feat","ures"],["fig","ures"],["form","s"],["fund","amental"],["g","on"],["gh","ts"],["glo","bal"],["gradu","ally"],["gre","ek"],["great","er"],["gu","j"],["h","ab"],["h","an"],["h","is"],["h","u"],["himalay","as"],["hindu","ism"],["hindu","ism,"],["hindu","st"],["hindust","an"],["hou","se"],["i","."],["i","ly"],["id","ed"],["in","es,"],["in","ing"],["in","n"],["in","tro"],["in","vol"],["inc","t"],["indi","gen"],["influ","ence"],["inter","national"],["ion",","],["is","lat"],["is","s"],["ism","."],["iss","ion"],["k","en"],["kash","m"],["kashm","ir"],["kingdom","s"],["l","a"],["l","ay"],["langu","ag"],["leg","islat"],["m","all"],["m","b"],["m","ig"],["ma","ur"],["mathematic","s"],["me","at"],["minister","."],["n","etwork"],["n","om"],["o","per"],["o","tion"],["ol","d"],["ol","dest"],["or","y"],["ou","l"],["p","ass"],["p","ur"],["pakistan","."],["part","ition"],["ph","armaceutical"],["pl","ac"],["po","t"],["por","ted"],["por","tion"],["port","."],["pra","ct"],["president",","],["pri","mary"],["punjab",","],["qu","al"],["re","ach"],["re","duced"],["re","fer"],["re","new"],["recor","ded"],["region","s"],["rel","ations"],["res","er"],["res","ult"],["result","ing"],["ri","ght"],["ri","ghts"],["rule","."],["s","af"],["s","ched"],["s","ine"],["s","mall"],["sculpt","ure"],["sec","ular"],["sever","al"],["sh","e"],["sho","w"],["sing","h"],["sing","le"],["so","on"],["south","-"],["spec","ies"],["st","-"],["supp","li"],["t","est"],["t","u"],["ta","x"],["technolog","y"],["third","-largest"],["though","t"],["to","ok"],["to","u"],["tou","ch"],["tra","de"],["tradition","ally"],["tro","pical"],["tur","ned"],["un","e"],["un","i"],["un","touch"],["up","per"],["ure","d"],["valle","y"],["vent","ion"],["viol","ence"],["w","ent"],["w","rit"],["wa","ist"],["we","apon"],["wh","ere"],["wild","life"],["with","in"],["\"","."],["(","c."],["(","i"],[")",";"],["-","oper"],["1","00"],["1","st"],["1,","000"],["13","th"],["18","5"],["19","th"],["195","0s,"],["195","1,"],["196","5,"],["199","1"],["199","1,"],["2","6"],["2","6%"],["2","8"],["20","th"],["201","1,"],["3","0"],["5","00"],["6","th"],["8","%"],["9",","],["9","4"],["a","ic"],["ab","ad"],["ab","h"],["abl","es,"],["ac","ter"],["ac","tion"],["ad","ded"],["ad","dition"],["ad","her"],["ad","op"],["ades","h"],["administ","rat"],["ago",","],["al",","],["al","es"],["al","s,"],["al","war"],["all","av"],["ally",","],["am",","],["am","mal"],["ame","e"],["amee","z"],["amp","le"],["an","ag"],["an","ch"],["an","other"],["an","s."],["anc","ed"],["and","s"],["ang","ed"],["ang","l"],["angl","adesh"],["ap","poin"],["app","ear"],["ar","at"],["ar","av"],["ar","o,"],["arab","ian"],["arm","ies"],["ary","an"],["as","ho"],["as","se"],["asho","ka"],["asi","a."],["ass","ert"],["asse","mb"],["assemb","ly"],["at","a,"],["at","en"],["at","om"],["at","s"],["av","our"],["aver","age"],["aw","s"],["b","angladesh"],["b","ar"],["b","ay"],["b","es"],["b","on"],["b","ri"],["bas","in"],["bce","."],["be","ing"],["be","li"],["be","ll"],["be","long"],["bec","om"],["becom","ing"],["beli","ef"],["bell","ion"],["bo","di"],["brah","ma"],["bre","ath"],["bro","ad"],["budd","ha"],["c","ame"],["c","ed"],["c","en"],["c","le"],["c","ould"],["c","ric"],["c","ul"],["c","ut"],["c","y."],["ca","use"],["capit","a"],["ce","."],["ce","an"],["cen","su"],["censu","s,"],["centur","ies,"],["centur","y."],["ch","ain"],["ch","ol"],["ch","ur"],["char","acter"],["chin","a,"],["cho","s"],["chos","en"],["chur","id"],["churid","ar"],["classical",","],["clim","ate"],["clo","th"],["co","-oper"],["co","g"],["coast","al"],["cog","n"],["col","on"],["colon","ial"],["comp","rom"],["comprom","ise"],["con","ce"],["consist","s"],["constit","u"],["constitu","ent"],["contain","s"],["contribution","s"],["cric","ket"],["cru","cial"],["cu","is"],["cult","ural"],["cult","ures"],["d","aro,"],["d","ro"],["dec","ade"],["dec","can"],["demo","graph"],["democ","ra"],["demograph","ics"],["dev","otion"],["di","ent"],["di","scri"],["di","se"],["dic","tion"],["discri","min"],["disput","es"],["dom","est"],["domest","ic"],["dra","in"],["du","e"],["e","ff"],["e","ign"],["e","ly"],["e","val"],["east","."],["econom","y."],["ect","or"],["em","ent"],["emergen","cy,"],["emp","le"],["empire","."],["employ","ed"],["en","j"],["end","ing"],["enj","o-"],["enjo-","daro,"],["ent","er"],["ep","ic"],["er","a"],["er","s."],["et","ic"],["ex","ample"],["ex","change"],["ex","port"],["exp","ans"],["expand","ing"],["ext","ensive"],["f","all"],["f","r"],["f","ron"],["f","ul"],["fig","ure"],["fol","k"],["fol","low"],["form",","],["form","al"],["form","ation"],["g","as"],["g","er"],["g","th"],["ga","ve"],["government",","],["government","s"],["gre","en"],["gu","ard"],["guj","arat"],["gup","ta"],["h","am"],["h","enjo-daro,"],["h","or"],["hab","it"],["habit","at"],["hav","ing"],["here","dit"],["himalay","an"],["histor","y"],["i","le"],["ic","t"],["il","omet"],["il","way"],["ilomet","res"],["im","es"],["im","medi"],["immedi","ately"],["in","ated"],["in","com"],["in","it"],["in","stit"],["increasing","ly"],["ind","on"],["independ","ence"],["indi","ra"],["indigen","ous"],["indo-","aryan"],["indon","esi"],["indust","ri"],["indust","ry"],["ine","."],["ine","qual"],["instit","ution"],["intro","duced"],["is","."],["is","land"],["is","ol"],["islam","ic"],["ition","s"],["iv","ity"],["j","am"],["j","ect"],["jan","ata"],["k","ameez"],["k","es"],["k","ilometres"],["k","s"],["ke","y"],["l","al"],["l","aws"],["l","ess"],["l","in"],["l","s"],["language","\""],["language",","],["lat","ter"],["le","ve"],["lead","er,"],["li","ke"],["liber","al"],["lo","ose"],["lo","ss"],["m","ammal"],["m","or"],["m","yan"],["ma","kes"],["ma","y"],["main","t"],["man","us"],["manus","cri"],["mar","g"],["mar","ked"],["marri","ages"],["mathem","atical"],["maur","ya"],["me","as"],["medi","eval"],["mer","ch"],["mi",")"],["mig","ration"],["minister","s."],["mit","ted"],["mo","henjo-daro,"],["mo","ist"],["movement","."],["mu","ch"],["mult","i-"],["myan","mar"],["n","a"],["n","ame"],["n","ar"],["n","da"],["n","ear"],["nat","al"],["ne","i"],["nic","ob"],["nor","theast"],["o","cean"],["offic","e"],["omet","imes"],["op","en"],["or","al"],["or","o"],["organ","isation"],["origin","ally"],["oul","der"],["over","eign"],["p","allav"],["p","ast"],["p","at"],["p","et"],["p","ts"],["p","ut"],["painting",","],["parliament","."],["part","ic"],["part","s"],["pe","ace"],["pl","es"],["plac","ed"],["play","ed"],["po","ver"],["polit","ics"],["popul","ous"],["pract","ic"],["pre","domin"],["pro","cess"],["pro","t"],["pro","tec"],["protec","ted"],["prov","ided"],["r","ange"],["r","ound"],["ra","ilway"],["ra","j"],["ra","p"],["ra","ther"],["re","bellion"],["re","cent"],["re","cogn"],["re","st"],["re","ven"],["reach","ed"],["region","s."],["rel","ated"],["remain","ing"],["ren","gth"],["res","ident"],["res","ol"],["resp","on"],["reven","u"],["revenu","es"],["ri","d"],["ri","g"],["ris","ing"],["ro","le"],["s",";"],["s","ari"],["s","ector"],["s","il"],["s","low"],["s","mo"],["s","ometimes"],["s","overeign"],["s","ri"],["saf","e"],["sched","ul"],["schedul","ed"],["scri","pt"],["se","lf"],["se","par"],["set","ting"],["sh","a"],["sh","alwar"],["sh","are"],["sh","or"],["si","de"],["si","x"],["sig","ned"],["soci","et"],["south",","],["sp","ic"],["spor","ts"],["st","ill"],["st","re"],["st","rength"],["stat","es,"],["stat","us"],["str","ong"],["stru","ct"],["styl","es"],["subcontinent",","],["sum","mer"],["sup","ported"],["system","."],["t","ak"],["t","emper"],["t","emple"],["t","ext"],["t","y,"],["territor","ies"],["th","-largest"],["th","ar"],["th","or"],["th","ose"],["the","n"],["them","."],["tim","e,"],["to","day"],["to","tal"],["to","wn"],["trans","mitted"],["tri","bal"],["un","g"],["un","it"],["untouch","ability"],["up","a"],["ur","red"],["urban","isation"],["us","h"],["ut","e"],["v","arn"],["v","ict"],["ve","get"],["vi","et"],["vill","age"],["w","ould"],["war","d"],["we","alth"],["we","ar"],["world","."],["writ","ten"],["y","a,"],["year","."],["z","e"],["–","201"],["\"",")"],["(","2"],["(","artic"],["(","including"],["(","ἰ"],["(2",")"],["(i","i"],["(ἰ","ν"],["(ἰν","δ"],["-","body"],["-","day"],["-","des"],["-","ga"],["-","growing"],["-","k"],["-","majority"],["-","sc"],["-","style"],["-","year"],["-ga","ther"],["-gather","ers,"],["-k","n"],["-kn","it"],["-sc","ale"],["00","–"],["1","%."],["1","0,"],["1","1"],["1","2."],["1","4"],["1","4%"],["1","6."],["1.","1"],["1.","2"],["1.","3"],["1.","5"],["10","th"],["17","th"],["18","th"],["195","0."],["196","5"],["196","7"],["197","1,"],["199","9."],["2","%."],["2","2"],["2","3"],["2.","8"],["200","1,"],["200","4"],["200","8,"],["200","9"],["201","0."],["201","3"],["201","8"],["202","2,"],["202","3."],["202","6,"],["3","1"],["3","4"],["3","5"],["3","6"],["3","9%"],["36","1"],["4","0%"],["4","4"],["4","6%"],["5","5,"],["5","5."],["55,","000"],["6","3"],["7","0%"],["7","th"],["7.","5%"],["8","0"],["8","–"],["9","%."],["a","dem"],["a","em"],["a","har"],["a","il"],["a","im"],["a","ism,"],["a","j"],["a","z"],["a","ː"],["ab","o"],["ab","s"],["abh","a,"],["abo","ve"],["ac","cess"],["ac","coun"],["ac","i"],["ac","ket"],["ach","aem"],["achaem","en"],["ack","b"],["ackb","uc"],["ackbuc","k"],["ad","a"],["ad","vent"],["ad","ver"],["ad","we"],["addition","al"],["administ","ration"],["administrat","ive"],["adop","ted"],["adv","anced"],["adwe","ep"],["af","fir"],["aff","air"],["affir","m"],["ag","an"],["ag","enc"],["ag","re"],["again","st"],["agre","ement"],["ahar","lal"],["ai","th"],["aim","ing"],["aj","ant"],["ak","ers"],["aksh","adweep"],["aksh","agan"],["al","a,"],["al","ed"],["al","f"],["ally","."],["am","ed"],["am","end"],["ame","work"],["amend","ments"],["amp","hi"],["amphi","bi"],["an","atom"],["an","ing"],["an","ism"],["anag","ara"],["anc","es,"],["ance",","],["and","ar"],["and","o"],["and","y"],["andar","dis"],["andardis","ed"],["ando","or"],["animal","s"],["ank","an"],["ann","ual"],["ann","ually"],["ant","ially"],["ant","s,"],["ap","s"],["app","li"],["appli","ed"],["appoin","ted"],["ar","i,"],["ar","is"],["ar","ter"],["arch","aic"],["architect","ure,"],["are","."],["are",":"],["are","a."],["aren","ts"],["aris","en"],["arm","s"],["art","is"],["art","ist"],["art","istic"],["art","s,"],["artis","ans"],["ary",","],["as","ion"],["as","ive"],["as","s."],["asi","ans"],["ass","ass"],["assass","inated"],["associ","ate"],["associ","ated"],["astri","anism"],["at","er"],["at","i,"],["at","i."],["at","ives"],["at","ivity"],["at","or"],["at","tra"],["at","ure,"],["ated","."],["ated","ly"],["aten","ed"],["ater","ial"],["ation","al"],["att","le"],["attra","ct"],["av","ed"],["av","en"],["avour","y"],["aw","aharlal"],["ay","anagara"],["ay","e"],["b","ably"],["b","our"],["b","r"],["b","ron"],["b","rough"],["b","ul"],["ba","i,"],["be","g"],["beg","inn"],["beginn","ings"],["ber","cul"],["bercul","os"],["berculos","is"],["bh","ang"],["bh","ā"],["bhā","rat"],["bio","sp"],["bio","tech"],["biosp","here"],["bl","ackbuck"],["bo","t"],["bon","ds"],["bor","ders"],["bor","ne"],["bot","to"],["botto","m"],["brahma","put"],["bre","ad"],["bre","ak"],["breath","ing"],["bri","ef"],["brief","ly"],["british","-style"],["brough","t"],["bu","il"],["buddh","ism,"],["buil","ding"],["bul","k"],["c","attle"],["c","ere"],["c","il"],["c","in"],["c","ris"],["c","ro"],["c","row"],["c","up"],["c","ust"],["c","y"],["ca","us"],["cal","end"],["capit","al"],["car","n"],["car","ved"],["carn","atic"],["cast","es,"],["caste",","],["caste","-"],["cav","ated"],["ce",")."],["ce","ed"],["cent","age"],["cent","re"],["cere","al"],["ch","amp"],["ch","and"],["ch","anged"],["ch","ap"],["ch","er"],["ch","ess"],["ch","ha"],["ch","i"],["ch","ild"],["ch","ri"],["ch","ron"],["character","istic"],["che","et"],["cheet","ah"],["chha","u"],["chri","st"],["christ","ian"],["christian","ity,"],["chron","ic"],["churidar","s."],["cit","ies,"],["cit","iz"],["civ","ili"],["civili","an"],["cl","aiming"],["cl","ass."],["class","es"],["cle","ared"],["clim","atic"],["clo","se"],["co","di"],["co","sine"],["co","st"],["co","t"],["co-oper","ation"],["coalition",","],["coast","line"],["col","d"],["col","l"],["col","leg"],["colleg","es"],["com","for"],["comfor","t"],["comfort","able"],["comm","it"],["commer","ce"],["commit","te"],["common","wealth"],["comp","rising"],["compan","ies"],["comple","x"],["con","serv"],["con","sum"],["constit","ut"],["consum","ption"],["cont","ra"],["contribut","ed"],["coun","cil"],["coun","tri"],["countr","y,"],["country","'s"],["cour","se"],["court","s,"],["court","s."],["cre","ating"],["cre","ativity"],["crit","ically"],["crust",","],["ction","s"],["cup","s,"],["curren","t"],["cust","om"],["d","al"],["d","ates"],["d","o"],["d","oc"],["d","re"],["d","wan"],["d","y"],["de",","],["de","fe"],["de","leg"],["de","ter"],["dec","i"],["dec","is"],["dec","reas"],["deci","du"],["decidu","ous"],["decl","ared"],["decreas","ing"],["defe","ated."],["defin","ed"],["deleg","ates"],["delhi",","],["democra","cy."],["den","se"],["depend","ent"],["der","ived"],["des","er"],["des","p"],["des","pre"],["deser","t,"],["desp","ite"],["despre","ad"],["dev","ast"],["di","d"],["di","ed"],["di","ment"],["dic","ts"],["dient","s"],["diff","used"],["dise","as"],["dish","es"],["disput","ed"],["dist","inct"],["div","or"],["diversity","."],["domin","ance"],["dre","w"],["dro","p"],["du","ce"],["duc","tion"],["dwan","a,"],["dy","n"],["e",";"],["e","ach"],["e","dicts"],["e","le"],["e","ous"],["e","v"],["e","vent"],["e","vol"],["e","w"],["ec","tr"],["econom","ies"],["econom","y,"],["ei","ther"],["el","ectr"],["election","."],["election","s."],["elit","es"],["elit","es,"],["em","ission"],["em","ples"],["emp","has"],["emper","or"],["emphas","is"],["en","ab"],["en","ing"],["ence","."],["end","ed"],["end","s"],["endem","ic"],["eng","th"],["ent","ial"],["ent","ly"],["eous","ly,"],["er","c"],["er","ly"],["eral","a"],["es",")"],["es",":"],["es",";"],["es","e,"],["ess","ential"],["et","s"],["eth","ical"],["eth","nic"],["etic","ide"],["eticide",","],["ety","m"],["etym","olog"],["etymolog","y"],["europe","."],["ev","id"],["event","ually"],["every","day"],["evid","ence"],["ex","cavated"],["ex","erc"],["ex","ist"],["ex","ts"],["example",","],["exist","ing"],["expor","ted"],["expor","ter"],["expor","ts"],["export","s."],["ext","ends"],["ext","inct"],["ext","re"],["extensive","ly"],["extre","me"],["extreme","ly"],["f","ac"],["f","aith"],["f","ash"],["f","est"],["f","i"],["f","il"],["f","ire"],["f","ish"],["f","lo"],["f","low"],["f","lower"],["f","oun"],["f","re"],["f","ut"],["fact","or"],["fam","ily"],["far","-"],["far","mer"],["fast","est"],["feat","ure"],["fem","ale"],["fem","ales"],["fer","ation"],["fil","m"],["five","-year"],["fl","an"],["fl","our"],["flour","ish"],["flower","ing"],["fo","eticide,"],["fo","od"],["for","ti"],["forest",","],["forest","s,"],["form","ally"],["form","s,"],["form","s."],["forti","fied"],["fr","amework"],["fron","t"],["g","ained"],["g","ig"],["g","ive"],["g","l"],["g","od"],["g","ods"],["g","ro"],["ga","diverse"],["gan","get"],["ganget","ic"],["gar","l"],["gar","ment"],["garl","ic,"],["gdp",","],["ge","olog"],["gen","ce"],["gen","der"],["gener","ally,"],["gener","ated"],["geograph","ic"],["geograph","y"],["gh","bour"],["ghat","s,"],["gig","aw"],["go","ods"],["gon","dwana,"],["gon","omet"],["green","house"],["gro","om"],["gup","t"],["h","alf"],["h","ol"],["h","om"],["h","ous"],["h","un"],["har","kh"],["he","alth"],["head","ed"],["heredit","ary"],["hi",","],["high","est"],["high","ly"],["himalay","as,"],["himalayas","."],["hindustan","i"],["histor","ians"],["histor","ical"],["histor","ically"],["histor","y,"],["ho","od"],["ho","st"],["ho","ts"],["hots","pot"],["hu","bs"],["hum","ans"],["hun","ter"],["hunter","-gatherers,"],["hy","m"],["hym","n"],["hymn","s"],["i","a"],["i","ff"],["i","i,"],["ic","ken"],["ic","on"],["ically",","],["id","ly"],["ig","er"],["il","ar"],["il","ed"],["il","ing"],["ilit","ated"],["ill","ed"],["im","e"],["im","per"],["im","ple"],["im","pro"],["imper","ial"],["imple","ment"],["in",","],["in","."],["in","al"],["in","formation"],["in","no"],["in","s."],["in","ste"],["in","t"],["inc","tion"],["inclu","ded"],["inclu","des"],["incom","e"],["ind","s"],["independ","ent"],["indian","s."],["indo-","european"],["indo-","gangetic"],["indonesi","a."],["indust","r"],["industri","al"],["inequal","ity,"],["inf","ection"],["influenc","es"],["init","i"],["inno","v"],["inste","ad"],["inter","vention"],["invol","ved"],["invol","ving"],["ir","on"],["ir","t"],["is","diction"],["is","es"],["is","ion"],["islam",","],["island","s,"],["isol","ation"],["it","ies"],["it","u"],["itu","de"],["iv","a"],["iv","al"],["iv","ing"],["ive","ly"],["iz","ation"],["j","acket"],["j","awaharlal"],["j","ayanagara"],["j","harkh"],["j","o"],["j","une"],["j","ur"],["jain","ism"],["jain","ism,"],["jam","mu"],["jp","aye"],["jp","ut"],["jput","s,"],["jur","isdiction"],["k","al"],["k","ar"],["k","erala"],["k","ho"],["k","k"],["k","o"],["k","ur"],["ka","ver"],["ko","si"],["kur","ta"],["l","akshadweep"],["l","ankan"],["l","ate"],["l","ength"],["l","es"],["l","on"],["languag","es,"],["languag","es."],["lar","ger"],["large","-scale"],["large","ly"],["last","ed"],["lat","ive"],["later",","],["lay","er"],["le","ment"],["leg","al"],["legislat","ure"],["leve","l"],["li",","],["li","es"],["li","feration"],["li","ve"],["li","ved"],["li","ving"],["liberal","isation"],["life",","],["lim","ited"],["liter","ary"],["literac","y,"],["long","-"],["loose","-knit"],["lu","tion"],["ly","ing"],["m","and"],["m","aterial"],["m","ed"],["m","um"],["ma","h"],["ma","ke"],["main","ly"],["maint","ain"],["mal","ay"],["mal","es."],["mammal","s,"],["man","u"],["manu","fact"],["manuscri","pt"],["mar","ath"],["mar","it"],["mar","ry"],["mar","sh"],["marg","ins"],["market","s."],["marri","age"],["marri","ed"],["marsh","y"],["mathematic","ians"],["me","aning"],["me","dic"],["me","gadiverse"],["meas","ured"],["meat",","],["men",","],["ment","al"],["mi","x"],["million","-"],["min","i"],["min","or"],["mit","t"],["mo","del"],["mo","di"],["mon","soon"],["mum","bai,"],["music","."],["myanmar",","],["n","av"],["n","d"],["n","ext"],["n","in"],["n","ing"],["nar","row"],["nat","ak"],["national","ist"],["ne","p"],["nei","ghbour"],["nep","al"],["network","s"],["new","ly"],["ni","qu"],["nicob","ar"],["nom","inal"],["non","viol"],["non-","congress"],["non-","pro"],["non-","violence"],["non-pro","liferation"],["nonviol","ent"],["north",","],["north","-"],["north","west"],["northwest","."],["not","able"],["not","ably"],["nuclear","-"],["num","eral"],["number","s"],["number","s,"],["o","ch"],["o","ted"],["o","x"],["oc","to"],["occ","asion"],["occ","urred"],["occup","ation,"],["occup","y"],["octo","ber"],["od",","],["og","am"],["olog","ical"],["on",","],["on","ly"],["on","s"],["on","set"],["op","pos"],["or","ally"],["or","d"],["or","ies"],["or","s."],["organ","ised"],["organ","ization"],["origin","al"],["oro","astrianism"],["os","a,"],["other","s"],["ous","ly"],["out","side"],["over","r"],["overr","an"],["p","."],["p","a"],["p","anch"],["p","arents"],["p","ay"],["p","ically"],["p","ush"],["p","y"],["painting","s"],["pakistan",")"],["pakistan",","],["part","ially"],["partic","ular"],["partition","."],["pass","ing"],["past","oral"],["pat","ron"],["pe","atedly"],["ped","."],["per","centage"],["per","continent"],["per","sist"],["period","."],["pl","ant"],["pl","anted"],["plain","."],["plain","s,"],["plate",","],["plate","."],["plateau",","],["po","p"],["po","st-"],["poin","ts"],["pol","lution"],["polic","ies"],["polic","y"],["population",","],["pover","ty"],["power","."],["pr","inc"],["pre","me"],["pre","vent"],["pres","ence"],["pro","bably"],["pro","claiming"],["pro","duce"],["pro","duced"],["pro","j"],["pro","portion"],["prom","in"],["prot","ection"],["ption","s,"],["r","anges"],["r","ing"],["ra","jputs,"],["railway","s,"],["raj","iv"],["rat","i"],["rate",","],["re","ce"],["re","fl"],["re","lative"],["re","peatedly"],["re","port."],["re","present"],["re","pt"],["re","s,"],["re","turned"],["reg","ist"],["reg","ul"],["region","."],["reli","ef"],["remain","ed"],["renew","able"],["res","."],["res","our"],["reser","v"],["resident","s"],["resol","ved"],["resp","ective"],["respon","se"],["ress","ed"],["ri",","],["river",","],["river","s,"],["rul","ed"],["rul","ing"],["rule",","],["s","abha,"],["s","ant"],["s","arn"],["s","avoury"],["s","aw"],["s","ind"],["s","on"],["safe","guard"],["sc","en"],["sc","i"],["school","s"],["se","a"],["se","a."],["se","als"],["se","ats"],["se","diment"],["se","e"],["se","x"],["second","-largest"],["secular",","],["separ","at"],["ser","ving"],["serv","ice"],["sett","led"],["sett","lement"],["sever","ely"],["sh","ared"],["sh","astri"],["sh","ip"],["sh","iva"],["sh","oulder"],["shalwar","s"],["shor","t"],["si","a,"],["sikh","s,"],["sim","ilar"],["sim","ultan"],["simultan","eously,"],["sit","es"],["so","le"],["so","viet"],["soci","ety"],["south","."],["spe","akers"],["spe","aking"],["spec","i"],["spec","ies."],["spread","ing"],["st","andardised"],["st","antially"],["st","iff"],["st","ud"],["stat","es."],["stat","ist"],["stat","u"],["state",","],["ste","amed"],["strong","ly"],["struct","ure"],["styl","es,"],["su","c"],["su","percontinent"],["su","preme"],["sub","stantially"],["subsequent","ly"],["sup","planted"],["sup","port"],["sup","port."],["surv","ives"],["system","s"],["t","andoor"],["t","emples"],["t","exts"],["t","i,"],["t","ic"],["t","iger"],["t","un"],["t","y."],["tech","niqu"],["technolog","ical"],["term","."],["territor","ial"],["territor","ies."],["territor","y"],["th","ail"],["th","m"],["th","ous"],["that",","],["the","s"],["there","after"],["there","fore"],["thor","n"],["thre","atened"],["through","out"],["ti","bet"],["to","p"],["to","war"],["towar","ds"],["town","s"],["tradition","s"],["tradition","s."],["trans","formed"],["treat","y,"],["tri","gonomet"],["tu","berculosis"],["tur","n"],["un","common"],["un","resolved"],["uni","ver"],["union","."],["unit","ary"],["ur","du"],["ure","."],["us","ually"],["us$","100"],["us$","2,"],["v","."],["v","ary"],["v","asive"],["v","oted"],["va","jpaye"],["vari","ous"],["ve","dic"],["veget","ari"],["ven","e"],["vi","ew"],["vi","jayanagara"],["vict","ories"],["vol","can"],["w","anted"],["w","inds"],["w","ing"],["war",","],["war","."],["war","ri"],["we","b"],["we","lf"],["weapon","s"],["well","-"],["wh","at"],["where","as"],["wi","despread"],["wo","od,"],["y","akshagan"],["year","s,"],["years",";"],["z","ed"],["z","es"],["z","oroastrianism"],["\"",","],["\"","ap"],["\"","associate"],["\"","breath"],["\"","bro"],["\"","down"],["\"","green"],["\"","india"],["\"","min"],["\"","national"],["\"","no"],["\"","official"],["\"","out"],["\"","p"],["\"","pro"],["\"","river,"],["\"","scheduled"],["\"","the"],["\"","untouch"],["\".","."],["\"..","."],["\"ap","hor"],["\"aphor","ism"],["\"aphorism","s"],["\"breath","\""],["\"bro","ken"],["\"broken","\""],["\"down","tro"],["\"downtro","d"],["\"downtrod","den"],["\"downtrodden","\"."],["\"india","\""],["\"min","im"],["\"minim","um"],["\"out","cast"],["\"outcast","es"],["\"outcastes","\""],["\"p","ure"],["\"pro","stit"],["\"prostit","ut"],["\"prostitut","es"],["\"pure","\""],["\"river,","\""],["\"untouch","ables,"],["\"untouchables,","\""],["%",","],["'",")"],["'","."],["'","eight"],["'","the"],["'","í"],["(","\"..."],["(","\"breath\""],["(","'eight"],["(","1,"],["(","1.3"],["(","1967"],["(","199"],["(","1991"],["(","2004"],["(","3,"],["(","4,"],["(","400"],["(","["],["(","a"],["(","after"],["(","although"],["(","an"],["(","bhārat"],["(","bjp"],["(","c"],["(","gdp"],["(","generally,"],["(","indian"],["(","liter"],["(","nda"],["(","or"],["(","par"],["(","pp"],["(","present"],["(","sine"],["(","upa"],["(","us$"],["(","who"],["(1,","300"],["(1967","),"],["(199","2"],["(1991","–"],["(1991–","2001"],["(1991–2001",")."],["(1992","),"],["(2)",")."],["(2004",")."],["(3,","400"],["(4,","7"],["(4,7","00"],["([","ɦ"],["([ɦ","ɪ"],["([ɦɪ","nd"],["([ɦɪnd","ʊ"],["([ɦɪndʊ","ˈ"],["([ɦɪndʊˈ","st"],["([ɦɪndʊˈst","aː"],["([ɦɪndʊˈstaː","n"],["([ɦɪndʊˈstaːn","]"],["(artic","le"],["(artic","les"],["(bhārat",";"],["(bjp",");"],["(c","a."],["(gdp",")"],["(i",")"],["(ii",")"],["(ii","i"],["(iii",")"],["(liter","ally,"],["(nda","),"],["(par","s"],["(pars","is"],["(pp","p"],["(ppp","),"],["(present","-day"],["(sine",","],["(upa",")."],["(us$","3."],["(us$3.","94"],["(who",")"],["(ἰνδ","ί"],["(ἰνδ","ό"],["(ἰνδί","α"],["(ἰνδία",");"],["(ἰνδό","ς"],["(ἰνδός","),"],[",","42"],[",42","2"],["-","ban"],["-","borne"],["-","castes,"],["-","century"],["-","defined"],["-","dem"],["-","derived"],["-","di"],["-","div"],["-","elected"],["-","existing"],["-","fastest"],["-","five"],["-","for"],["-","hor"],["-","in"],["-","income"],["-","l"],["-","lived"],["-","market"],["-","million-"],["-","n"],["-","origin"],["-","own"],["-","pastoral"],["-","president,"],["-","produc"],["-","r"],["-","rich"],["-","round"],["-","rule,"],["-","se"],["-","sh"],["-","si"],["-","speaking"],["-","speci"],["-","ti"],["-","tre"],["-","urban"],["-","wing"],["-d","and"],["-dand","a,"],["-des","cri"],["-des","ign"],["-descri","ption"],["-design","ated"],["-di","vi"],["-div","ine"],["-divi","de,"],["-for","ce)."],["-hor","se"],["-in","sp"],["-insp","ire"],["-inspire","d"],["-l","ad"],["-lad","en"],["-million-","work"],["-million-work","er"],["-n","ine"],["-own","ed"],["-produc","ing"],["-r","um"],["-round","."],["-rum","ped"],["-se","l"],["-sel","ective"],["-sh","ap"],["-shap","ed"],["-si","ded"],["-speci","fic"],["-specific","—"],["-specific—","bec"],["-specific—bec","au"],["-specific—becau","se"],["-ti","er"],["-tre","ated"],[".","\")"],[".","1%."],[".","6"],[".6","4%"],["0","1"],["0","1,"],["0","4%"],["0","94"],["0","s"],["0","s."],["0","–"],["0.","4%"],["0.","7"],["0.","7%"],["00–","19"],["00–","400"],["00–19","00"],["04%",":"],["0–","197"],["0–197","5"],["1","1%"],["1","13"],["1","2"],["1","2%"],["1","20"],["1","3."],["1","4."],["1","5,"],["1","5."],["1","6"],["1","6th"],["1%",","],["1,","2"],["1,","3"],["1,","42"],["1,2","10,"],["1,210,","193"],["1,210,193",",422"],["1,3","80"],["1,42","8,"],["1,428,","6"],["1,428,6","2"],["1,428,62","7,"],["1,428,627,","6"],["1,428,627,6","63"],["1.","2%"],["1.","4"],["1.","6%"],["1.","7%"],["1.1","6%"],["1.2","4"],["1.5","4%"],["1.6%",";"],["10,","500"],["12.","2%"],["12.","6%"],["12.6%",","],["120","6."],["13","00"],["13.","7%"],["14","0"],["14.","2%"],["15","(2)"],["15","00"],["15","25"],["15","th"],["15.","1%"],["16","(2))."],["16.","1"],["16.","6%"],["17",")"],["17",".64%"],["17","2"],["17","6"],["176","5"],["18","%,"],["18",","],["18",".1%."],["18","20"],["18","4"],["18","8"],["18","9"],["1820","s."],["184","8"],["185","7."],["185","8,"],["185","8."],["188","5."],["189","1,"],["19","01"],["19","11"],["19","2"],["19","20"],["19","28"],["192","1,"],["1920",","],["1928","–"],["1928–","2"],["1928–2","9,"],["193","0s,"],["193","0s."],["193","5"],["193","5,"],["193","5."],["194","6"],["194","7"],["194","7."],["194","9"],["194","9."],["195","0"],["195","1"],["195","6,"],["195","7,"],["196","0s"],["196","0s,"],["196","2"],["196","2,"],["196","2."],["196","4"],["196","4,"],["196","6,"],["196","7,"],["1962",";"],["1964","–201"],["1964–201","4,"],["197","0–1975"],["197","2,"],["197","4"],["197","5,"],["197","7"],["1977",";"],["198","0"],["198","0."],["198","1"],["198","4"],["198","4."],["198","5"],["198","5."],["198","8."],["198","9,"],["1985",";"],["199","0"],["199","1."],["199","4"],["199","5."],["199","6,"],["199","8"],["199","8."],["2","1"],["2","1.2"],["2","1.54%"],["2","1st"],["2","4"],["2","4%"],["2","4."],["2","6,"],["2","6."],["2","7%"],["2","7."],["2","8."],["2","9%."],["2","nd"],["2","–201"],["2,","094"],["2.","0"],["2.","14%"],["2.","3%"],["2.","5"],["2.","9%"],["20","%"],["20","."],["20","19"],["20","20."],["20","3"],["20","4."],["200","1."],["200","6,"],["200","7"],["200","7,"],["200","8–"],["200","9."],["2008–","2009."],["2009","–201"],["2009–201","0,"],["201","0,"],["201","1."],["201","2–201"],["201","3."],["201","4"],["201","7,"],["201","7."],["201","8."],["2012–201","3,"],["202","1"],["202","1,"],["202","2"],["202","3,"],["202","4"],["202","4,"],["202","4."],["202","6"],["202","6."],["203","0."],["204.","4"],["20th","-century"],["22","-million-worker"],["23","2"],["23","5."],["235.","24"],["24%",","],["24.","44"],["25","00–1900"],["25","′"],["26","4"],["26","8–"],["26.","3%"],["268–","232"],["27.","8"],["27.8","1%"],["28.","7"],["3","0,000"],["3","1,"],["3","1.16%"],["3","1.2%"],["3","2"],["3","6%"],["3","–"],["3,","000"],["3,","264"],["3.","8"],["3.","9"],["3.8","2%."],["3.9","1%"],["30","8"],["30","′"],["34","3–"],["343–","35"],["343–35","1"],["35","°"],["4","%."],["4","0,000"],["4","1%,"],["4","1.1"],["4","3%"],["4","31"],["4","5."],["4","9."],["4","th"],["4.","04%:"],["42","%."],["42","3"],["44","′"],["45.","8%"],["49.","7"],["5","0,000"],["5","17"],["5","22-million-worker"],["5","3"],["5","3%"],["5","80"],["5","9"],["5","th"],["5%",","],["5,","423"],["5.","46%"],["50","–"],["50–","6"],["50–6","0%"],["55.","6%"],["55.","8%"],["59","6"],["6","00"],["6","01,"],["6","3.82%."],["6","4"],["6","5.46%"],["6","8"],["6","°"],["6.","0%"],["68","°"],["7","0"],["7","000"],["7","00–400"],["7","2.0"],["7","31"],["7","4%."],["7","4.04%:"],["7","9."],["7","°"],["7","′"],["7%",","],["7,","517"],["7.","9%"],["70%",","],["79.","8%"],["8","0,000"],["8","00"],["8","2.14%"],["8","th"],["8.","6%"],["9","00"],["9","3.91%"],["9","7°"],["9","th"],["9,","000"],["9.","39%"],["94","0"],["[","ˈ"],["[ˈ","b"],["[ˈb","ʱ"],["[ˈbʱ","aː"],["[ˈbʱaː","ɾ"],["[ˈbʱaːɾ","ə"],["[ˈbʱaːɾə","t"],["[ˈbʱaːɾət","]"],["a","dic"],["a","div"],["a","head"],["a","res"],["a","than"],["a","ud"],["a","ut"],["a","ute"],["a","ṅ"],["a","ṣ"],["a","—"],["ab","atic"],["ab","in"],["ab","j"],["ab","ol"],["ab","or"],["ab","our"],["abad",","],["abad","di"],["abaddi",","],["abh","ata,"],["abin","et"],["abj","ured"],["abl","a,"],["abol","ish"],["abolish","ed"],["abor","ation"],["abs","ence"],["abs","ol"],["absol","ute"],["ac","adem"],["ac","cin"],["ac","com"],["ac","compan"],["ac","ity"],["ac","ri"],["ac","ute"],["ac","y."],["academ","i,"],["accin","es"],["accom","mo"],["accommo","d"],["accommod","ated"],["accompan","ied"],["accoun","ting"],["accoun","ts"],["ach","es;"],["ach","i"],["ach","ings"],["ach","is"],["ach","ment"],["achaemen","ian"],["achaemen","id"],["achi","e"],["achie","vement"],["achievement",";"],["achis","i"],["aci","ers"],["aci","fied"],["acri","fic"],["acrific","es"],["act",","],["action","al"],["actional","ism,"],["ad","a,"],["ad","a."],["ad","as"],["ad","hav"],["ad","jo"],["ad","minister"],["ad","o"],["ad","ru"],["ad","u"],["ada","i,"],["adas","is."],["ade","qu"],["adem","i"],["adequ","ate"],["adhav","a."],["adher","ed"],["adher","ent"],["adher","ing"],["adherent","s."],["adi",","],["adi","ly"],["adi","ra"],["adira","ch"],["adirach","ta"],["adiv","asi"],["adjo","ining"],["administ","r"],["administr","ation,"],["administrat","ors."],["adop","ting"],["adru","pl"],["adrupl","ed"],["adu",";"],["adv","ances"],["adv","ant"],["advant","ag"],["advantag","ed"],["advantaged","."],["adver","se"],["adver","sity"],["adverse","ly"],["adversity",","],["af","."],["af","gh"],["af","lo"],["aff","ected"],["aff","ection"],["affair","s,"],["affair","s."],["affirm","ative"],["afgh","an"],["afghan","istan"],["aflo","or"],["after",";"],["after","ward"],["afterward","s."],["ag","ement"],["ag","es."],["ag","gl"],["ag","ing"],["ag","on"],["ag","pur"],["ag","ro"],["age",","],["age","."],["age",";"],["agenc","y"],["agenc","y."],["aggl","om"],["agglom","er"],["agglomer","ations"],["ago","re"],["ago","s"],["agon","ist"],["agonist","s"],["agore","an"],["agos",":"],["agreement","s"],["agriculture","."],["agro","-pastoral"],["ah","ism,"],["ah","med"],["ahmed","abad,"],["ain","su"],["ainsu","kh"],["ainsukh","."],["ajant","a"],["ajant","a,"],["ak","ademi"],["ak","b"],["ak","bar"],["ak","e."],["ak","e;"],["ak","ening"],["ak","h"],["ak","hi,"],["ak","ti"],["akb","ar,"],["akbar","."],["akh","sh"],["akhsh","ali"],["al","am,"],["al","ge"],["al","ign"],["al","ised"],["al","ite"],["al","le"],["al","low"],["al","lowing"],["al","lu"],["al","m"],["al","mon"],["al","most"],["al","o"],["al","ry"],["al","ter"],["al","ty"],["al","ty,"],["alge","bra"],["algebra","."],["ali","ghat"],["align","ed"],["all","."],["all","eng"],["all","ing"],["all","is."],["all","s"],["alle","l"],["alleng","es"],["allow","s"],["allu","v"],["alluv","ial"],["alm","s"],["almon","d"],["almond","s,"],["alter","n"],["altern","ately"],["alty","—"],["alty—","express"],["alty—express","ed"],["am","ahism,"],["am","arav"],["am","b"],["am","ble"],["am","bodi"],["am","ese,"],["am","ic"],["am","m"],["am","om"],["am","on,"],["am","ples"],["am","r"],["am","s"],["am","s,"],["am","tre"],["am","un"],["aman","u"],["amanu","jan"],["amarav","ati,"],["amb","itions"],["ambodi","a,"],["amm","atical"],["amp","s."],["amphibi","an"],["amphibi","ans."],["amr","its"],["amrits","ar,"],["amtre","."],["amun","a"],["an","."],["an",";"],["an","a"],["an","amahism,"],["an","and"],["an","dise"],["an","e."],["an","i"],["an","im"],["an","is"],["an","ka"],["an","s,"],["anag","ari"],["anatom","ically"],["anatom","y"],["anc","ake."],["anc","ing"],["anc","tu"],["anc","y"],["anch","i,"],["anctu","aries"],["and","er,"],["and","m"],["andaman",","],["andaman","ese,"],["andm","ast"],["andmast","ers."],["ands","on,"],["andy","as"],["ang","am"],["ang","ent"],["ang","es."],["ange","et"],["angent",")"],["anim","ously"],["animal","s,"],["anis",")"],["ank","ar"],["ank","ari"],["ank","s"],["ankari",";"],["ann","ada,"],["ann","ex"],["ann","ing,"],["annex","e"],["annually",","],["ans","\","],["ant","a"],["ant","i-"],["ant","ic"],["ant","le"],["ant","ly"],["ant","ra,"],["anti-","discrimin"],["anti-discrimin","at"],["anti-discriminat","ory"],["antic","ide"],["ap",","],["ap","an."],["ap","i"],["ap","ti,"],["api","ens"],["app","a,"],["app","are"],["app","ed"],["app","ell"],["app","es)"],["appare","l"],["appear","ance"],["appell","ate"],["appoin","t"],["appoint","ment"],["ar","as"],["ar","b"],["ar","c"],["ar","ds"],["ar","hi,"],["ar","ial"],["ar","ish"],["ar","j"],["ar","ose"],["ar","p"],["ar","r"],["ar","ra"],["ar","ri"],["ar","s"],["ar","s,"],["ar","sh"],["ar","und"],["ar","ā"],["ara","j"],["arab","ic"],["araj","a"],["aras","w"],["arasw","ati."],["arav","alli"],["arav","allis."],["arb","ans"],["arch","ip"],["arch","ived"],["archip","el"],["archipel","agos:"],["architect","ural"],["architect","ure."],["ard",";"],["ard","han"],["ardhan","arish"],["ardhanarish","v"],["ardhanarishv","ara"],["are","a,"],["are","as,"],["are","t"],["are","tak"],["aren","as,"],["aren","dra"],["aret","t"],["aretak","er"],["arett","es"],["ari","pp"],["ari","thm"],["arial",","],["aripp","ay"],["arippay","att"],["arippayatt","u"],["arisen",","],["arisen",":"],["arithm","et"],["arithmet","ic,"],["arj","i"],["arm","ada"],["arm","y"],["arr","anged"],["arra","y"],["arri","ved"],["arsh","a,"],["art","."],["art","ial"],["art","ing"],["art","s"],["art","s."],["arter","ies"],["artic","les"],["artic","ul"],["articul","ating"],["artist","s"],["artist","s,"],["arund","ale"],["ary","abhata,"],["arā","ham"],["arāham","i"],["arāhami","hi"],["arāhamihi","ra,"],["as",":"],["as","a"],["as","ants"],["as","araswati."],["as","cent"],["as","es"],["as","im"],["as","ing"],["as","li"],["as","p"],["as","s,"],["as","ures"],["as","y"],["ash","k"],["ash","up"],["ashk","ent"],["ashup","at"],["ashupat","i"],["asi","atic"],["asia","'s"],["asia","—"],["asia—","dates"],["asim","ha"],["asli","la"],["asp","ect"],["ass","amese,"],["ass","ing"],["ass","lands"],["ast","ies,"],["ast","ring"],["astring","ent"],["at",","],["at","abatic"],["at","al"],["at","antra,"],["at","ers"],["at","es."],["at","is"],["at","ite"],["at","l"],["at","ma"],["at","ol"],["at","op"],["at","pur"],["at","ri"],["at","ts"],["at","ur"],["at","ure"],["at","ures"],["at","y"],["ate","."],["atic",","],["ation","."],["ation","s."],["atis",","],["ative",","],["atl","as"],["atol","ls"],["atom","ic"],["ator","y."],["atpur","a"],["atri","ya,"],["att","ain"],["att","s,"],["attract","ing"],["attract","ive"],["atur","aṅ"],["aturaṅ","ga"],["aturaṅga",";"],["aty","pically"],["au","gu"],["au","st"],["au","thor"],["au","to"],["aud","h"],["audh","ary,"],["augu","st"],["aust","ral"],["austral","ian"],["aut","on"],["aute","ed"],["author","ity"],["auto","mo"],["automo","t"],["automot","ive"],["auton","om"],["autonom","y"],["av","ari,"],["av","arsha,"],["av","i"],["av","ily"],["av","ing"],["av","or"],["av","ou"],["av","ur"],["aven","ed"],["aven","ge"],["aver","aging"],["average","."],["avi","ra,"],["avor",","],["avou","red"],["aw","ay"],["aw","ed"],["ay","at"],["ay","s"],["az","adirachta"],["az","z"],["aṣ","ṭ"],["aṣṭ","ā"],["aṣṭā","d"],["aṣṭād","hy"],["aṣṭādhy","ā"],["aṣṭādhyā","y"],["aṣṭādhyāy","ī"],["a—","the"],["b","akhshali"],["b","aking"],["b","ally."],["b","ate"],["b","b"],["b","ed"],["b","has"],["b","ig"],["b","ility"],["b","in"],["b","ird"],["b","it"],["b","li"],["b","lo"],["b","lowing"],["b","ol"],["b","oulder"],["b","ound"],["b","ur"],["b","ust"],["ba","by"],["ba","de"],["ba","h"],["ba","had"],["baby","lon"],["babylon","ian"],["babylonian","s."],["babylonians.",")"],["back","drop"],["back","s"],["back","s,"],["backs","li"],["backsli","ding"],["bah","á"],["bahad","ur"],["bahá","'í"],["bal","ance"],["bal","anced"],["bal","asaraswati."],["bal","och"],["baloch","istan"],["balochistan",","],["ban","ned"],["band","ed,"],["band","h"],["band","han"],["bandh","g"],["bandhan",","],["bandhg","ala,"],["bangladesh","."],["bar","k"],["bar","le"],["barle","y"],["barley",")"],["bas","is."],["basin",","],["basin","."],["bb","c"],["bce",")"],["bce","),"],["bce",";"],["be","aches;"],["be","ars"],["be","l"],["be","st"],["be","st-"],["be","y"],["bed","d"],["bedd","ome"],["beddome","'s"],["began",","],["began","."],["bel",","],["belief",","],["belief","."],["belief","s"],["below",","],["bengal",","],["bengal","."],["bengal",";"],["bengal","i,"],["bengal","ur"],["bengalur","u"],["bengaluru",","],["bes","et"],["best-","known"],["bey","on"],["beyon","d"],["bh","akti"],["bh","ut"],["bhang","ra"],["bhang","ra,"],["bharat","avarsha,"],["bharat","i"],["bharat","nat"],["bharati","ya"],["bharatnat","y"],["bharatnaty","am,"],["bhas","k"],["bhask","ara"],["bhut","an"],["bhārat","a"],["bi","as,"],["bi","bli"],["bi","h"],["bi","har"],["bi","ological"],["bi","qu"],["bibli","ograph"],["bibliograph","y"],["bih","ari"],["billion","."],["bin","ed"],["biqu","it"],["biquit","ous"],["bir","ch"],["bir","yan"],["birth","place"],["birth","s"],["birth","s."],["biryan","i,"],["bit","ter"],["bjp",","],["bl","ed"],["bl","ou"],["bl","urred"],["blackbuck",","],["ble","."],["blo","ck"],["blou","se"],["blouse",","],["blurred",","],["bo","ok"],["bod","o"],["bodi","es"],["bodi","ment"],["body","'s"],["body","guard"],["bol","ly"],["bolly","wood,"],["book","."],["bor","der"],["bottom",","],["bottom","."],["bound","ed"],["br","aries"],["br","une"],["bra","c"],["brac","ing"],["brah","man"],["brah","min"],["brahma","gupt"],["brahmagupt","a,"],["brahman","ism,"],["brahmaput","ra"],["brahmaput","ra,"],["brahmaputra","."],["brahmin",","],["bread",";"],["break","down"],["break","fast"],["breakdown",":"],["bri","de"],["british",","],["bro","i"],["broad","ly"],["broi","der"],["broider","ed"],["bron","ze"],["bron","zes"],["brune","i,"],["bs","ite"],["bu","ff"],["buddha","."],["buddhist",","],["buddhist","s."],["buff","alo"],["building",","],["bur","den"],["bust","ard;"],["but","aries"],["c","a,"],["c","abinet"],["c","ake;"],["c","alls"],["c","ambodia,"],["c","amps."],["c","apped"],["c","are."],["c","aretaker"],["c","ases"],["c","ation"],["c","ations"],["c","ence"],["c","ended"],["c","es,"],["c","ies"],["c","ig"],["c","inn"],["c","ise"],["c","ited"],["c","ity"],["c","ity,"],["c","ked"],["c","key"],["c","li"],["c","over"],["c","ra"],["c","res"],["c","ted"],["c","um"],["c","used"],["cal","cul"],["cal","cut"],["calcul","us"],["calcut","t"],["calcutt","a,"],["calend","ar"],["calend","r"],["calendr","ical"],["can","ada."],["can","alled"],["can","als,"],["can","on"],["can","op"],["canop","y"],["cap","ability"],["cap","acity"],["car","bon"],["car","d"],["car","r"],["car","ri"],["car","ry"],["card","amom"],["carr","ion"],["carri","ed"],["cast","s"],["caste","."],["caste-","based"],["caste-","related"],["cattle",")"],["cattle","."],["caus","es"],["caus","ing"],["cause","."],["cav","alry"],["cav","es"],["cav","es."],["ce","\""],["ce",")"],["ce","),"],["ce","pt"],["ce","ptions,"],["ced","ent"],["cedent","ed"],["ceed","ed"],["ceed","ing"],["census","."],["cent","-shaped"],["cent","red"],["central",","],["central","ised"],["centralised",","],["ces","s."],["cess","ful"],["ch","allenges"],["ch","anges."],["ch","arts,"],["ch","asing"],["ch","aturaṅga;"],["ch","audhary,"],["ch","ec"],["ch","em"],["ch","en"],["ch","icken"],["ch","ine."],["ch","ing"],["ch","or"],["ch","rom"],["chain","s"],["chain","s."],["champ","ion"],["champ","ions"],["chand","ra"],["changes","—"],["changes—","among"],["chap","ati,"],["chap","ter"],["chapter","s"],["chapters","')"],["char","an"],["char","ter"],["character","ised"],["charter","ed"],["che","ap"],["che","esi"],["che","wing"],["chec","ked"],["ched","."],["cheetah",";"],["chem","ical"],["chen","na"],["chenna","i,"],["cher","as"],["cher","ry"],["chi","ef"],["chi","k"],["chicken","—"],["chicken—","cooked"],["chik","ankari;"],["chin","a."],["chin","es"],["china","'s"],["chines","e"],["cho","ic"],["cho","li,"],["cho","se"],["cho","ta"],["choic","e,"],["chol","a"],["chol","ars,"],["chol","as,"],["chor","ds"],["chords","\""],["chrom","o"],["chromo","some"],["chronic","ling"],["churidar","s"],["cies",";"],["cig","arettes"],["cin","em"],["cinem","a,"],["cinn","amon,"],["citiz","en"],["citiz","ens"],["citizen","s."],["civilisation",","],["civilisation","."],["cl","ans,"],["cl","of"],["cl","us"],["class","es."],["cle","an"],["cli","ff"],["cliff","s;"],["clo","thes"],["clof","enac"],["clofenac","-treated"],["cloth",","],["cloth","ing"],["clus","ively"],["co","her"],["co","ins."],["co","re"],["co","smo"],["co-oper","ation,"],["coal","-rich"],["coal","es"],["coales","cence"],["coast",";"],["coast","s"],["coast","s."],["codi","fied"],["codi","li"],["codili","an;"],["coher","ent"],["col","lar"],["col","or"],["coll","aboration"],["coll","ision"],["collar","less"],["color","ado"],["com","bined"],["com","pl"],["comm","ended"],["comm","ission"],["comm","unit"],["commerce",";"],["commercial","isation"],["commission","ing"],["committe","e"],["committe","es."],["committee","—"],["committee—","headed"],["commonwealth","."],["communit","ies."],["comp","ared"],["comp","assing"],["comp","re"],["compan","ies."],["companies","—"],["companies—","notably"],["company","'s"],["company","—"],["company—","so"],["company—so","li"],["company—soli","di"],["company—solidi","fied"],["compl","ic"],["comple","ment"],["comple","te"],["comple","ted"],["complement","ed"],["complic","ated"],["compos","ite"],["compos","itions"],["compre","h"],["compreh","ensive"],["con","current"],["con","dition"],["con","i"],["con","qu"],["con","sci"],["con","sequent"],["con","spic"],["con","su"],["con","to"],["con","vention"],["conce","aled"],["conce","pt"],["conce","pts"],["concurrent","ly,"],["condition","ing"],["conduc","t,"],["cong","res"],["congres","s,"],["congress","\")"],["congress","'s"],["coni","fer"],["conifer","ous"],["conqu","est"],["consci","ously"],["consequent","ly"],["conserv","ation"],["conserv","ative"],["consider","able"],["consider","ed"],["consider","ing"],["consist","ently"],["consolid","ate"],["consolid","ated"],["consolid","ation"],["consolid","ations"],["conspic","u"],["conspicu","ous"],["constitut","ed"],["constitut","es"],["constitution",")"],["constitution",","],["constitution","."],["constitutional","."],["consu","mer"],["consumption","."],["cont","em"],["cont","ent"],["cont","ext"],["contem","por"],["contempor","ary"],["context","s."],["continent","al"],["continu","e"],["conto","ur"],["contour","s."],["contra","st"],["contra","vene"],["contrast","ing"],["contribut","ing"],["contribut","ors"],["control","led"],["convention","."],["coo","per"],["cooper","ation"],["cor","al"],["cor","di"],["cor","i"],["cordi","al"],["cori","ander,"],["cosine",","],["cosmo","polit"],["cosmopolit","an"],["cot","t"],["cot","ta"],["cott","on"],["coun","ted"],["coun","ter"],["counter","culture."],["countr","y."],["countri","es"],["countri","es."],["cour","ts"],["court",","],["court","es"],["courtes","ans\","],["cover","ing"],["cra","f"],["craf","ts"],["cre","ate"],["cre","di"],["cre","tic"],["credi","ble"],["cres","cent-shaped"],["cri","bes"],["cris","es:"],["cris","is"],["crit","er"],["crit","ical"],["criter","ia"],["cro","codilian;"],["cro","pp"],["cropp","ing,"],["crow","ded"],["crow","n"],["crust","al"],["ction","."],["cu","ff"],["cuff","ed"],["cuis","ine"],["cuis","ine."],["cuis","ines,"],["cult","ur"],["cultur","ally"],["culture",","],["culture",";"],["culture","—"],["culture—","to"],["cum","in,"],["cur","s"],["cur","ta"],["curren","cy"],["curren","cy,"],["curren","cy."],["curs","ions"],["curta","iled"],["custom","s."],["d","."],["d","al,"],["d","ances,"],["d","ancing"],["d","asi"],["d","ata"],["d","ata,"],["d","ate"],["d","ham"],["d","ho"],["d","hol"],["d","ining"],["d","led"],["d","na"],["d","og"],["d","ol"],["d","on"],["d","one"],["d","osa,"],["d","ou"],["d","r"],["d","ress"],["d","rough"],["d","ry"],["d","ur"],["da","ily"],["da","wn"],["dal","hou"],["dal","it"],["dalhou","si"],["dalhousi","e"],["dalit",","],["dance",","],["dance","."],["dawn","ings"],["day","."],["de","al"],["de","ath"],["de","avor,"],["de","bate"],["de","em"],["de","ep"],["de","f"],["de","feat"],["de","forest"],["de","mar"],["de","pos"],["de","ta"],["de","vi"],["dec","en"],["dec","ent"],["dec","imal"],["dec","lar"],["dec","ol"],["dec","or"],["decen","n"],["decenn","ial"],["decent","ral"],["decentral","isation"],["decentralisation",","],["decis","ions"],["decis","ively"],["decl","ares"],["decl","in"],["decl","ine"],["decl","ining"],["declar","ation."],["declin","ed,"],["decol","on"],["decolon","isation"],["decor","ation,"],["decreasing",":"],["deem","s"],["def","ence"],["defence",","],["defin","ing"],["defin","ite"],["defin","ition"],["defin","itions"],["definite","ly"],["definitely","."],["deforest","ed,"],["del","in"],["del","ine"],["del","ta"],["delin","es."],["dem","and,"],["demar","cation"],["democra","cy"],["den","sity"],["depos","ition"],["deposition",","],["der","'s"],["der","abad"],["der","ately"],["der","ec"],["der","ing"],["der","ives"],["der","iving"],["der","s,"],["der","s."],["derec","og"],["derecog","ni"],["derecogni","zed"],["dern","ess"],["derness",";"],["des","ai"],["des","cended"],["des","cribes"],["des","ert"],["des","h"],["dest","in"],["dest","ru"],["destin","ations"],["destru","ction"],["deta","il"],["deter","min"],["deter","ren"],["determin","ed"],["deterren","ce\""],["dev","adasis."],["dev","anagari"],["dev","dasi"],["devast","ating"],["devast","ation"],["develop","."],["develop","ed,"],["develop","ing"],["developed",";"],["development","."],["devotion",","],["devotion","al"],["dham","ma"],["dho","ti,"],["dhol","avira,"],["di","a"],["di","clofenac-treated"],["di","ers,"],["di","ox"],["di","sc"],["dic","i"],["dici","ary"],["diction","ary,"],["dient",","],["differ","enc"],["differenc","es."],["different","i"],["differenti","ation"],["ding","s"],["diox","ide"],["dire","ction."],["dire","ctions"],["direct","iv"],["direct","ors"],["direct","ory"],["directiv","es,"],["dis","advantaged."],["dis","affection"],["dis","banded,"],["dis","content"],["dis","placed"],["dis","play"],["dis","played"],["dis","proportion"],["dis","ru"],["disc","over"],["discover","y"],["discrimin","ation,"],["discrimin","atory."],["diseas","e"],["diseas","e."],["dish","a"],["dish","es."],["disproportion","ately"],["disru","pt"],["disrupt","ive"],["dist","ance,"],["dist","inction"],["dist","ric"],["distinct","ive"],["distinct","ly"],["distinction","s"],["distric","t,"],["dit","ure."],["div","es."],["div","ided"],["div","is"],["diverse",","],["diverse","."],["divis","ions"],["divor","ce"],["divor","ce."],["doc","tr"],["doc","u"],["doctr","ine."],["docu","ment"],["dog","ri,"],["dol","ph"],["dolph","in."],["domestic","ation"],["dominion","s,"],["don","y"],["dony","i-"],["donyi-","pol"],["donyi-pol","o,"],["dou","bled"],["dr","y,"],["dra","f"],["dra","ped."],["dra","w"],["dra","wn"],["draf","ted"],["draw","str"],["drawstr","ing,"],["dri","al"],["dri","ft"],["dri","ve"],["dri","ving"],["dro","graph"],["drograph","ic"],["drop","ped"],["drough","ts"],["du","al"],["du","cherry"],["duc","t"],["dur","able"],["dyn","amic"],["dyn","asties,"],["e","-market"],["e","ans."],["e","aten"],["e","en"],["e","ing"],["e","ld"],["e","per"],["e","pul"],["e","ther"],["ear","th"],["earli","er"],["earth","."],["east",","],["east","ward"],["ec","e"],["ec","olog"],["ec","ts"],["ecolog","ically"],["econom","ically"],["economic",","],["economic","s."],["economy",";"],["ect","ancy"],["ect","ing"],["ect","on"],["ection","s,"],["ective","ly"],["ecton","ic"],["ed","dings"],["ed","om"],["educ","ation,"],["ef","ied"],["eff","ect"],["eff","ectively"],["eff","ects"],["ei","gh"],["eigh","th"],["eight","."],["eight","een"],["eight","y"],["eighty","-nine"],["ek","har"],["el","ders."],["el","ite"],["el","li"],["el","ling"],["el","ped"],["el","t"],["ele","ments"],["ele","ph"],["election","s,"],["electr","ic"],["electr","ical"],["electric","ity"],["eleph","anta"],["elite",";"],["ell","en"],["ell","or"],["ellen","istic"],["elli","gence"],["ellor","a."],["em",","],["em","bodiment"],["em","bracing"],["em","broidered"],["em","its"],["emer","ge"],["emerg","ing"],["emerged",","],["emerged","."],["emergen","ce"],["emission","s,"],["emission","s."],["emp","i"],["emphasis","ing"],["empi","res."],["empire","'s"],["empire",");"],["empire",","],["employ","ing"],["employ","ment"],["్","ర"],["ా","ర"],["ల","ు"],["ల","ో"],["స","్"],["్","య"],["న","్"],["ద","ి"],["ద","ే"],["ప","్ర"],["ి","ం"],["దే","శ"],["ా","ల"],["ి","క"],["ర","్"],["భ","ార"],["क","ो"],["భార","త"],["న్","న"],["म","ा"],["ా","లు"],["గ","ా"],["ది","."],["्","र"],["క","ు"],["న","ి"],["ा","र"],["వ","ి"],["ా","య"],["క","్"],["न","्"],["ా","త"],["దేశ","ం"],["ా","న"],["र","ू"],["ర","ా"],["్","ట"],["న","ు"],["र","्"],["ం","డ"],["మ","ు"],["ह","रू"],["ీ","య"],["ద","్"],["ి","న"],["्","य"],["త","్"],["త","ి"],["भ","ार"],["ల","్"],["స్","త"],["ि","क"],["ిం","చ"],["ం","త"],["भार","त"],["ర","ి"],["స","ం"],["ल","ा"],["ర","ు"],["ప","ు"],["ल","े"],["ు","లు"],["స్","థ"],["स","्"],["ం","ట"],["ాయ","ి"],["ిం","ది."],["प","्र"],["భారత","దేశం"],["ం","లో"],["क","्"],["భ","ా"],["ై","న"],["य","ो"],["ం","గ"],["ూ","డ"],["क","ा"],["ాయి","."],["ం","గా"],["्","व"],["ం","ది."],["క్","ష"],["ग","र"],["ధ","ిక"],["వ","ా"],["क्","ष"],["స","ా"],["ఉ","న్న"],["र","ा"],["ప","ా"],["ార","ు"],["त","ा"],["ట","ి"],["ార","్"],["त","ि"],["ి","త"],["व","ि"],["్","చ"],["ం",","],["य","ा"],["ష","్ట"],["క","ూడ"],["ी","य"],["జ","ాత"],["ప్ర","ా"],["ि","त"],["రా","జ"],["క","ో"],["ए","को"],["క","్ర"],["క","ా"],["स","ा"],["చ","్చ"],["ట","్ట"],["ु","न"],["న","ే"],["మ","ొ"],["ङ","्"],["ం","చ"],["ద","ు"],["न","ि"],["ప","ే"],["భారత","ీయ"],["त","्र"],["మ","ా"],["య","ా"],["थ","ि"],["త్","వ"],["న","ా"],["द","्व"],["ర","ై"],["ల","ి"],["य","स"],["వ","్య"],["స","ి"],["ला","ई"],["్","ల"],["జాత","ీయ"],["ा","स"],["త","ర"],["రా","ష్ట"],["రాష్ట","్ర"],["ह","ि"],["వ","ాత"],["ा","न"],["ారు","."],["గ","ు"],["త","ో"],["त","्"],["ద్","ధ"],["ల్","ల"],["न्","द"],["వ","చ్చ"],["ిక","ి"],["स","म"],["ంత","్ర"],["न","ा"],["అ","ధిక"],["క","ొ"],["ब","ा"],["ఖ","్య"],["డ","ు"],["व","ा"],["ప","ాల"],["భారత","దేశ"],["ग","र्"],["మ","ైన"],["వ","ే"],["छ","।"],["ాలు",","],["न","ी"],["ండ","ి"],["ఒ","క"],["यो","।"],["క","ాల"],["డ","ి"],["े","श"],["ణ","ా"],["ద","్ర"],["छ","न्"],["మ","ార్"],["ఉ","ంది."],["न","े"],["చ","ే"],["త","ం"],["रा","ज"],["దేశ","ాల"],["ा","ल"],["ధ","్య"],["వ్య","వ"],["क","ार"],["శ","ా"],["ిం","ద"],["बा","ट"],["ులు",","],["్","‌"],["म","ु"],["ం","ది"],["ఉన్న","ాయి."],["स","ं"],["ఎ","న్న"],["క","ి"],["स","ि"],["ట","ు"],["क्ष","ि"],["న్న","ి"],["ప","ంచ"],["क्षि","ण"],["ప","ార"],["భారతదేశం","లో"],["गर","ि"],["ా","న్"],["ా","బ"],["द","क्षिण"],["చ","ె"],["డ","్"],["प","ू"],["ధ","ాన"],["भ","ा"],["ప","ె"],["మార్","గ"],["ल","ो"],["ర్","వ"],["వ్యవ","స్థ"],["ङ्","ग"],["ి","న్న"],["ీ",","],["त्","त"],["ె","ండ"],["ం","బ"],["भारत","को"],["అధిక","ార"],["క","ార"],["म","ह"],["క","ృ"],["క","ే"],["रू","प"],["కూడ","ా"],["श","ास"],["త","ు"],["ద","ా"],["िक","ा"],["మ","త"],["మొ","ద"],["च","ि"],["స్త","ు"],["హ","ింద"],["द","ी"],["ాన","ికి"],["క","ర"],["पू","र्"],["క్ష","ి"],["ట","్"],["भारत","ीय"],["త","్య"],["త","్ర"],["ार","ा"],["ద్","ద"],["ప","ర"],["गर","े"],["ప","రి"],["द्व","ारा"],["పే","రు"],["ప్ర","ధాన"],["म","्"],["ప్ర","పంచ"],["ప్రా","ంత"],["स","मा"],["భా","ష"],["మ","ధ్య"],["ह","ो"],["మ","ీ"],["మ","ే"],["हरू","ले"],["రాజ","్య"],["मा",","],["రై","లు"],["వ","ర"],["यस","को"],["స","ు"],["స్థ","ాన"],["ल","्"],["ి",","],["व","र्"],["క్","కు"],["క్ర","ీ"],["ष","्"],["ద","క్షి"],["ద","ాయ"],["्य","ा"],["దేశం","లో"],["ప","్"],["क्ष","े"],["పార","్ట"],["क्षे","त्र"],["వ","ర్"],["వ","ార"],["गरि","एको"],["స","భ"],["ాత","్ర"],["ज","ुन"],["అ","య"],["द्व","ी"],["ఆ","ర్"],["జ","నా"],["द्वी","प"],["న","ాలు"],["ప్ర","జ"],["न्","त्र"],["ప్ర","భ"],["ప్రభ","ు"],["मु","ख"],["ర","ెండ"],["ర","ో"],["रूप","मा"],["ల","ం"],["श","्"],["ల","ా"],["వ","ె"],["स","ु"],["హింద","ూ"],["ించ","ింది."],["ी","न"],["ం","ద్ర"],["ఇ","తర"],["े","र"],["క్కు","వ"],["త","రు"],["्र","ा"],["త","ా"],["ప","ూ"],["उ","त्त"],["ప","ో"],["పార్ట","ీ"],["ट","ि"],["పె","ద్ద"],["మ","న"],["म","ि"],["మ","ి"],["मह","ा"],["ము","ఖ్య"],["ల","కు"],["ला","ग"],["వ","ీ"],["వ","ు"],["अ","ध"],["వచ్చ","ింది."],["శ","్ర"],["आ","ध"],["ష","్"],["उत्त","र"],["సా","ం"],["స్","కృ"],["क","ृ"],["స్త","్ర"],["ాల","్"],["चि","म"],["ించ","ిన"],["थि","यो"],["ీ","న"],["ం","."],["द","ेश"],["అ","తి"],["అయ","ిన"],["न्","ध"],["ఉ","ంట"],["ఉ","త్"],["प","श्"],["కే","ంద్ర"],["క్రీ","డ"],["प","ा"],["గ","ర"],["గ","ి"],["पश्","चिम"],["గ","ీ"],["पूर्","व"],["జ","రి"],["జనా","భా"],["भ","ि"],["తరు","వాత"],["ప","ట్ట"],["वि","ध"],["ప్","ప"],["ప్రభు","త్వ"],["स","ह"],["బ","డ"],["బ","ా"],["सि","या"],["బ","ె"],["బ","్ర"],["ह","ु"],["భా","గ"],["हरू","को"],["మ","హ"],["మార్గ","ాలు"],["०","०"],["ల","లో"],["లు",","],["ं","श"],["వ","ంట"],["छन्","।"],["వా","ణా"],["వి","ధ"],["ज","न"],["ు","కు"],["్య","ం"],["ज","स"],["ంగ","్ర"],["ज","ा"],["ంగ్ర","ె"],["ంది","న"],["ज","्य"],["అ","నే"],["ఇ","ది"],["थ","ा"],["ఎ","క్కువ"],["ఎన్న","ో"],["प","हि"],["ఏ","ర్"],["క","లి"],["प","ु"],["క","ీయ"],["కా","ంగ్రె"],["भ","एको"],["కాల","ంలో"],["క్","క"],["र","ु"],["గ","ిన"],["र्","म"],["గ","ో"],["గ","్"],["लाग","ि"],["జ","న"],["ట","ిక"],["शास","न"],["ణ","ం"],["దక్షి","ణ"],["स","ङ्"],["పా","కి"],["ప్ర","దాయ"],["स","द"],["ప్ర","స్తు"],["బ","హ"],["स","न्"],["మ","ంత్ర"],["మొద","టి"],["सा","म"],["ర","వాణా"],["स्","त"],["రాజ","కీయ"],["ల","ను"],["उ","प"],["ల","ే"],["స","రి"],["क","र"],["స","ిం"],["సా","ధ"],["क","ि"],["స్త","ాన్"],["क","े"],["ాబ","్"],["ి","ల్ల"],["ख","ा"],["్ర","ా"],["ంగ","్ల"],["ट","ा"],["ండ","ు"],["ండి","యా"],["त","न्त्र"],["అ","త్య"],["त","्य"],["అత్య","ధిక"],["ఆర్","ధిక"],["ता","ब"],["ఇ","ండియా"],["ఉ","ప"],["थि","यो।"],["క","్య"],["క్ర","మ"],["द","्र"],["గ","ల"],["చ","ిన్న"],["ध","र्म"],["ప","తి"],["ప","ై"],["ध","्य"],["ప్ర","తి"],["ప్రా","చ"],["प","छ"],["భ","ూ"],["మ","ాన"],["प्र","मुख"],["మ","ై"],["య","ు"],["ब","ढ"],["య","ో"],["ర","ంగ"],["भारत","मा"],["రెండ","ు"],["मा","न"],["ల","తో"],["వ","ల"],["व","ेश"],["వి","స్త"],["శ","్"],["व","्य"],["శా","స్త్ర"],["ష","ు"],["साम","्रा"],["సం","గీ"],["సం","స్కృ"],["साम्रा","ज्य"],["సరి","హ"],["సి","ని"],["हरू","मा"],["సి","యా"],["ా",","],["हि","न्द"],["ా","వర"],["ాల","ను"],["ा","य"],["ాల","లో"],["ిత","్ర"],["्","ध"],["ె","లు"],["్","మ"],["्","न"],["ం",":"],["ం","ధ"],["आध","ुन"],["ంత","ో"],["ఆ","ధ"],["आधुन","िक"],["ఉత్","తర"],["ए","सिया"],["ఏర్","ప"],["క","ాలు"],["औ","ँ"],["కర","్య"],["కో","ర్"],["गरे",","],["గ","ణ"],["జ","ాబ"],["गर्","द"],["జ","్య"],["ట","్ల"],["छ",","],["డి","ప"],["డ్","డ"],["ताब","्"],["ఢ","ిల్ల"],["ణ","ి"],["ताब्","दी"],["త","ంత్ర"],["త","ిక"],["द","्ध"],["ద","ం"],["ద","ార"],["न्","छ।"],["దేశంలో","ని"],["ద్","దు"],["न्","न"],["ద్ధ","ి"],["ధ","ి"],["पछ","ि"],["న","డిప"],["న","ె"],["ब","ङ्ग"],["పట్ట","ణ"],["పే","ర్"],["ब","ै"],["ప్ప","టిక"],["ప్ర","ము"],["भ","ू"],["ప్రము","ఖ"],["ప్రాంత","ాలు"],["म","ध्य"],["బహ","ు"],["బె","ంగ"],["राज","्य"],["బ్ర","ి"],["ल","ी"],["భ","ిన్న"],["భారత","్"],["श","ताब्दी"],["మ","ాత్ర"],["మ","ూడ"],["सम","्"],["మ","ె"],["మంత్ర","ి"],["समा","वेश"],["ము","ద్ర"],["మొద","ల"],["स्","कृ"],["ర","హ"],["రాష్ట్ర","పతి"],["स्","ता"],["వ","ై"],["వి","విధ"],["स्","व"],["శా","ఖ"],["స","మా"],["्","द"],["స","ింది."],["స","ౌ"],["्र","ी"],["సరిహ","ద్దు"],["సా","మ"],["१","९"],["సిం","ధ"],["సౌ","కర్య"],["ँ","ँ"],["స్","య"],["స్","వ"],["ँ","ग"],["స్","వా"],["अध","िका"],["హ","ార"],["ాల్","లో"],["अधिका","ंश"],["ీ",";"],["आ","र्"],["ీ","ర్"],["ు","కో"],["उप","महा"],["్య","ాయ"],["ం","ద"],["उपमहा","द्वीप"],["ం","దు"],["ంట","ు"],["ए","ँँ"],["అ","ను"],["అ","భ"],["ए","क"],["అధికార","ిక"],["అనే","క"],["कर","ण"],["అభ","ి"],["ఎక్కువ","గా"],["का","ल"],["ఒక","టి"],["క","ల్"],["ग","ङ्ग"],["క","ళ"],["కాంగ్రె","సు"],["गङ्ग","ा"],["కూడ","ిన"],["గ","ంగా"],["ठ","ु"],["గ","లు"],["గ","ే"],["ण","ाल"],["గా",","],["చ","రి"],["णाल","ी"],["చ","ార"],["చ","ైన"],["त","्व"],["చరి","త్ర"],["చే","య"],["थि","एँँ"],["జరి","గిన"],["े","ं"],["జాబ","ిత"],["द","े"],["జాబిత","ా"],["ట","ీ"],["ध","ेर"],["ట","ె"],["ట్","లు"],["धेर","ै"],["త","న"],["త","మి"],["न","दी"],["త","ాబ్"],["త","ూ"],["ना","म"],["తమి","ళ"],["తు","న్న"],["नि","र्"],["త్","తం"],["థ","ిక"],["न्","ड"],["దార","ులు,"],["దేశాల","లో"],["न्","या"],["న","గర"],["న","ీ"],["प","नि"],["నడిప","ించ"],["ని","ర్వ"],["प्र","णाली"],["నిర్వ","హ"],["ను","ండి"],["ब","्र"],["ను","క"],["న్న","ాయి."],["भ","ए"],["ప","ండు"],["ప","త"],["भा","ष"],["ప","ద్ధ"],["ప","ొ"],["म","ू"],["పాల","న"],["ప్రజ","ా"],["र","ि"],["ప్రపంచ","ంలో"],["ప్రస్తు","తం"],["र","ी"],["ప్రాచ","ీన"],["భారతదేశ","ానికి"],["ल","ि"],["మ","ర"],["మ","్య"],["वर्","ष"],["మొ","త్తం"],["ర","ూ"],["स","ँग"],["రై","ల్"],["రైల్","వే"],["स","बै"],["లు","."],["ళ","్ల"],["स","ी"],["వ","డ"],["వ","త్"],["सं","स्कृ"],["వ","హ"],["వ","ృ"],["सम","य"],["వంట","ి"],["వాత","ంత్ర"],["ह","ास"],["వాత","ావర"],["వాతావర","ణం"],["ह","े"],["వె","బ"],["శ","తాబ్"],["हरू",","],["म","ें"],["స","ముద్ర"],["స","ర"],["हरू","लाई"],["స","ర్వ"],["స","ార"],["हिन्द","ु"],["స","ై"],["సం","ఖ్య"],["हो","।"],["స్","వాతంత్ర"],["ాల","తో"],["ै","द"],["ి","మ"],["ించ","ే"],["ँ","च"],["ు","."],["अ","र्"],[".","."],["1","-"],["ంచ","ి"],["क","म्"],["ంట","ారు."],["ంట","ే"],["के","न्द"],["అ","ని"],["అభి","వృ"],["क्","ति"],["ఆ","ఫ"],["ఆధ","ార"],["ख","ि"],["ఆఫ","్"],["ఆర్","థిక"],["ग","्री"],["ఇ","వ"],["ఉంట","ాయి."],["च","्"],["క","ం"],["క","ల"],["ढ","ा"],["కర","ణ"],["కార","ం"],["ण","्"],["కార","్య"],["కు","టు"],["ण्","ड"],["కు","ల"],["కుటు","ంబ"],["त","र्"],["కేంద్ర","పాల"],["కేంద్రపాల","ిత"],["కొ","న్ని"],["ति","नी"],["క్ష","రా"],["ह","ै"],["క్షరా","స్య"],["ति","हास"],["క్షరాస్య","త"],["ఖ","ండ"],["द","ु"],["చ","ి"],["చె","ందిన"],["दे","खि"],["జ","న్"],["జ","ి"],["न्द","ा"],["ట","ం"],["ట","ా"],["प","्"],["టి","లో"],["డ","ే"],["पश्चिम","ी"],["డు","కు"],["ఢిల్ల","ీ"],["ब","न्ध"],["ణ","ంగా"],["ణా","సియా"],["बङ्ग","ाल"],["తి",","],["ద","న"],["भ","न्दा"],["ద","ీ"],["ద","్య"],["भाष","ा"],["దక్షిణ","ాన"],["ద్","వీ"],["भि","न्न"],["న","ాయ"],["న","్యాయ"],["भू","मि"],["ని","ర్"],["ప","ం"],["ప","ద"],["म","क"],["ప","శ"],["ప","ాత్ర"],["म्","भ"],["పర","ంగా"],["పరి","శ్ర"],["यो","ग"],["పరిశ్ర","మ"],["పశ","్చ"],["ल","ग"],["పా","క్"],["పాకి","స్తాన్"],["ल","य"],["పాకి","స్థ"],["పాకిస్థ","ాన్"],["ल्","लो"],["పు","ట్ట"],["పూ","."],["वि","श"],["పై","గా"],["ప్రధాన","మంత్రి"],["सा","गर"],["బా","ద్"],["బెంగ","ాల"],["औ","र"],["स्","था"],["బ్రి","టి"],["భాగ","ం"],["स्ता","न"],["భారతదేశ","పు"],["భారతదేశంలో","ని"],["ान","मा"],["మ","ల"],["మ","్మ"],["ार","ी"],["మాత్ర","ం"],["ము","."],["े","द"],["ము","ంబ"],["ము","లో"],["अ","न्"],["ముఖ్య","మైన"],["మూడ","ు"],["अ","भि"],["మే","న"],["ర","కాల"],["अ","व"],["ర","ే"],["अध","ीन"],["ర","్య"],["రహ","దారులు,"],["आ","फ"],["రాజ్య","ాలు"],["రాష్ట్ర","ాల"],["इ","तिहास"],["రాష్ట్ర","ాలు"],["इ","न्ड"],["రై","ళ్ల"],["రో","డ్"],["उ","नी"],["ల","క్ష"],["లో","క్"],["उत्तर","ी"],["ల్","లో"],["ए","का"],["వ","రి"],["स","े"],["వచ్చ","ిన"],["వార","స"],["వార","ి"],["कम्","प"],["వి","."],["कम्प","नी"],["వే","గంగా"],["వ్యవస్థ","లో"],["कि","स्तान"],["శతాబ్","దం"],["స","ూ"],["केन्द","्र"],["సం","ఘ"],["ख","्या"],["సం","ప్రదాయ"],["సం","వత్"],["ग","्"],["సంగీ","తం"],["సంస్కృ","తి"],["च्","च"],["సభ","్య"],["छन्",","],["సర్వ","ీ"],["సాం","ప్రదాయ"],["जस","ले"],["సాధ","ించ"],["సామ","్రా"],["जा","त"],["సిని","మా"],["ट","्र"],["స్",","],["స్","లా"],["टि","स"],["స్థాన","ంలో"],["స్వ","తంత్ర"],["ठु","लो"],["స్వా","మ్య"],["त","िक"],["హ","ా"],["ాయ","ు"],["क","ी"],["त","ु"],["ాల","కు"],["ి","ల్"],["त्","मक"],["ిక",","],["ిక","త"],["थ","ान"],["ిక","్"],["थियो",","],["ు","ల"],["ె","ల"],["ध","ार"],["ో","ర"],["(","వె"],["धर्म","को"],["(వె","నుక"],["(వెనుక","టి"],["न","को"],[".","పూ."],["b","n"],["न","ु"],["is","bn"],["ం","భ"],["न्ध","ु"],["ంగ","ం"],["ంగ్ల","ా"],["ంగ్లా","దేశ"],["प","ाल"],["ంధ","ీ"],["ంబ","ూ"],["पहि","ले"],["అ","వి"],["అ","హ"],["पहि","लो"],["అభివృ","ద్ధి"],["ఆ","క్రమ"],["पा","किस्तान"],["ఆ","హార"],["ఆఫ్","ఘ"],["ఇ","ంగ్ల"],["पु","रा"],["ఇ","వి"],["ఇ","స్లా"],["पूर्","ण"],["ఇస్లా","మా"],["ो","ं"],["ఇస్లామా","బాద్"],["पूर्व","मा"],["ఉ","ండ"],["ఉంట","ు"],["प्","त"],["ఉంటు","ంది."],["ఉన్న","ారు."],["प्र","ार"],["ఉప","ఖండ"],["ఎన్న","ిక"],["ఏర్ప","డ్డ"],["प्रार","म्भ"],["ఒక","ే"],["క","త్వ"],["बङ्गाल","को"],["క","థ"],["క","న్న"],["बढ","्द"],["క","ింద"],["క","ీర్"],["ब्र","ि"],["క","ూ"],["కం","పె"],["ब्रि","टिस"],["కంపె","నీ"],["కన్న","డ"],["కలి","గి"],["भा","ग"],["కలి","సి"],["కా","శ్"],["भारत",","],["కార","ణంగా"],["కార్య","క్రమ"],["म","न"],["కాశ్","మీ"],["కు","లు"],["म","ैद"],["కూడ","ుకు"],["కే","వ"],["है","।"],["కేవ","లం"],["म","ौ"],["కొ","న"],["కొ","ని"],["मान","व"],["కో","ట్ల"],["కో","ల్"],["मू","ल"],["కోర్","ట"],["కోర్","టు"],["य","ु"],["క్య","ాల"],["క్యాల","ెండ"],["यस","लाई"],["క్యాలెండ","ర్"],["క్రీడ","లు"],["గర","ికత"],["र","कार"],["గా","ంధీ"],["గు","ర్"],["र","हे"],["గు","వ"],["గుర్","త"],["र","ो"],["గో","ళ"],["చ","న"],["रा","ख"],["చ","ాల"],["చ","ిత్ర"],["रा","ष्"],["చ","ు"],["చార","ిత్ర"],["చారిత్ర","క"],["राष्","ट्र"],["చాల","ా"],["చే","సింది."],["ला","म"],["జ","ంబూ"],["జ","రు"],["ले","ख"],["జ","ాలు"],["జన","గణ"],["वर्","ग"],["జన్","మ"],["జరు","పు"],["జరుపు","కు"],["वि","स्त"],["ట","ర్"],["ట","ే"],["विध","ाय"],["ట","ై"],["ట్ట","మొదటి"],["विस्त","ार"],["డ","ిన"],["प","र"],["ణి","జ్య"],["త","ంలో"],["व्य","व"],["త","ము"],["త","ల"],["शताब्दी","को"],["త","ులు"],["త","ె"],["త","ెలు"],["शास","ित"],["త","ే"],["తరువాత","ి"],["ष्","ण"],["తా","క"],["తి","గా"],["स","रकार"],["తు","ంది."],["తెలు","గు"],["सं","सद"],["త్","వా"],["త్వా","న్ని"],["ద","ర"],["संस्कृ","ति"],["దక్షి","ణాసియా"],["దా","దా"],["सङ्","ख्या"],["దాదా","పు"],["है","ं"],["ది","న"],["सद","न"],["ది","నాలు"],["దేశ","పు"],["सबै","भन्दा"],["దేశ","ానికి"],["దేశం","గా"],["सम","ू"],["ద్","వార"],["ద్ధ","ం"],["ద్వార","ా"],["समू","ह"],["ద్వీ","ప"],["న","ది"],["सम्","म"],["నా","గరికత"],["నాలు","గు"],["ड","़"],["सि","न्धु"],["ని","స్తాన్"],["నిర్వహ","ణ"],["सु","रु"],["ను","ంచి"],["నే","పాల"],["स्","ट"],["న్న","ది."],["న్న","ారు."],["ప","క్ష"],["स्था","प"],["ప","ార్"],["ప","ీ"],["हरू","द्वारा"],["పత","కాలు"],["పద్ధ","తి"],["भ","ी"],["हो",","],["పరిశ్రమ","లు"],["పా","టు"],["ा","व"],["పా","దన"],["పాల","ించ"],["పీ","ఠ"],["े","ष"],["పు","రు"],["పూ","ర్వ"],["्य","ो"],["పేర్","లు"],["పొ","ందిన"],["्र","ो"],["ప్పటిక","ీ,"],["ప్ర","కారం"],["हैं","।"],[",","००"],["ప్ర","ార"],["ప్రజ","ల"],[",००","०"],["ప్రజా","స్వామ్య"],["ప్రతి","పాదన"],["अ","ण्ड"],["ప్రభుత్వ","ం"],["अ","नु"],["ప్రార","ంభ"],["బ","ంగ్లాదేశ"],["अ","फ"],["బ","ంధ"],["బ","డ్డ"],["अ","हि"],["బ","ి"],["त","था"],["బడ","త"],["अण्ड","मान"],["బడ","ిన"],["अधीन","मा,"],["బహు","ళ"],["బెంగాల","ీ"],["अफ","्र"],["భ","ర"],["భ","ౌ"],["अफ्र","िका"],["ि","या"],["భాష","లు"],["మ","ంది"],["మ","తి"],["अव","ध"],["మ","ారు"],["మ","ాలు"],["अवध","ि"],["మ","ించ"],["आ","क"],["మ","ూ"],["మ","ౌ"],["ं","ग"],["आफ","्न"],["మహ","ా"],["ముంబ","ై"],["आफ्न","ो"],["మైన","ది."],["आर्","द्र"],["మొ","ట్టమొదటి"],["మొదల","ైన"],["इतिहास","कार"],["య","ాలు"],["ह","ा"],["రాజ్య","ా"],["రైళ్ల","ను"],["इतिहासकार","हरूले"],["రోడ్","డు"],["ర్",","],["उपमहाद्वीप","मा"],["ర్","ష"],["ज","ि"],["ర్","‌"],["क","टि"],["ల","ిం"],["क","ु"],["ల","ె"],["లతో",","],["क","्र"],["లి","చ"],["లే","దా"],["कटि","बन्ध"],["లో","య"],["कटिबन्ध","ीय"],["ళ","్"],["ళ్","ళ"],["कार","ी"],["వ","ల్ల"],["इ","स"],["వచ్చ","ు."],["कार","्य"],["వడ","ం"],["వర్","గ"],["काल","को"],["వర్","ణ"],["क्र","म"],["వా","ణిజ్య"],["వా","హ"],["क्षेत्र","लाई"],["వారస","త్వ"],["कि","या"],["వి","ద్య"],["खा","ड"],["వి","ధ్య"],["खाड","ी"],["వి","భిన్న"],["వీ","టిలో"],["ग","ण"],["వెబ","్‌"],["వెబ్‌","సై"],["ग","ल"],["ं","त्र"],["వెబ్‌సై","టు"],["ग","ा"],["వై","విధ్య"],["వ్య","ా"],["गण","तन्त्र"],["వ్యా","పార"],["శ","ెల"],["गरे","का"],["శాస్త్ర","ం,"],["त","क"],["गरे","को"],["శాస్త్ర","ీయ"],["శెల","వు"],["गर्","न"],["శ్ర","ీ"],["ష్","ణ"],["गर्","ने"],["त","े"],["స","మ"],["गर्द","छ।"],["స","హ"],["స","ార్"],["ग्री","क"],["స","ులు"],["స","ే"],["ह","ी"],["స","ైన"],["ङ्ग","्र"],["స","్ర"],["ङ्ग्र","े"],["సం","కీర్"],["సం","బంధ"],["ं","ध"],["च","ाल"],["సంప్రదాయ","ాలు"],["సంవత్","సర"],["च","ीन"],["సమా","ఖ్య"],["छ",";"],["సర్వీ","సులు"],["సాం","స్కృ"],["छन्",":"],["సాంప్రదాయ","ిక"],["సాంస్కృ","తిక"],["त","ी"],["ज","ना"],["సామ్రా","జ్య"],["సింధ","ు"],["ज","ब"],["స్థ","ి"],["స్వాతంత్ర","్య"],["ज","समा"],["హ","ిమ"],["सा","थ"],["హ","ై"],["ज","िक"],["హిందూ","దేశం"],["హిమ","ాల"],["ज","ो"],["హిమాల","య"],["जस","को"],["ాత","ో"],["ాల","నే"],["टा","ढा"],["ాలు","."],["ओ","ं"],["ి","స్త"],["त","ट"],["ించ","ి,"],["त","र"],["ీ","ర"],["ీ","లు"],["त","ृ"],["ూ","ప"],["ూ","రు"],["तृ","त्व"],["ె","ట్"],["त्य","स"],["ే",","],["్",","],["त्यस","पछि"],["ग","या"],["్","వ"],["थ","प"],["్య","ా"],["\"","భర"],["थिएँँ","।"],["(","0."],["ज","ी"],["-","0"],["-","ఢిల్లీ"],["-","లా"],["-ఢిల్లీ","-లా"],["द","ि"],["-ఢిల్లీ-లా","హ"],["-ఢిల్లీ-లాహ","ో"],["द्वारा",","],["..","."],["2","9"],["26","న"],["ध","ान"],["4","0"],["4","6"],["न","या"],["5","-0"],["59","-"],["7","/"],["न","ो"],["c","ia"],["बा","द"],["ce","e"],["नया","ँ"],["fact","book"],["of","ile"],["pr","ofile"],["नि","न्छ।"],["ం",";"],["य","ह"],["ం","క"],["ने","तृत्व"],["ం","కా"],["ంగ","ారు"],["ంగా",","],["न्या","या"],["ంచ","ిన"],["ంట","ి"],["प","राज"],["ంట","ూ"],["ంట","ో"],["ంటు","ంది."],["प","रि"],["ండ","ా"],["्र","े"],["ండ","ో"],["प","र्"],["ండ","్"],["ంత","ర"],["ంత","ర్"],["पराज","ित"],["ంతర్","జాతీయ"],["ంద","ాయి."],["पु","ग"],["ంది","ంది."],["ందు","తున్న"],["ब","से"],["ంలో",","],["पूर्व","ी"],["అ","ంతర్జాతీయ"],["అ","క్షరాస్యత"],["प्र","ति"],["అ","ణ"],["అ","న్ని"],["प्र","देश"],["అ","ప్ప"],["అ","మె"],["అ","వ"],["प्र","या"],["అతి","పెద్ద"],["అధికార","ం"],["स","बसे"],["प्र","योग"],["అమె","ర"],["అమెర","ిక"],["అయిన","ా,"],["प्र","शासन"],["ఆ","సియా"],["ఆధార","ప"],["प्र","ा"],["ఆధారప","డిన"],["ఆఫ్ఘ","నిస్తాన్"],["ఇ","ండో"],["प्रया","स"],["ఇ","క్క"],["ఇ","టీ"],["फ","ल"],["ఇ","దే"],["ఇంగ్ల","ీ"],["द","ो"],["ఇంగ్లీ","షు"],["ఇతర","దేశాల"],["ఇవ","ిక"],["फ","ार"],["ఈ","శ"],["ఈ","స్"],["ब","हु"],["ఈశ","ాన"],["ఈశాన","్య"],["ఈస్","ట్"],["फार","सी"],["ఉత్తర","ాన"],["यो","ं"],["ఉప","యో"],["ब","ग्"],["ఉపయో","గి"],["ఎ","డ"],["ఎ","ల"],["ब","ना"],["ఎన్న","ుకు"],["ఎన్న","ుకో"],["ब","न्"],["ఎన్నిక","ల్లో"],["ఎన్నుకో","బడత"],["र","े"],["ఎన్నుకోబడత","ారు."],["भ","ग"],["ఎల","క్"],["ఎలక్","ట"],["ఎలక్ట","ోర"],["भ","ने"],["ఎలక్టోర","ల్"],["ंग","्रे"],["ఏ","ప్ర"],["भ","यो।"],["ఏప్ర","ిల్"],["ఏర్పడ్డ","ాయి."],["ఐ","క్య"],["भारत","ले"],["ఐ","రో"],["अ","प"],["ఐరో","పా"],["म","्य"],["ఒ","లం"],["ఒకటి","గా"],["ఒలం","ప"],["मा","ण"],["క","ంటే"],["క","ను"],["मा","लय"],["క","నుక"],["క","బడ్డ"],["క","లు"],["मु","गल"],["ब","ंध"],["క","ాత"],["క","ీ"],["म्य","ानमा"],["కను","మ"],["కా","-ఢిల్లీ-లాహో"],["है",","],["కా","పా"],["म्यानमा","र"],["కా","హార"],["కాంగ్రె","స్"],["र","क्ष"],["కాత","ా"],["కాపా","డుకు"],["కాపాడుకు","ంటూ"],["राज","नी"],["కార్యక్రమ","ాలు"],["కాల","ే"],["अध","िक"],["र्","ष"],["కాలంలో",","],["కి","లో"],["కింద","కు"],["ल","्या"],["కిలో","మీ"],["కిలోమీ","టర్"],["थ","ी"],["लग","भग"],["కిలోమీటర్","లకు"],["కు",","],["కు","డ"],["लाम","ो"],["కుల","ాలు,"],["కూడ","ి"],["द","िया"],["व","िक"],["కూడ","ు"],["కూడు","కొని"],["కూడుకు","ని"],["व","ै"],["కే","తిక"],["కొ","ంటు"],["वा","द"],["కోట్ల","కు"],["కోర్ట","ులు"],["కోల్","‌"],["वि","भिन्न"],["కోల్‌","కాతా"],["प","ार"],["క్క","న"],["క్క","ను"],["క్ర","ి"],["वि","विध"],["క్రీ",".పూ."],["ं","ड"],["క్రీడ","లలో"],["विधाय","िका"],["క్రీడ","ా"],["ఖ","ని"],["ఖ","ో"],["विश","ेष"],["ఖని","జాలు"],["ब","ी"],["గ","ంగ"],["గ","త"],["గ","మన"],["श","ा"],["గ","ెలు"],["గ","్ర"],["शताब्दी","मा,"],["గ","్రా"],["विश","्व"],["గణ","తంత్ర"],["గా","న్ని"],["గిన","ది."],["గు","బా"],["शास","क"],["य","े"],["గుబా","టు"],["గెలు","చ"],["शासन","को"],["గెలుచ","ుకో"],["గెలుచుకో","వడం"],["स","ार"],["గో","దా"],["ष्ण","कटिबन्धीय"],["గోళ","ిక"],["చ","ద"],["ड़","ा"],["చ","య"],["स","्रो"],["చ","వి"],["చ","ించిన"],["सं","रक्ष"],["చ","ూడ"],["हु","आ"],["చద","రంగ"],["చయ","ిత"],["संसद","ीय"],["చి","రు"],["చించిన","ట్లు"],["हु","ई"],["सङ्","घ"],["చూడ","ండి"],["చె","ందాయి."],["చె","ందుతున్న"],["सन्","तु"],["ज","़"],["చె","న్న"],["చె","ప్"],["समूह","हरू"],["చెన్న","ై"],["చెప్","పు"],["जा","ता"],["చెప్పు","కో"],["सह","री"],["చైన","ా,"],["చైన","ాన"],["जि","स"],["सा","झ"],["చైనాన","ు"],["చ్చ","ే"],["జ","మ్మ"],["साम्राज्य","ले"],["ट","ी"],["జ","ల"],["జ","ిక,"],["सु","धार"],["జ","ీ"],["జ","ో"],["म","ंत्र"],["జ","్"],["हि","मालय"],["జన","తా"],["జన","వరి"],["हु","न्"],["జనగణ","న"],["से","ना"],["జనా","భ"],["జనాభ","ాతో"],["జమ్మ","ూ"],["ा",","],["జరి","గే"],["हिन्द","ी"],["జరుపుకు","ంటారు."],["ार","्"],["జాత","ి"],["జాత","ులు,"],["ట","క"],["ित",","],["ो","ड़"],["ట","న్"],["ట","లు"],["ु","क"],["ట","ాన్"],["ట","్ర"],["ं","द्र"],["ట","్‌"],["ेर","ि"],["టై","టి"],["ట్ర","ో"],["मि","ल"],["ట్ల","ా"],["ట్లా","డే"],["ो","ल"],["డి","వి"],["డి","స్"],["ौ","ँ"],["డు","తున్న"],["के","ंद्र"],["ఢ","ా"],["ఢా","కా-ఢిల్లీ-లాహో"],["१","६"],["ఢిల్ల","ీ,"],["न्","य"],["ణ","ులు"],["త","ం,"],["१","८"],["త","ంగా"],["త","క్కువ"],["बढ","़"],["త","త్వ"],["१९","५"],["త","ను"],["త","ర్"],["-","पश्चिम"],["త","ీర"],["म","ी"],["తర","ాలు"],["తర్","వాత"],["-","पश्चिमी"],["తి","రు"],["राज्य","ों"],["తిరు","గుబాటు"],["ँ","छ।"],["తు","లతో"],["తూ","ర్"],["ँ","द"],["ही","ं"],["తూర్","పు"],["अ","त्य"],["తెలుగు",","],["త్","తా"],["अ","र"],["త్ర","ి"],["త్ర","ిక"],["अ","सन्तु"],["अन्","य"],["థ","్యం"],["अ","सह"],["ద","గా"],["ద","రా"],["ए","श"],["अन्","तर्"],["ద","ర్"],["దర","ణ"],["अन्तर्","ग"],["దర్","శ"],["जा","ति"],["अन्तर्ग","त"],["దాయ","ంలో"],["దు","గా"],["अफ्रिका","बाट"],["దేశ","ా"],["लि","ए"],["దేశ","ీ"],["अभि","जात"],["దేశం","."],["अभि","लेख"],["ద్ర","ా"],["व","ी"],["ధ","ీన"],["న","ం"],["న","ిక"],["सं","घ"],["अर","ब"],["న","ూ"],["अर्","को"],["నగర","ాలు"],["నా","థ"],["अर्","थ"],["నాయ","కత్వ"],["ని","డివి"],["असन्तु","ष्"],["च","ुन"],["ని","పు"],["ని","య"],["నిపు","ణులు"],["ट","े"],["నియ","మించ"],["असन्तुष्","टि"],["నిర్","మ"],["देश","ों"],["असह","योग"],["నిర్వహ","ించింది."],["ను","లు,"],["असहयोग","को"],["నె","ల"],["ब","न"],["నె","హ"],["अहि","ले"],["నే","రే"],["आ","इ"],["स","ै"],["నేపాల","్,"],["నేరే","డు"],["న్న","ీ"],["आ","कार"],["हैं",","],["ప","క్కన"],["ప","తాక"],["आइ","पुग"],["ప","ర్వ"],["इ","न"],["ప","లు"],["आइपुग","े"],["ప","ల్ల"],["कर","ने"],["ప","వి"],["आइपुगे","का"],["ప","్ల"],["आक","र्ष"],["పండు","గలు"],["ड़","ी"],["పక్ష","ం"],["आकर्ष","ित"],["పట్టణ","ాలు,"],["పర","ీ"],["आध","ार"],["పర","్యాయ"],["था","।"],["आर्","थ"],["పరి","పాలన"],["పరీ","క్ష"],["आर्थ","िक"],["పర్యాయ","ాలు"],["పవి","త్ర"],["इ","ल्या"],["పశ్చ","ి"],["इन्ड","िया"],["పశ్చ","ిమ"],["द","श"],["పశ్చి","మాన"],["इन्ड","ो"],["పా","ంతర"],["र","हा"],["పా","వ"],["इन्डो","ने"],["పాకిస్థాన్",","],["इन्डोने","सिया"],["పార్","ల"],["श","ु"],["పార్ట","ీ,"],["इल्या","न्ड"],["పార్ల","మె"],["अ","ंग्रे"],["పాలన","లో"],["इल्यान्ड",","],["పాలించ","ారు."],["अ","म"],["ई","पू"],["పీఠ","భూ"],["పీఠభూ","మ"],["ई","सा"],["పు","తూ"],["పురు","షు"],["उ","ँछ।"],["अनु","सार"],["పూ","ర్"],["उ","च्च"],["పూర్","తిగా"],["పేరు",","],["उ","द"],["పో","య"],["పోయ","ింది."],["उ","ल्"],["इस","के"],["ప్పటిక","ిన"],["ప్పటికిన","ీ"],["उ","ष्णकटिबन्धीय"],["एश","िया"],["ప్ర","త్య"],["ప్ర","దేశ"],["उद","य"],["ప్ర","యో"],["क","ई"],["उनी","हरूलाई"],["ప్ర","సి"],["ప్ర","ాయ"],["उल्","लेख"],["कार","ण"],["ప్ర","ీ"],["ప్రజ","లు"],["ప్రజా","దరణ"],["ऋ","ग"],["क्","त"],["ప్రతిపాదన","కు"],["ప్రపంచ","ములో"],["ऋग","्व"],["चुन","ाव"],["ప్రపంచంలో","ని"],["ప్రభు","త్వాన్ని"],["ప్రముఖ","మైన"],["त","ंत्र"],["ऋग्व","ेद"],["ప్రసి","ద్ధి"],["ప్రస్తు","తము"],["न","हीं"],["एसिया","को"],["ప్రాంత","ాల్లో"],["ప్రాంత","ీయ"],["एसिया","मा"],["न","ों"],["ప్రారంభ","ించ"],["एसिया","ली"],["ప్రీ","ం"],["ఫ","ల"],["प","ह"],["का","ङ्ग्रे"],["బ","ంగారు"],["బ","ు"],["का","न"],["प्रा","चीन"],["బ","ౌ"],["బంగ్లాదేశ","్‌"],["विध","ान"],["బడ","ింది."],["బౌ","ద్ధ"],["బ్రి","టీ"],["स","ू"],["బ్రిటి","షు"],["काङ्ग्रे","स"],["బ్రిటి","ష్"],["स्","थान"],["భ","క్"],["భ","వ"],["हु","ए"],["భా","గాన్ని"],["कान","ू"],["భా","విస్త"],["कार्य","कारी"],["భారత","ం,"],["हो","ता"],["భారత","్‌"],["काल","ीन"],["భారతదేశం","."],["భారత్",","],["क","ॉ"],["कृ","त"],["భారత్‌","లో"],["को","ब"],["భాష","లను"],["कर","ोड़"],["భాష","ా"],["कोब","ार"],["భూ","టాన్"],["ग","ु"],["భూ","భాగం"],["భౌ","గోళిక"],["गया","।"],["क्रम","श"],["మ","రో"],["మ","ాత"],["क्रमश","ः"],["మ","్"],["ण","ा"],["మత","ము"],["खा","हरू"],["మత","ాలు"],["ध","ी"],["మన","దేశం"],["మర","ం"],["खाडी","मा"],["पार","्"],["మల","యా"],["మలయా","ళ"],["ग","्द"],["प्र","धान"],["మహ","ాత"],["మహ","ి"],["गङ्गा","को"],["మహా","సముద్ర"],["भाषा","ओं"],["మహాత","్"],["गर","ी"],["మహాత్","మా"],["म","ो"],["गरि","यो।"],["మహి","ళ"],["మా","జిక,"],["मंत्र","ी"],["गर्","छन्।"],["మా","ట్లాడే"],["మాత్ర","మే"],["गर्","यो।"],["लो","क"],["మాన","ం:"],["మి","స్తు"],["सं","विधान"],["మీ","దగా"],["ము",","],["सम","ें"],["ము","డి"],["गर्","‍"],["ము","స్"],["गर्द","ा"],["ముఖ్య","ంగా"],["स्","थ"],["ముస్","లిం"],["మూ","ల"],["ह","र"],["మే","."],["घ","ेरि"],["మేన","ని"],["ान","े"],["घेरि","एको"],["మొ","గలు"],["మౌ","ర్య"],["िक","ार"],["య","ాత్ర"],["च","ार"],["యు","గ"],["ర","కాలు"],["च","ित"],["ర","చయిత"],["च","ौ"],["ర","ీ"],["ंग्रे","स"],["రాజ","ు"],["चाल","ुक"],["రాజ్య","ంగా"],["ए","व"],["चालुक","्य"],["రాజ్యా","ంగం"],["రాజ్యాలు","గా"],["छन्",";"],["రాష్ట్ర","ాలు,"],["किया","।"],["రూ","పాంతర"],["ज","त्त"],["రెండ","వ"],["ग","ठ"],["ज","्"],["రెండ","ో"],["రైల్వే","శాఖ"],["जत्त","िक"],["च","ल"],["ర్","చు"],["ర్","థ్యం"],["जत्तिक","ै"],["चुनाव","ों"],["ర్ష","ణ"],["जन","सङ्ख्या"],["ర్‌","ల"],["ढ","़"],["ల","స్య"],["जस","लाई"],["ల","ీ"],["दश","क"],["ల","ౌ"],["जिक","को"],["లం","క"],["बी","च"],["లు","గా"],["లు","వ"],["ज्","ञ"],["లే","దు"],["मैद","ान"],["లో",","],["లో","ను"],["य","न"],["లోక్","‌"],["ट","्"],["లోక్‌","సభ"],["य","ू"],["లౌ","క"],["ठु","ला"],["ళ","ి,"],["राष्ट्र","ीय"],["వ","ం"],["ड","ा"],["వ","ంత"],["ढ","ी"],["వ","త్రిక"],["व्यव","स्था"],["వ","నాలు"],["ढा","ँच"],["వ","రు"],["सं","बंध"],["వ","ాయు"],["त","को"],["వ","ార్"],["स्व","तंत्र"],["त","त"],["వ","ిం"],["వ","ులు,"],["त","न"],["వచ్చ","ని"],["ई","।"],["వర","ీ"],["त","ीन"],["వర్","తి"],["त","्या"],["వర్","ష"],["వల","న"],["तट","ीय"],["उ","त्"],["వల","స"],["వా","దం"],["उ","न"],["तर्","क"],["వి","దేశీ"],["వి","మాన"],["कॉ","ंग्रेस"],["ता","मा"],["వి","లువ"],["వి","శ"],["च","ी"],["ता","हरूको"],["వి","శ్"],["जन","जाति"],["వి","ష"],["ता","हरूमा"],["విద్య","ు"],["जात","ी"],["విద్యు","త్"],["ति","र"],["విష","యాలు"],["थी","।"],["तिनी","हरू"],["విస్త","ీర్"],["వు","తుంది."],["तिनी","हरूको"],["द","ा"],["వె","ల్ల"],["వెబ","్"],["निर्","माण"],["వే","."],["వే","ద"],["प","ी"],["त्त","्व"],["వే","ల"],["శ","క"],["फ","़"],["त्त्व","पूर्ण"],["శ","క్"],["శ","ీ"],["ब","र"],["శ","ై"],["थ","ार"],["ब","े"],["శ","ో"],["శా","స"],["बहु","त"],["శాస","న"],["శెలవు","దినాలు"],["था","इल्यान्ड,"],["म","त"],["స","మరం"],["थि","ल्लो"],["స","ాల"],["में",","],["స","ిక్"],["थिएँँ",","],["స","ీ"],["लो","ं"],["స","ె"],["थियो",";"],["సం","స్"],["सं","ख्या"],["द","स"],["సంకీర్","ణ"],["సంఖ్య","ా"],["सै","न्य"],["సంస్","కరణ"],["द","ू"],["సభ","ను"],["्यो","ग"],["द","ृ"],["సభ్య","ు"],["సభ్య","ులు"],["दक्षिण","बाट"],["సమా","జ"],["ंग","ा"],["సమాఖ్య","."],["दस","क"],["సముద్ర","తీర"],["क","र्"],["సరిహద్దు","గా"],["दी",","],["సహ","స్ర"],["कु","ल"],["సహస్ర","ాబ్"],["సహస్రాబ్","ది"],["गण","राज्य"],["दु","ई"],["సా","మాజిక,"],["द","र"],["సా","హ"],["दु","वै"],["సాం","కేతిక"],["पर","माण"],["సాధ","ించిన"],["दू","र"],["సామ","ర్థ్యం"],["परमाण","ु"],["సార","స్వ"],["दृ","ढ"],["पर्","व"],["సార్","వత్రిక"],["సింధ","ూ"],["दो","स्रो"],["प्रधान","मंत्री"],["సింధూ","నది"],["సిని","మాలు"],["द्र","ो"],["मुख","्य"],["సు","ప్రీం"],["సూ","చించినట్లు"],["लि","या"],["సైన","ిక"],["द्रो","ह"],["సౌకర్య","ాలలో"],["वी","ं"],["సౌకర్య","ాలు"],["ध","नी"],["స్","వీ"],["स्","त्र"],["స్త","ారు"],["ध","िक"],["స్త","ులు"],["हुआ","।"],["స్త్ర","ీలు"],["न",","],["స్థ","ావర"],["न","का"],["స్థాన","ం"],["ि","य"],["స్థాన","ాలను"],["ो","ष"],["స్థావర","ాలు"],["స్థి","తి"],["न","जिकको"],["ं","ति"],["స్వాతంత్ర","్యం"],["न","वी"],["హా","కీ"],["ओ","र"],["హై","దరా"],["नवी","करण"],["क्षेत्र","ीय"],["ా","మ"],["ాత","ం"],["ग","ति"],["ాత","ి"],["नि","कोबार"],["ज","ै"],["ాన","ీ"],["ాయు","త"],["जि","समें"],["नि","ने"],["ార","ి"],["धी","रे"],["ార్","థ"],["नि","न्"],["ాల","ే"],["न्","तु"],["नि","य"],["ి","గా"],["ిం","ది"],["प","े"],["ించ","ుకో"],["ిక","లు"],["पर","ं"],["निय","न्त्र"],["ిక","్‌"],["पह","ले"],["नियन्त्र","ण"],["ౌ","ర"],["్ర","ాన్"],["प्रा","प्त"],["\"","గ"],["निर्","या"],["\"","నేరేడు"],["\"","భారతదేశం"],["भा","ज"],["\"గ","ిన్న"],["\"గిన్న","ె"],["निर्","वा"],["\"నేరేడు","\""],["यु","क्त"],["\"భర","త"],["\"భర","తు"],["निर्या","त"],["\"భరత","వర్ష"],["\"భరతవర్ష","ం"],["यु","द्ध"],["\"భరతవర్షం","\","],["\"భరతు","డు"],["\"భరతుడు","\"."],["रक्ष","ा"],["\"భారతదేశం","\""],["(","17"],["न्","छन्।"],["(","3."],["र्","व"],["(","5."],["(","8."],["(","cee"],["लि","ये"],["(","p"],["न्","त"],["(","ఆ"],["(","ఇదే"],["व","े"],["(","ఉ"],["(","గి"],["(","ట"],["वर्ष","ों"],["(","తా"],["न्द","र्"],["(","బ్ర"],["(","భారత"],["(","య"],["विक","ास"],["(","ర"],["(","శక"],["न्द","ि"],["(","సా"],["श","क्ति"],["(0.","36%"],["(0.","9%"],["(0.36%","),"],["स","क"],["(0.9%",")"],["(17","."],["(17.","2"],["न्दर्","भ"],["स","भा"],["(17.2","3%"],["(17.23%",")."],["(3.","7"],["समा","ज"],["(3.7","2%"],["(3.72%","),"],["(5.","3"],["हा","ला"],["(5.3","0%"],["(5.30%","),"],["(8.","70%"],["१९","९"],["(8.70%","),"],["न्दि","र"],["(p","in"],["(pin",")"],["२","००"],["(pin)",":"],["(ఆ","ంగ్ల"],["(ఆంగ్ల","ే"],["न्या","य"],["(ఆంగ్లే","య"],["अप","ने"],["(ఆంగ్లేయ","ులు"],["(ఆంగ్లేయులు",")"],["न्याय","पाल"],["(ఇదే",","],["(ఉ","దా"],["इ","ंड"],["(ఉదా",":"],["न्यायपाल","िका"],["(గి","ల్ల"],["(గిల్ల","ీ"],["(గిల్లీ","-"],["ए","ँ"],["(గిల్లీ-","ద"],["न्याया","लय"],["(గిల్లీ-ద","ండా"],["(గిల్లీ-దండా",")"],["(ట","ండ"],["प","द"],["(టండ","్రా"],["(టండ్రా",")"],["एव","ं"],["(తా","మర"],["प","ि"],["(తామర",")"],["(బ్ర","ె"],["(బ్రె","డ్"],["कु","छ"],["(బ్రెడ్",","],["प","ेश"],["(య","ూ"],["(యూ","ద"],["को","ं"],["(యూద","ులు,"],["पछि","ल्लो"],["(ర","ాయ"],["(రాయ","ల్"],["ज","ान"],["(సా","క"],["पश्चिम","मा"],["(సాక","ర్‌"],["जन","संख्या"],["(సాకర్‌",")"],[",","000"],["-","19"],["पा","ँच"],["-","5"],["-","7"],["टि","श"],["-","ఆ"],["पुरा","नो"],["-","ఇ"],["ड़","े"],["-","ఖో"],["-","టె"],["पे","ली"],["-","దేశ"],["ती","स"],["-19","-5"],["-19-5","6"],["-19-56","23"],["प्र","भा"],["-19-5623","59-"],["-19-562359-","2"],["थ","े"],["-ఆ","ర్య"],["प्रशासन","िक"],["-ఆర్య","న్"],["-ఆర్యన్",","],["-ఇ","స్త"],["द","ल"],["-ఇస్త","ా"],["-ఇస్తా","ంబ"],["प्रारम्भ","मा,"],["-ఇస్తాంబ","ు"],["दे","ख"],["-ఇస్తాంబు","ల్"],["-ఖో",","],["फ","त"],["दो","नों"],["-టె","హ"],["-టెహ","్రాన్"],["-టెహ్రాన్","-ఇస్తాంబుల్"],["नि","भा"],["-దేశ","ాలు."],["फ","ि"],[".","ఇ"],[".","ఈ"],[".","ఏ"],["फल","स्व"],[".","కి"],["न्","ह"],[".","మీ"],["...",")."],["फलस्व","रूप"],["न्ह","ें"],[".ఇ",","],[".ఏ",".ఇ,"],[".కి",".మీ"],["प","रा"],["/","g"],["0","-19-562359-2"],["ब","रु"],["00","0,000"],["प","ै"],["01,","9"],["01,9","3,"],["ब","ौ"],["01,93,","42"],["01,93,42","2."],["प्","ले"],["04%",","],["1","000"],["बङ्ग","ला"],["1","25"],["ब","ो"],["1","42"],["1","లోను"],["1,","01,93,422."],["बंध","न"],["1-","5"],["बङ्गला","देश"],["1-","7"],["1-","8"],["ब्रि","टिश"],["1-","900"],["बढ्द","ै"],["1-7","40"],["भू","म"],["1-740","59-"],["1-74059-","42"],["1-74059-42","1-5"],["भूम","िका"],["1-8","-7"],["1-900","46"],["1-90046","1-8-7"],["बढ्द","ो"],["लो","ग"],["10","10"],["10,","000,000"],["100",",000"],["व","्या"],["12","1,01,93,422."],["125","0"],["14%",","],["वा","यु"],["15","న"],["16","5"],["बन्","यो।"],["16",";"],["स",","],["165","2"],["17",";"],["स","्य"],["185","3"],["185","7"],["1857","లో"],["सं","ग"],["194","8"],["1948","లో"],["बर","को"],["195","6"],["सद","स्य"],["1962","లో"],["197","1లోను"],["1974","లో,"],["सा","ल"],["1977","లో"],["बा","ढी"],["199","6"],["1991","లో"],["स्थ","ित"],["1998","లో"],["2","30"],["बौ","द्ध"],["2,","14%,"],["2,","8"],["स्वतंत्र","ता"],["2,8","7,"],["भ","क्ति"],["2,87,","26"],["2,87,26","3"],["ह","री"],["200","3"],["भ","जन"],["200","3–"],["200","5-0"],["2003–","2004"],["हा","ँ"],["2005-0","5-0"],["2005-05-0","7"],["भ","निने"],["202","3"],["ाल","ी"],["25","%"],["3","2,87,263"],["िक","ी"],["3,","04%,"],["भ","रि"],["3.8","0%"],["46",")"],["िक","्"],["5","46)"],["भ","ित"],["5,","7"],["5,7","%."],["ँ","कि"],["6","2"],["भ","ु"],["7","5,7%."],["7/","16;"],["7/","17;"],["अ","प्र"],["8","1-900461-8-7"],["8","2,14%,"],["अ","लग"],["8","3,04%,"],["8","3.80%"],["भ","्य"],["b","/g"],["bbc","'s"],["अप","नी"],["c",","],["भए",","],["ch","ine"],["अम","ेर"],["cia","'s"],["eth","nolog"],["ethnolog","u"],["भए","।"],["आध","िकार"],["ethnologu","e"],["h","z"],["आधिकार","िक"],["ma","chine"],["p","al"],["इ","सी"],["profile",":"],["re","port"],["भने","र"],["ty","pe"],["कर","ना"],["v",";"],["way","back"],["का","म"],["ం","జ"],["भा","जन"],["ం","తి,"],["ం","థ"],["ग","ंगा"],["ం.","..."],["भाग","लाई"],["ంక","ణి"],["ంక","ెలు"],["गठ","बंधन"],["ంకణి",";"],["भारत","का"],["ంకా","గా"],["घ","ोष"],["ంకెలు","."],["ంగ","ల"],["भित","्र"],["ంగా","న"],["ज","ल"],["ంగా","ళ"],["ంగాన","ికి"],["ज़","ी"],["ంగాళ","ా"],["ంగాళా","ఖ"],["म","न्दिर"],["ంగాళాఖ","ాతం"],["जात","े"],["ంచ","ే"],["ంజ","ూరు"],["जि","न"],["ంట","రీ"],["म","रु"],["ంట","ార్"],["ంట","ైన"],["ड","ी"],["ంటార్","క్"],["मन","स"],["ంటార్క్","‌"],["ड","ॉ"],["ంటార్క్‌","టిక"],["ంటార్క్‌టిక","ా"],["मनस","ुन"],["ంటార్క్‌టికా","లో"],["त","मिल"],["ంటి","పేర్లు"],["ంటైన","ె"],["था",","],["ంటైనె","ర్"],["ంటో",","],["मरु","भूमि"],["ంటో","ంది."],["थि","य"],["ండ","మ"],["ండ","యాత్ర"],["थिय","ार"],["ండ","ర్"],["मह","त्त्वपूर्ण"],["ండ","్య"],["ండ","్ల"],["द","र्"],["ండమ","స్,"],["महा","सागर"],["ండయాత్ర","లతో,"],["ండి",","],["न","व"],["ండి","చ్చే"],["मा","थिल्लो"],["ండిచ్చే","రి"],["प","ं"],["ండిచ్చేరి",","],["ండు","ట"],["ండుట","చే"],["मा","न्छन्।"],["प","ड़"],["ండ్","లు"],["ండ్య","ులు"],["परं","परा"],["ండ్ల","ను"],["मा","र्"],["ంత","టా"],["ంత","ల"],["ంత","ు"],["पार्","टी"],["मानव","हरू"],["ంత","ై"],["ంతు","వు"],["ంతువు",":"],["प्र","कार"],["ంథ","ాలు"],["ంద","ని"],["प्ले","ट"],["मार्","फत"],["ంద","రూ"],["ంద","రో"],["ంది","ంచిన"],["ब","ड़ा"],["ంది","రా"],["मु","स्"],["ందు","గా"],["ందు","లో"],["ందు","వల్ల"],["ब","नी"],["मुस्","लि"],["ంద్ర","నాథ"],["ంద్రనాథ","్"],["ంబ","ి"],["मुस्लि","म"],["ంబ","ే"],["ంబి","ళ్ళ"],["ब","ने"],["ంబే","),"],["ంలో",")"],["भाज","पा"],["ంలో","ని"],["मैद","ानमा"],["అ","ంకెలు."],["అ","ంటారు."],["यु","ग"],["అ","ంటార్క్‌టికాలో"],["అ","ంటే"],["मौ","र्"],["అ","ందరూ"],["అ","ందించిన"],["ल","ं"],["అ","క్ష"],["मौर्","य"],["అ","ఖండ"],["అ","ది"],["व","ल"],["అ","ద్ద"],["य","ी"],["అ","ధి"],["అ","ధీన"],["वर्","त"],["అ","న్న"],["అ","మల"],["वि","देश"],["అ","ర"],["यस","ले"],["అ","రు"],["అ","రే"],["श","ी"],["అ","ల"],["అ","లం"],["स","ित"],["అ","ల్"],["అ","వర"],["అ","శో"],["सं","युक्त"],["అ","స్"],["అక్ష","ర"],["से","वा"],["అక్షర","బ"],["అక్షరబ","ద్ధం"],["అణ","ు"],["स्त","र"],["అణ","్వ"],["అణ్వ","స్త్ర"],["ह","थियार"],["అతి","ముఖ్యమైన"],["यो",","],["అతి","వేగంగా"],["అతి","శీ"],["हाला","ँकि"],["అతిశీ","తల"],["रहे","का"],["అత్యధిక","ంగా"],["ृ","त"],["అద్ద","ం"],["అధి","గ"],["२","०"],["అధికార","ంలో"],["అధికార","క"],["అధికార","ా"],["ं","ट"],["అధికార","ాలు"],["रहे","को"],["అధికార","ి"],["ंध","ी"],["అధికారా","న్ని"],["అధికారిక","ంగా"],["अंग्रे","जी"],["राख","्न"],["అధిగ","మించ"],["అధిగమించ","ి"],["आ","ं"],["అధీన","ంలో"],["అని",","],["राज","ा"],["అను","నది"],["అను","మతి"],["आ","ग"],["అను","వ"],["అను","సరి"],["उ","स"],["అనుమతి","ని"],["राजनी","तिक"],["అనువ","ైన"],["అనువైన","ది."],["అనుసరి","స్త"],["ऊ","ँच"],["राज्य","हरू"],["అనుసరిస్త","ూ"],["అనుసరిస్తూ",","],["ए","ं"],["అన్న","ం,"],["राष्ट्र","िय"],["అన్ని","టిక"],["क","ह"],["అన్నిటిక","ంటే"],["అప్ప","టి"],["कर्","ज"],["అప్ప","ి"],["रो","क्"],["అప్పి","లే"],["कि","न्तु"],["అప్పిలే","ట్"],["అభి","ప్రాయ"],["र्","जना"],["అభిప్రాయ","ప"],["की","।"],["అభిప్రాయప","డుతున్న"],["అభిప్రాయపడుతున్న","ారు."],["ग","ए"],["लाग","ु"],["అభివృ","ద్ధ"],["అభివృద్ధ","ి,"],["ग","्र"],["అమల","వుతుంది."],["అమెరిక","ా"],["गा","ंधी"],["అమెరిక","ా,"],["ली","को"],["అయ","ింది."],["जन","ता"],["అయ","ిత"],["అయిత","ే,"],["जिस","के"],["అయిన","ప్పటికినీ"],["అయిన","ప్పటికీ,"],["ल्","ला"],["जी","व"],["అర","విం"],["అరవిం","ద్"],["అరు","దుగా"],["डॉ","ल"],["అరే","బి"],["అరేబి","యా"],["डॉल","र"],["व","टा"],["అల","ీన"],["అలం","కార"],["ण","ी"],["అలీన","ో"],["అలీనో","ద్య"],["व","र"],["त","ो"],["అలీనోద్య","మ"],["అలీనోద్యమ","ంలో"],["नि","र"],["అల్","ప"],["అవ","తర"],["అవ","సర"],["प","हा"],["व","ैद"],["అవతర","ించింది."],["అవర","ో"],["అవరో","ధ"],["पर्व","त"],["అవరోధ","ాల"],["అవసర","మై"],["वर्ष","को"],["ब","ड़ी"],["అవసరమై","తే"],["అవి",","],["ब","ड़े"],["అవి","నీ"],["वा","त"],["అవినీ","తి,"],["ब","ार"],["అశో","కు"],["అశోకు","డు"],["ब","ि"],["అస్","సా"],["అస్సా","మీ"],["वा","लाई"],["बहु","मत"],["అస్సామీ",";"],["అహ","మ్మ"],["भ","र"],["అహ","ిం"],["అహ","్మ"],["అహమ్మ","ద"],["र्व","ो"],["అహమ్మద","ాబ"],["అహమ్మదాబ","ా"],["वाद","को"],["ला","वा"],["అహమ్మదాబా","దు"],["అహిం","స"],["व","ंश"],["అహింస","ాయుత"],["అహ్మ","ద"],["वर्","ण"],["అహ్మద","ీయ"],["वि","द्रोह"],["అహ్మదీయ","ులు,"],["ఆ","క్ర"],["विदेश","ी"],["ఆ","క్షరాస్యత"],["वि","भाजन"],["ఆ","గ"],["ఆ","గ్"],["विस्त","ृत"],["ఆ","చార"],["विक","सित"],["ఆ","టలు"],["ఆ","డుతున్న"],["श","न"],["ఆ","ణి"],["विश्व","युद्ध"],["ఆ","తి"],["ఆ","దాయ"],["श","ि"],["ఆ","దేశ"],["ఆ","ధ్య"],["शा","ंति"],["वैद","िक"],["ఆ","నం"],["ఆ","నా"],["ఆ","యా"],["शी","ल"],["ఆ","లస్య"],["ఆ","లో"],["व्यव","स्थाप"],["शु","रू"],["ఆ","వల"],["ఆ","వి"],["स","त"],["ఆక్ర","మిస్తు"],["श","ै"],["ఆక్రమ","ణ"],["ఆక్రమ","ించ"],["ఆక్రమ","ించిన"],["स","ो"],["ఆక్రమణ","దారులు,"],["ఆక్రమించ","ుకు"],["संस्कृ","त"],["ఆక్రమించుకు","న్నారు."],["ఆక్రమిస్తు","న్నాయి."],["सम","र्"],["ఆగ","ష్ట"],["शै","लीको"],["ఆగష్ట","ు"],["सह","योग"],["ఆగ్","నే"],["ఆగ్నే","య"],["सा","मा"],["ఆచార","ాలు,"],["ఆడుతున్న","వార్"],["स","न्दर्भ"],["ఆడుతున్నవార్","లలో"],["ह","ार"],["ఆణి","ము"],["ఆణిము","త్య"],["हो","ती"],["ఆణిముత్య","ం."],["ఆదాయ","ం"],["ृ","द्ध"],["सङ्","क"],["ఆదేశ","ాలు,"],["ఆధ","ీన"],["१९","७"],["ఆధ","ు"],["ఆధార","ాలు."],["सङ्ख्या","मा"],["१९","८"],["ఆధార","ిత"],["ఆధీన","ములో"],["ं","क"],["ఆధు","నిక"],["सङ्घ","ीय"],["ఆధ్య","ాత"],["ं","ह"],["ఆధ్యాత","్మ"],["ఆధ్యాత్మ","ికత"],["ं","।"],["सम","े"],["ఆనం","ద్"],["ఆనా","ది"],["ఆఫ్ఘ","ా"],["अ","ब"],["ఆఫ్ఘనిస్తాన్","‌"],["समय","मा"],["अ","भी"],["ఆఫ్ఘనిస్తాన్‌","కు"],["ఆఫ్ఘా","నిస్తాన్"],["अंग्रे","ज़ी"],["ఆర్థిక",","],["समा","न"],["ఆలస్య","ం"],["ఆలో","చన"],["अधिक","ार"],["ఆవి","ర్"],["सम्म",","],["ఆవిర్","భవ"],["अप्र","ै"],["ఆవిర్భవ","ించింది."],["ఆసియా","లో"],["अप्रै","ल"],["ఆహార","ం"],["सह","र"],["ఆహార","ం."],["अफ","्री"],["ఆహార","్యం"],["अफ्री","का"],["ఇ","-"],["सा","ना"],["ఇ","ంకా"],["अम","री"],["ఇ","ంటిపేర్లు"],["ఇ","ందిరా"],["अर्थ","व्यवस्था"],["सागर","मा"],["ఇ","ందులో"],["ఇ","చ్చే"],["आ","दि"],["ఇ","తను"],["ఇ","తరు"],["आ","न्द"],["ఇ","తి"],["ఇ","ను"],["आ","या"],["ఇ","న్"],["साझ","ेद"],["ఇ","ప్పటిక"],["आन्द","ोल"],["ఇ","ము"],["ఇ","య"],["इस","की"],["ఇంగ్ల","ండు"],["ఇండియా",","],["उत्","पा"],["साझेद","ारी"],["ఇండియా","లో"],["ఇండో","-ఆర్యన్,"],["उत्पा","द"],["ఇండో","నే"],["साम्राज्य","को"],["ఇండోనే","సియా"],["उद","्योग"],["ఇక్క","డ"],["ఇక్క","డి"],["ऋ","तु"],["ఇటీ","వ"],["सि","र्जना"],["ఇటీ","వల"],["क","म"],["ఇటీవ","లి"],["कर","ता"],["ఇతరదేశాల","కు"],["ఇతరదేశాల","ను"],["के","वल"],["ఇతరు","లు"],["सी","मा"],["ఇతి","హా"],["ఇతిహా","సాల"],["च","ा"],["ఇతిహాసాల","పై"],["सुरु","वात"],["ఇను","ము,"],["ज","रा"],["ఇన్","‌"],["ఇన్‌","ఫ"],["ज","लो"],["ఇన్‌ఫ","ర్"],["ఇన్‌ఫర్","మే"],["ज","ू"],["स्व","तन्त्र"],["ఇన్‌ఫర్మే","ష"],["ఇన్‌ఫర్మేష","న్"],["जब","कि"],["ఇప్పటిక","ీ"],["ह","ल्ला"],["ఇము","డ"],["जल","वायु"],["ఇముడ","్చ"],["ఇముడ్చ","ుకు"],["जलो","ढ़"],["ఇముడ్చుకు","ంది."],["जान","ा"],["ఇయ","ర్"],["ह","ुन"],["ఇవ","న్నీ"],["थ","न"],["ఇవ","్వ"],["ఇవిక","ా"],["द","ान"],["ఇవిక","ూడ"],["ఇవికా","క"],["द","्योग"],["हा","वालाई"],["ఇవికూడ","ా"],["ఇవ్వ","బడిన"],["दिया","।"],["ఇస్లామాబాద్","-టెహ్రాన్-ఇస్తాంబుల్"],["हु","न्छ।"],["ఇస్లామాబాద్",":"],["दृ","ष्"],["ఉ","ండి,"],["दृष्","टि"],["ఉ","ండుటచే"],["ఉ","ద్"],["हुन","े"],["प","ास"],["ఉ","నిక"],["ఉ","పా"],["प","ीय"],["ఉ","ర్"],["ार्","थ"],["ఉ","ష్ణ"],["पड़","ो"],["ఉంట","ాయి"],["ఉంట","ూ"],["पड़ो","सी"],["ुन","ा"],["ఉండ","గా,"],["ఉండ","ట"],["प्रति","श"],["ఉండ","టం"],["प्रतिश","त"],["ఉండట","ం,"],["्यो",","],["ఉత్","కృ"],["प्रभा","व"],["ఉత్","త"],["ఉత్","సాహ"],["फ","ै"],["ఉత్కృ","ష్ట"],["ఉత్కృష్ట","మైన"],["बन","ाने"],["ఉత్కృష్టమైన",","],["्यो","।"],["ఉత్త","రా"],["भ","रा"],["ఉత్తర",","],["ఉత్తరా","దిన"],["म",","],["ఉత్సాహ","ంగా,"],["१९५","१"],["ఉద్","భవ"],["मा","ना"],["ఉద్భవ","ించిన"],["ఉద్భవించిన","వే."],["मि","ला"],["२","५"],["ఉనిక","ికి"],["ఉన్న","ట్లు"],["यू","रो"],["ఉన్న","తంగా"],["३","०"],["ఉన్న","ాయి"],["ఉన్న","ారు"],["यूरो","पीय"],["ఉప","యు"],["र्वो","च्च"],["ఉప","రాష్ట్ర"],["ఉపఖండ","ం"],["ला","ख"],["ఉపఖండ","పు"],["ఉపఖండ","ములో"],["४","७"],["ఉపయు","క్"],["ली",","],["ఉపయుక్","త"],["ఉపయోగి","స్తారు"],["व","री"],["५",",०००"],["ఉపయోగి","స్తు"],["ఉపయోగిస్తు","ంది."],["वर्त","मान"],["ఉపరాష్ట్ర","పత"],["ఉపరాష్ట్రపత","ులు"],["वा","दी"],["ఉపా","ధి"],["५","५,०००"],["ఉర్","ద"],["वि","वाद"],["ఉర్ద","ూ"],["व्या","पार"],["ఉర్దూ",";"],["ఋ","తు"],["श","ेष"],["ఋతు","ప"],["ఋతుప","వనాలు"],["श","्री"],["ఎ","ంతో"],["ఎ","గు"],["ष","ा"],["ఎ","గువ"],["\"","इन्डिया"],["ఎ","దు"],["ष्","ठ"],["ఎ","మ"],["ఎ","ల్ల"],["स","फल"],["\"","नदी"],["ఎక్కువ","ై"],["स","र्वोच्च"],["ఎక్కువై","పో"],["ఎక్కువైపో","తున్న"],["\"","सिन्धु"],["समर्","थन"],["ఎక్కువైపోతున్న","ప్పటికీ,"],["ఎగు","మతి"],["\"इन्डिया","\""],["सा","ं"],["ఎడ","మ"],["ఎడ","ారి"],["स्थाप","ना"],["ఎదు","ర్"],["ఎదుర్","కొంటు"],["स्व","रूप"],["ఎదుర్కొంటు","న్నది."],["\"नदी",","],["ఎన్న","ు"],["ह","न"],["ఎన్నిక","లలో"],["\"नदी,","\""],["ह","रा"],["ఎన్ను","కొన"],["\"सिन्धु","का"],["ఎన్నుకు","ంటారు."],["हिन्द","ू"],["ఎన్నుకు","ంటుంది."],["$","१"],["ఎన్నుకొన","బడిన"],["हो","ते"],["ఎమ","ర్"],["$","६"],["ఎమర్","జ"],["$१",","],["ఎమర్జ","ె"],["१९","६"],["ఎమర్జె","న్"],["$१,","४"],["२","."],["ఎమర్జెన్","సీ"],["$१,४","९"],["ఎల్ల","లుగా"],["197","1"],["ఏ","క"],["$१,४९","८"],["ఏ","కత్వ"],["ं","दि"],["ఏ","టా"],["$६","४"],["ंत्र","िक"],["ఏ","డ"],["(","जनता"],["ఏ","డు"],["अ","लावा"],["ఏ","ళ్ళ"],["(जनता","को"],["अप","ना"],["ఏక","ై"],["ఏకత్వ","ంగల"],["(ἰνδ","ο"],["अभि","या"],["ఏకై","క"],["अमेर","िका"],["(ἰνδο","ί"],["ఏడ","వ"],["ఏడవ","స్థానంలో"],["आ","त"],["(ἰνδοί",")"],["ఏర్","పర"],["आ","व"],["ఏర్","పాటు"],["(ἰνδός",");"],["ఏర్ప","డ"],["इंड","िया"],["-","गङ्गा"],["ఏర్ప","డిన"],["ఏర్ప","డే"],["उस","के"],["-","मूल"],["ఏర్పడ","ింది."],["ए","न"],["ఏర్పర","చ"],["-","शासनको"],["ఏర్పరచ","ింది."],["कह","ते"],["-","शैलीको"],["ఏళ్ళ","పాటు"],["कि","ये"],["ఐ","దు"],["-","सङ्क"],["ఐక్య","రాజ్య"],["किया",","],["ఐక్యరాజ్య","స"],["-","स्तर"],["कृ","ष"],["ఐక్యరాజ్యస","మి"],["-पश्चिम","बाट"],["ఐక్యరాజ్యసమి","తి"],["को","ई"],["ఒ","క్"],["-सङ्क","ल"],["क्ष","र"],["ఒ","డిస్"],["ఒ","రి"],["ग","ई"],["ఒ","లిం"],["ग","ई।"],["-सङ्कल","न"],["ఒక","ట"],["ఒకట","ో"],["ग","त"],["-सङ्कलन","कर्"],["ఒకటి","గా,"],["गु","प्त"],["ఒకే","ఒక"],["ఒకే","మా"],["घ","ा"],["-सङ्कलनकर्","ताहरूको"],["ఒకేమా","ది"],["घोष","णा"],["ఒకేమాది","రి"],["-स्तर","ीय"],["ఒకేమాదిరి","గా"],["च","ना"],["ఒక్","కొ"],["च","ला"],["ఒక్కొ","క్క"],["ఒక్కొక్క","టే"],["च","ु"],["ఒడిస్","స"],[".","४"],["ఒడిస్స","ీ,"],["ची","फ"],["ఒరి","యా"],[".","६"],["ఒరియా",";"],["छ","ो"],[".६","%"],["ఒలంప","ిక్"],["छ","ोड़"],["ఒలంప","ిక్‌"],["h",","],["ఒలిం","ప"],["छो","टे"],["ఒలింప","ిక్‌"],["h","indus"],["ఓ","టర్"],["ज","हाँ"],["ఓ","డ"],["जन","वरी"],["ఓటర్","ల"],["hindus","h,"],["ఓటర్ల","పై"],["जिस","का"],["ఓడ","ించి,"],["hu",","],["जी","त"],["ఔ","ట్‌"],["ind","o"],["ఔట్‌","స"],["जू","न"],["ఔట్‌స","ొ"],["ind","os"],["जै","से"],["ఔట్‌సొ","ర్"],["ఔట్‌సొర్","సిం"],["indo","i"],["ट","न"],["ఔట్‌సొర్సిం","గ్"],["ण",","],["sind","hu,"],["క","ంటైనెర్"],["క","ట్ట"],["त","ग"],["ँ","स"],["క","త్తా"],["క","ని"],["त","ना"],["ँद","ा,"],["క","మల"],["त","म"],["ँद","ै"],["క","మీ"],["క","మేన"],["तन","त"],["ँस","रा"],["క","మైన"],["तर","ह"],["క","రా"],["ँसरा","इ"],["క","ర్"],["थे","।"],["ँसराइ","को"],["క","వరీ"],["दि","ल्"],["క","ష్ట"],["ं","सा"],["క","ానీ"],["క","ాయ"],["ंश","मा"],["दिया","ँ"],["క","ార్"],["दे","खा"],["క","ిం"],["క","ిత"],["दे","व"],["ंसा","त्मक"],["క","ెట్"],["द्योग","िकी"],["క","్యం"],["अ","क"],["కంపెనీ","పై"],["धान","ी"],["కట్ట","డ"],["ध्य","म"],["కట్టడ","ాలు,"],["కత్తా","),"],["न","दियाँ"],["కథ","కళ"],["अ","क्"],["కథ","క్"],["अ","क्ष"],["కథ","న"],["न","ै"],["కథకళ","ి"],["अ","खा"],["नि","व"],["కథక్",","],["కథన","ాలతో"],["अ","ङ्ग्रे"],["निभा","ई"],["కని","ప"],["अ","झ"],["కనిప","ించింది."],["निर","पे"],["కనుమ","లు"],["अ","नि"],["निरपे","क्ष"],["కనుమ","లు,"],["కన్నడ",","],["अ","भ्य"],["ने","मा"],["కన్నడ",";"],["नै","तिक"],["కన్నడ","ం,"],["కబడ్డ","ీ"],["अ","रू"],["प","री"],["కబడ్డ","ీ,"],["प","हु"],["కబడ్డీ","లో"],["కమల","ము"],["पं","जा"],["अ","श"],["కమీ","జ్"],["కమేన","న"],["अक","बरको"],["पर्","य"],["కమేనన","ీ,"],["अक्","ट"],["కర","ంతై"],["కర","మేనని"],["पहु","ँच"],["కర","ించింది."],["पार्","टि"],["కరణ","లో"],["अक्ट","ो"],["కరా","చ"],["पु","र्"],["अक्टो","बरको"],["కరాచ","ీ,"],["पुर्","तग"],["కర్","ణా"],["अक्ष","ा"],["కర్ణా","టక"],["प्र","चल"],["కల","కత్తా),"],["अक्षा","ंशमा"],["प्र","त्य"],["కల","గలు"],["अखा","म"],["కల","దు"],["प्र","ौ"],["కలగలు","పు"],["अखाम","नी"],["प्रौ","द्योगिकी"],["కలి","గ"],["కలి","గిన"],["अङ्ग्रे","जी"],["फ","्रा"],["కలిగ","ి,"],["ब","ंग"],["अझ","ै"],["కలిసి","వ"],["కలిసివ","స్తు"],["ब","दल"],["अत्य","धिक"],["కలిసివస్తు","ందని"],["కలు","గు"],["बढ़","कर"],["अत्य","न्त"],["కలు","పుతూ"],["बा","हरी"],["अधीन","मा"],["కలుగు","త"],["కలుగుత","ాయి."],["भाषा","एँ"],["अनि","श्"],["కల్","గి"],["కల్","ప"],["भी","ल"],["अनिश्","चित"],["కల్","పం"],["अनु","करण"],["म","े"],["కల్","పుతూ"],["కల్","పే"],["मा","ध्यम"],["కల్ప","ించే"],["मा","ल"],["కళ","లు,"],["अनु","वाद"],["కళ","లు."],["मान","सू"],["अनु","ष्ठ"],["కష్ట","ంకాగా"],["కా","కు"],["मानसू","न"],["अनुष्ठ","ान"],["కా","గా"],["मि","लि"],["కా","గా,"],["కా","వడం"],["मिलि","यन"],["కాంగ్రె","సే"],["मूल","्य"],["కాంగ్రెసు","ను"],["अनुष्ठान","को"],["కాంగ్రెసే","తర"],["य","त"],["కాకు","ండా"],["या","ं"],["కాపాడుకుంటూ","నే"],["अन्","तत"],["కాయ","\","],["కార","ం,"],["र","-"],["अन्","ति"],["కార","ిగా"],["र","ह"],["కారణంగా",","],["अन्तत","ः"],["కార్","ప"],["अन्ति","म"],["కార్ప","స్,"],["र","ही"],["కార్య","నిర్"],["अप्र","त्य"],["కార్యక్రమ","ాలలో"],["र","िक"],["కార్యనిర్","వాహ"],["अप्रत्य","क्ष"],["కార్యనిర్వాహ","క"],["राज","धानी"],["కాల","ం"],["राज","नैतिक"],["కాల","తో"],["अभिलेख",","],["కాల","పరి"],["लोग","ों"],["కాల","ాల్లో"],["अभ्य","ास"],["ल्","तनत"],["కాలపరి","మ"],["अभ्यास","हरू"],["కాలపరిమ","ిత"],["वि","यत"],["కాలపరిమిత","ికి"],["अरू","ले"],["కాలే","జి"],["शु","रु"],["కాలే","జీ"],["अर्","ब"],["स","ल्तनत"],["కాశ్మీ","ర"],["अर्थ","तन्त्र"],["కాశ్మీ","రు"],["संग","ी"],["కాశ్మీ","ర్"],["अलग","ाव"],["संगी","त"],["కాశ్మీర","ీ;"],["కి","మీ"],["अलगाव","का"],["संघ","र्ष"],["కిం","గ్"],["संघ","ीय"],["अव","शेष"],["కింగ్","డ"],["కింగ్డ","మ్"],["अवधि","मा"],["కింద","ట"],["समा","प्त"],["కిత","ాబ"],["अवधि","लाई"],["सरकार","ें"],["కితాబ","ు"],["अश","ो"],["కితాబు","ని"],["కితాబుని","స్తు"],["सामा","जिक"],["కితాబునిస్తు","న్నారు."],["सि","ंह"],["కు","ంతల"],["अशो","क"],["కు","డి"],["अशोक","को"],["सि","नेमा"],["కు","ది"],["కు","మారు"],["स्","थि"],["కు","మార్"],["हि","स्"],["కు","ర్"],["కు","లం"],["हुई","।"],["अहि","ंसात्मक"],["కు","లను"],["ि","म"],["కుటుంబ","ాలకు"],["आ","एका"],["కుటుంబ","ాలు"],["िया","ँ"],["కుడ","ైన"],["आ","एको"],["ृ","त्य"],["కుడ","్య"],["आ","ज"],["కుడ్య","చిత్ర"],["కుడ్యచిత్ర","ాలు"],["आ","नु"],["ौ","र"],["కుది","ర్"],["आ","पूर्"],["కుదిర్","చ"],["्या","दा"],["కుదిర్చ","ిన"],["आ","य"],["కుమారు","డు"],["కుమారుడు","."],["आ","ह"],["१","४"],["కుమార్","తె"],["आक","्रा"],["కుర్","తా"],["१","५"],["కులను","ండి"],["आकार","का"],["२","४"],["కులాలు,","భాష"],["కులాలు,భాష","లు,"],["ंदि","रा"],["आकार","ले"],["కూ","చి"],["ंध","ु"],["आक्रा","मक"],["కూచి","ప"],["अ","ग"],["కూచిప","ూడ"],["आग","मन"],["కూచిపూడ","ి,"],["కూడిన","ది."],["अ","ने"],["आदि","व"],["కూడుకు","న్నది."],["अ","ल्"],["आदिव","ास"],["కూడుకొని","న"],["अध","ि"],["కూడుకొనిన","ప్పటికినీ"],["आदिवास","ी"],["अने","क"],["కృ","త"],["अन्","त"],["కృ","ష్"],["आधार","मा"],["కృ","ష్ణ"],["अन्","तर"],["आधार","ित"],["కృత","మై"],["కృష్","ణా"],["अमरी","की"],["आनु","वंश"],["కృష్ణ",","],["आ","प"],["కేంద్ర","ాల్లో"],["आनुवंश","िक"],["आन्दोल","न"],["కేంద్ర","ీ"],["इ","ंदिरा"],["आन्दोल","नको"],["కేంద్రీ","కృతమై"],["इ","समें"],["కొ","ంకణి;"],["आपूर्","ति"],["కొ","త్"],["इ","से"],["కొ","ద్"],["आफ","ु"],["इ","स्"],["కొ","న్న"],["इस","का"],["కొ","న్నాయి."],["इस्","लाम"],["కొ","ల"],["కొంటు","న్నారు."],["ई",","],["కొత్","త"],["उ","न्हें"],["కొద్","ది"],["उ","ष्ण"],["आफु","लाई"],["కొద్ది","భాగం"],["उ","से"],["కొన","వచ్చు."],["आर्","य"],["కొన","సా"],["उन","की"],["కొనసా","గు"],["आर्द्र",","],["उन","के"],["కొనసాగు","తో"],["उप","योग"],["आर्द्र","ता"],["కొనసాగుతో","ంది."],["ऊँच","ी"],["కొన్ని",":"],["आर्द्रता","ले"],["కొల","మానం:"],["क","ं"],["కో","టి"],["आह","्व"],["क","ट"],["కో","డు"],["क","प"],["आह्व","ान"],["కో","వడ"],["क","श्"],["కో","వార"],["आह्वान","हरू"],["కో","సం"],["कटि","बंध"],["కోటి","."],["इ","ँसराइको"],["कटिबंध","ीय"],["కోర్ట","ులు,"],["कर","ती"],["इ","न्छ।"],["కోర్టు",","],["कर","ते"],["కోర్టు","లకు"],["इ","रहेको"],["कश्","मी"],["కోల్","పో"],["కోల్పో","తూ"],["कश्मी","र"],["इन्डोनेसिया","को"],["కోవడ","ంతో"],["कार्य","काल"],["इन्डोनेसिया","सँग"],["కోవార","ంటో,"],["कार्य","पाल"],["క్","న"],["इसके","का"],["कार्यपाल","िका"],["క్క","లు"],["క్కను","ంది."],["कि","ए"],["इस्लाम","िक"],["క్కు","లకు"],["कि","सी"],["ई","श"],["క్కు","వే."],["कृष","ि"],["క్న","ాల"],["ई","स्ट"],["క్నాల","జ"],["क्र","िय"],["క్నాలజ","ీ,"],["ई","स्व"],["క్య","ార"],["क्ष","ण"],["ईश","्व"],["క్య","ులు,"],["क्ष","ा"],["క్యార","మ"],["ईश्व","र"],["गु","जरा"],["క్యారమ","్‌"],["च","े"],["క్యారమ్‌",","],["ईश्वर","ीय"],["క్యాలెండర్",")"],["च्","छ"],["క్యాలెండర్",":"],["ज","ट"],["క్ర","వర్తి"],["ईसा","पूर्व"],["ज","मा"],["క్ర","ా"],["ज","ों"],["క్ర","ై"],["ईसा","पूर्वमा"],["जि","न्हें"],["క్రమ","ంగా"],["ईस्व","ी"],["క్రా","ంతి,"],["जिन","में"],["క్రి",".పూ."],["उ","नको"],["जीव","न"],["క్రి","స్"],["ज्ञ","ान"],["క్రిస్","టా"],["క్రిస్టా","ట"],["ट","ल"],["उ","ही"],["క్రిస్టాట","స్"],["टे","ली"],["క్రిస్టాటస్","."],["उत्","थान"],["క్రీ","."],["टेली","वि"],["క్రీ.పూ.","20"],["उत्त","रा"],["ड","ाल"],["క్రీ.పూ.","5"],["उत्तर","-पश्चिमबाट"],["ड","ि"],["క్రీడ",":"],["క్రీడ","ల"],["डाल","र"],["उत्तर","-पश्चिमी"],["క్రై","స్త"],["णा","म"],["క్రైస్త","వ"],["उत्तर","पश्चिम"],["णाम","स्वरूप"],["క్రైస్తవ","ులు"],["उत्तर","मा"],["క్ష","ం:"],["ण्ड","ल"],["క్ష","ంగా"],["तना","व"],["క్ష","ణ"],["तु","ल"],["క్ష","ణాసియా"],["तुल","ना"],["క్ష","ిక"],["క్షణాసియా","లో"],["द","्य"],["క్షరాస్యత",","],["दिल्","ली"],["క్షి",":"],["ध","िकार"],["उत्तर","ार"],["ఖ","గోళ"],["न","ौ"],["ఖ","ర్చు"],["उत्तरपश्चिम","बाट"],["नि","म्"],["ఖ","ిక"],["ఖర్చు","తో"],["नौ","सेना"],["उत्तरा","धिक"],["ఖిక","మైనది."],["प","त्"],["उत्तराधिक","ारी"],["ఖో","-ఖో,"],["ఖ్య","ాతి"],["प","ान"],["గ","తి"],["पंजा","ब"],["గ","నులు,"],["उत्तराधिकारी","ले"],["परंपरा","गत"],["గ","మ"],["परि","णामस्वरूप"],["उत्तरार","्ध"],["గ","ర్"],["గ","ర్,"],["परी","क्षण"],["उत्तरार्ध","मा,"],["గ","లి"],["पर्य","टन"],["గ","లు,"],["उत्थान","।"],["पा","त"],["గ","ల్"],["पा","या"],["उप","त्य"],["గ","ించుకో"],["पु","रु"],["గ","ింది."],["उप","ो"],["గ","ులు"],["पुरु","ष"],["గ","ృ"],["उपत्य","का"],["पू","रा"],["గ","ె"],["उपमहाद्वीप","का"],["पू","रे"],["గ","ౌర"],["గంగ",","],["प्र","का"],["उपमहाद्वीप","को"],["గంగ","ో"],["प्र","दान"],["గంగో","త్ర"],["प्र","भु"],["గంగోత్ర","ి,"],["प्र","िय"],["గణ","ిత"],["గణిత","ం,"],["प्रत्य","े"],["उपमहाद्वीप","लाई"],["గతి","ని"],["प्रत्ये","क"],["గమన","ించి,"],["उपो","ष्णकटिबन्धीय"],["फै","ली"],["గమన","ికలు"],["फ्रा","ं"],["ऋग्वेद","का"],["గర","లో"],["ब","जट"],["గర్",")."],["ऋग्वेद","ले"],["గలి","గినది."],["ब","्"],["గల్",","],["एक","ताब"],["बढ़","ती"],["గా","ంచిన"],["भाग","ी"],["एक","ी"],["గా","య"],["గాయ","ి"],["भागी","द"],["एकताब","द्ध"],["గాయి","."],["भाष","ी"],["గి","పోయింది."],["एका","त्मक"],["भाषा","एं"],["గి","ల"],["भ्य","ता"],["एकी","कृत"],["గించుకో","వచ్చని"],["గిల","ిన"],["मंत्र","िम"],["ऐ","तिहास"],["గీ","కరణలో"],["मंत्रिम","ण्डल"],["గీ","తం"],["ऐतिहास","िक"],["గీతం",":"],["मा","ता"],["ओ","स,"],["గు","త్తా"],["मैदान","ी"],["గు","న"],["औ","प"],["గు","ప్"],["मो","हन"],["గుత్తా","ధి"],["औ","पनि"],["य","र"],["గుత్తాధి","ప"],["औप","चार"],["य","हाँ"],["గుత్తాధిప","త్య"],["గుత్తాధిపత్య","ం"],["या","ँ"],["औपचार","िक"],["గున","వి"],["या","।"],["గునవి",")."],["औपनि","वेश"],["र","ख"],["గుప్","తు"],["औपनिवेश","िक"],["గుప్తు","ల"],["रहा","।"],["గుప్తుల","కాలం"],["क","च्च"],["राज","वंश"],["గుర్త","ిం"],["గుర్త","ించ"],["क","च्छ"],["राज्य","सभा"],["గుర్త","ించింది."],["रि","या"],["क","ठ"],["గుర్తిం","పు"],["रू","स"],["గుర్తించ","వచ్చు."],["क","डा"],["ल","ड़ा"],["గులు",":"],["గువ","ారు"],["ल","न"],["क","ति"],["గృ","హ"],["ल","ौ"],["क","नका"],["గృహ","ాలు,"],["लं","का"],["గె","లిచ"],["क","न्न"],["గెలిచ","ిన"],["लं","बे"],["గే","జి"],["क","हरू"],["लग","ा"],["గే","య"],["क","ुन"],["ले","कर"],["గేయ","ం:"],["గో","డు"],["लोक","ता"],["గో","ధ"],["लोक","प्रिय"],["గో","ర్"],["कच्च","ा"],["वा","ली"],["గోడు","ంబిళ్ళ"],["कच्छ","को"],["वा","स्त"],["గోదా","వరి"],["గోదా","వరీ"],["वि","ज"],["గోదావరి","."],["वि","रो"],["గోధ","ు"],["श","स्त्र"],["గోధు","మ"],["कठ","ो"],["श","हर"],["గౌర","విస్త"],["గౌరవిస్త","ారు."],["श","हरी"],["कठो","र"],["గ్","గరలో"],["श","ाली"],["గ్","గిపోయింది."],["कति","प"],["श","िक्"],["గ్","గులు:"],["कतिप","य"],["शिक्","षा"],["గ్","న"],["शु","ष्"],["గ్","భాగ"],["कतिपय","ले"],["గ్న","లు"],["शुरु","आत"],["कन्न","ौ"],["గ్నలు",":"],["शुष्","क"],["గ్భాగ","ే,"],["कन्नौ","ज"],["గ్ర","ంథాలు"],["श्री","लंका"],["గ్ర","ీ"],["कन्नौज","का"],["स","क्रिय"],["గ్రా","ండ్"],["स","भ्यता"],["कम्","बो"],["గ్రా","మ"],["संबंध","ों"],["గ్రీ","కులు"],["कम्पनी","सँग"],["ఘ","ట్ట"],["सदस्य","ों"],["ఘ","న"],["कम्पनी","हरूले"],["सम","झ"],["ఘ","ర్షణ"],["सम","ृद्ध"],["कम्पनीसँग","को"],["ఘ","ిక,"],["सह","ाय"],["ఘ","ు"],["ఘ","ోర"],["सहाय","क"],["ఘట్ట","ాలు"],["सां","स्कृ"],["ఘన","త"],["सांस्कृ","तिक"],["ఘర్షణ","ను"],["साम","रिक"],["చ",".కి.మీ"],["सि","ंधु"],["చ","క్రవర్తి"],["చ","ట్ట"],["सू","ची"],["చ","ము"],["से",","],["कम्बो","ड"],["చ","ర్,"],["सो","वियत"],["చ","ా"],["कम्बोड","िया"],["स्थि","ति"],["చ","ిత"],["చ","ీర"],["ह","ाल"],["చ","ులు,"],["ह","ॉ"],["कम्बोडिया",","],["చ","ూ"],["हैं",":"],["చ","ూప"],["कर","को"],["हॉ","की"],["చ","ో"],["हो","ं"],["చ","్"],["कर","हरू,"],["చట్ట","ం,"],["हो","ना"],["का",","],["చదరంగ","ంలో"],["చదరంగ","ము,"],["ि","यों"],["का","टा"],["చన","లు,"],["ी","करण"],["చన","లో"],["का","व"],["े","क्षा"],["చము","రు"],["ौ","हार"],["का","व्य"],["చమురు",","],["చరిత్ర","లో"],["०",","],["काङ्ग्रेस","को"],["చవి","చూ"],["१","०"],["చవి","తి,"],["१९५","०"],["చవిచూ","సింది."],["२००","४"],["చా","ళ"],["చార","ం"],["४","०"],["काङ्ग्रेस","ले"],["చారిత్రక","ంగా"],["(","०,"],["చాళ","ు"],["काटा","ब"],["-","धीरे"],["చాళు","క్యులు,"],["-","पूर्व"],["काटाब","्या"],["చి","హ"],[".","२"],["చిత్ర","కళ"],["196","0"],["काटाब्या","ट"],["199","9"],["చిత్ర","మ"],["20","20"],["చిత్రమ","ాల"],["काटाब्याट","िक"],["ं","जन"],["చిత్రమాల","ిక"],["ं","द"],["कानू","न"],["చిరు","నా"],["अ","ं"],["చిరునా","మాలు"],["कानू","नी"],["अ","च्छ"],["చిహ","్"],["अ","ति"],["చిహ్","నాలు"],["कार","को"],["अ","सम"],["చీర",","],["अक्ट","ू"],["कारण","ले"],["చు","ట్ట"],["अक्टू","बर"],["చుట్ట","ూ"],["अग","स्त"],["कार्य","कालको"],["చూడండి",":"],["अप","ेक्षा"],["अभिया","न"],["చూప","బడ"],["कार्यकारी",":"],["आ","ई"],["చూపబడ","ింది"],["आ","ते"],["काल","तको"],["చె","ంది"],["आ","स"],["చె","ందింది."],["काव","ेर"],["आं","तर"],["చె","ట్ట"],["आं","दो"],["చెట్ట","ు."],["कावेर","ी"],["आंतर","िक"],["చెప్పుకో","ద"],["आंदो","लन"],["कि","न"],["చెప్పుకో","వచ్చు."],["చెప్పుకోద","గినది."],["आक","र्म"],["कि","न्छ।"],["చే","త"],["आकर्म","ण"],["చే","ర"],["आग","े"],["किन","कि"],["आस","पास"],["చే","సు"],["की","हरू"],["इंड","ो"],["చే","సే"],["ई","द"],["చేత",","],["कु","मा"],["उ","ठ"],["చేయ","ట"],["उ","भरा"],["చేయ","డ"],["कु","श"],["उन","का"],["చేయ","బడింది."],["ऊ","पर"],["कुन","ै"],["చేయ","లేదు"],["ऊँच","ा"],["చేయ","ిస్త"],["ऊँचा","ई"],["कुमा","र"],["చేయట","ంతో"],["एश","न"],["చేయడ","ానికి"],["कुमार","हरूको"],["ऑ","पर"],["చేయిస్త","ారు."],["ऑ","फ"],["कुल","ीन"],["చేర",","],["ऑपर","ेश"],["చేసింది.","ఢాకా-ఢిల్లీ-లాహో"],["कुश","ता"],["ऑपरेश","न"],["చేసింది.ఢాకా-ఢిల్లీ-లాహో","ర్‌ల"],["क",","],["చేసు","కోవడంతో"],["कृ","ष्ण"],["क","मा"],["చైన","ాతో"],["कमा","ंड"],["कृष्ण","ा"],["చో","ళ"],["कर","े"],["చోళ","ులు,"],["के","न"],["कर","ो"],["చ్","ఛ"],["का","ज"],["చ్చ","జ"],["के","ही"],["काम","काज"],["చ్చ","ింది."],["केंद्र","ीय"],["केन्द","्री"],["చ్చజ","ెండ"],["केन्द्र","शासित"],["చ్చజెండ","ా"],["क्र","य"],["చ్ఛ","ాయుత"],["क्षर","ता"],["జ","ంతువు:"],["क्षेत्र","ों"],["జ","నాలు"],["ख","ंड"],["केन्द्र","हरू"],["ख","र"],["జ","పా"],["ख","ान"],["జ","వహ"],["केन्द्री","कृत"],["ख","े"],["జ","ా"],["ग","ढ़"],["జ","ాన"],["ग","ी"],["జ","ిత"],["ग","ै"],["को","र"],["జ","ిన"],["ग","ो"],["జ","ిల్ల"],["ग","ों"],["జ","ెట్"],["ग","ोल"],["జ","ై"],["गति","शील"],["జ","ైన"],["गया",","],["జ","ౌ"],["गु","ट"],["गुजरा","त"],["జ","్యం"],["को","शी"],["गै","र-"],["జ","్ర"],["गों","ड"],["कोर","ल"],["జ","్‌"],["घा","टी"],["జన","కరమేనని"],["घोष","ित"],["क्","कनका"],["జనగణ","మన"],["च","र"],["జనగణమన","."],["क्","का,"],["च","ली"],["జనాభా","లో"],["च","ो"],["क्ष","द्वीप"],["జన్మ","దిన"],["चु","की"],["జన్మ","ని"],["छ","ह"],["क्ष","म"],["జన్మ","స్థాన"],["छोड़","कर"],["జన్మదిన","ాలకు"],["क्षद्वीप",","],["ज","न्"],["జన్మని","చ్చింది."],["ज","ाने"],["జన్మస్థాన","ం."],["ज","ु"],["జరి","గాయి."],["ज़","्यादा"],["क्षेत्र","का"],["జరి","గింది."],["जि","न्"],["జరుపుకు","నే"],["जिस","की"],["क्षेत्र","को"],["జవహ","ర్‌ల"],["जिस","ने"],["क्षेत्र","फल"],["జవహర్‌ల","ాల్"],["जै","न"],["झ","ार"],["జా","స్వామ్య"],["ट","क"],["జాత","ి,"],["ट","ना"],["జాతి","ప"],["क्षेत्र","हरू"],["टा","फ"],["జాతిప","ిత"],["ठ","क"],["क्षेत्र","हरूद्वारा"],["జాతీయ","వాదం"],["ठ","ार"],["జాతీయ","ా"],["ड","िया"],["क्षेत्र","हरूमा"],["జాతీయా","దాయంలో"],["ड","ु"],["జాన","పద"],["क्षेत्र","हरूलाई"],["ड़","ियाँ"],["జాబ","ీ;"],["त","ः"],["क्षेत्रफल","को"],["జాబితా","లో"],["त","ब"],["జి","త్"],["त","ार"],["ख","डा"],["ता",","],["జి","స్"],["तीस","री"],["జిత","మై"],["त्","‍"],["జిన","ె"],["त्र","ि"],["ख","ला"],["జినె","స్"],["थ","ल"],["జిల్ల","ా"],["ख","िक"],["थी",","],["జిస్","లే"],["द","ाय"],["జిస్లే","చర్,"],["ख","्"],["द","्"],["జీ","వి"],["दर्","शन"],["खला","।"],["జీవి","తంలో"],["दि","यों"],["జై","ను"],["दी","व"],["खा",","],["జైన",","],["दू","स"],["జైను","లు"],["खाडी","ले"],["द्य","पि"],["జో","క్యం"],["धर्म",","],["జో","న్"],["धर्म","ों"],["జోన్","లుగా"],["धीरे","-धीरे"],["खे","ल्"],["न","गर"],["జౌ","ళి,"],["न","दियों"],["జ్","ఞ"],["खेल्","छ"],["न","म"],["జ్ఞ","ాన"],["न","र"],["ख्","खा,"],["జ్ర","ాలు,"],["न","िक"],["జ్‌","మహ"],["ग","इरहेको"],["न","ृत्य"],["జ్‌మహ","ల్"],["ना","गा"],["ట","ంలో"],["ग","म्भ"],["नि","वेश"],["ట","న"],["निभा","ई।"],["ग","यो"],["ట","మూ"],["निय","ंत्र"],["ట","ాయి"],["निर्","भर"],["गङ्गा","का"],["ట","ిన"],["निव","ास"],["नी","ति"],["ట","్య"],["गतिशील","ता"],["ने","ट"],["ట","్రా"],["गम्भ","ी"],["ने","हरू"],["టన","ల"],["प","क्ष"],["టనల","బ"],["गम्भी","र"],["प","ठार"],["టనలబ","ై"],["प","ड़ा"],["టనలబై","రెండు"],["गर","िक"],["టనలబైరెండు","కోట్లకు"],["प","स"],["गरि","एका"],["టన్","‌"],["प","ुन"],["प","ो"],["టా","గోర్"],["पं","थी"],["టాయి","డ్"],["पत्","ति"],["టాయిడ్","స్"],["गरि","ब"],["पह","ली"],["టి","యో"],["पहा","ड़ी"],["गरि","रहेको"],["టి","ల్ల"],["पार्टि","यों"],["టియో","ర"],["गरिएको",","],["पु","ड़ा"],["టియోర","ారి"],["पु","लि"],["టిల్ల","ింది."],["गरिक","हरूलाई"],["पुरुष","ों"],["టీ","లలో"],["पुर्तग","ाली"],["गरे","।"],["టు","వంటి"],["पुलि","स"],["టె","క్నాలజీ,"],["प्","ति"],["गर्","मी"],["प्र","सार"],["టె","డ్"],["प्रका","श"],["టె","న్ని"],["गर्द","छ;"],["प्रचल","ित"],["టె","లి"],["गर्द","ै"],["प्रदेश","ों"],["టెన్ని","స్"],["प्रभाव","शाली"],["టెన్నిస్","లో"],["गर्दै","न,"],["प्राचीन","तम"],["టెలి","వి"],["प्रारम्भ","िक"],["టెలివి","జన్"],["फ","ु"],["టే","టాయిడ్స్"],["फ़","्"],["गर्‍","यो,"],["టే","సింది."],["फु","ट"],["టై","గర్)."],["ब","डी"],["गर्‍","यो।"],["టైటి","ల్"],["ब","द"],["ब","ल"],["టైటి","ళ్ళ"],["ब","ह"],["టైటిళ్ళ","ు"],["गा","धनी"],["बंग","ाल"],["ట్","కా"],["बढ़","ने"],["ట్","నం"],["गा","न्ध"],["बढ़","ा"],["ట్ట","ారు."],["बन","ने"],["गा","मी"],["ట్ట","ుకు"],["बने","।"],["ట్ట","ెల"],["बहु","मूल्य"],["गाधनी","हरू"],["ట్టారు.","ప్రస్తుతము"],["बा","ं"],["ట్టుకు","న్నాయి."],["बि","यों"],["गान्ध","ी"],["ట్య","ం,"],["बै","ठक"],["गु","प्"],["ట్రా","ఫ"],["भ","री"],["भ","ो"],["ట్రాఫ","ిక్"],["गुप्","ताहरूको"],["भागीद","ारी"],["ట్రో","పాల"],["भारत","ी"],["ట్రో","లి"],["गो","द"],["ట్రోపాల","ి"],["भारती","यों"],["म","ना"],["गोद","ाव"],["ట్రోపాలి","టన్"],["ట్రోలి","య"],["म","ले"],["ట్రోలియ","ం,"],["मध्य","म"],["मन","मोहन"],["ట్ల","లో"],["मह","ी"],["ట్‌","బ"],["माल","दीव"],["गोदाव","री"],["ట్‌బ","ాల"],["ట్‌బాల","్‌"],["मि","श"],["मिश","्र"],["ఠ","ీ;"],["मी","."],["డ","బు"],["मी","णा"],["డ","ాల"],["मी","ल"],["गोदावरी",","],["డ","ించింది."],["मु","द"],["డ","ైన"],["मो","दी"],["డ","్ర"],["मो","र्"],["డ","్ల"],["ग्","गाधनीहरू"],["य","द्यपि"],["డ","్‌"],["य","ें"],["డబు","ల్"],["र","खा"],["డబుల్","స్"],["र","त्"],["ग्द","छन्,"],["డాల","ర్"],["राज","भाषा"],["राज","स्थान"],["డాలర్","లు."],["ग्द","ै"],["राजनी","ति"],["డి","గించుకోవచ్చని"],["रु","प"],["డి","పోయింది."],["रे","खा"],["డిస్","కవరీ"],["ग्दै",","],["ल","ु"],["డు","తుంది."],["ल","ू"],["డు","స్త"],["ग्र","न्"],["लगा","तार"],["డుస్త","ాయి."],["ला","ल"],["ग्रन्","थ"],["డ్","జెట్"],["लि","ख"],["డ్","మ"],["लोक","सभा"],["ग्रन्थ","हरू"],["డ్మ","ిం"],["लोकता","ंत्रिक"],["డ్మిం","టన్‌"],["व","ृद्ध"],["ग्री","ष्"],["డ్ర","ై"],["वर्ण","न"],["ग्री","हरू"],["డ్రై","వరు"],["वर्ष","ा"],["డ్‌","గేజి"],["वा","म"],["ఢ","వి"],["वास्त","विक"],["वि","ज्ञान"],["ఢవి","ల్ల"],["ग्रीक","हरूले"],["वि","त"],["ఢవిల్ల","ాయి."],["वि","मान"],["ఢాకా-ఢిల్లీ-లాహో","ర్"],["विकास","शील"],["ఢిల్లీ,","పా"],["ग्रीष्","म"],["विरो","ध"],["ఢిల్లీ,పా","ండిచ్చేరి,"],["विश","ाल"],["ణ","ంతో"],["वृद्ध","ि"],["ణ","ాలు"],["श","्रे"],["ग्रीष्म","कालीन"],["ణ","ించ"],["शा","मिल"],["ణ","ిక"],["घेरिएको",","],["शा","स्त्र"],["ణ","ుల"],["शै","ली"],["ణ","ే"],["ष्","ट"],["ణా","ది"],["ष्","ट्र"],["ङ्","का"],["ణా","న్ని"],["स","दी"],["ణా","ళ"],["स","भी"],["ङ्","कुशता"],["ణాది","కి"],["स","र्"],["स","शस्त्र"],["ణాళ","ికలు"],["ङ्","खला।"],["स","ारी"],["ణి","పు"],["च","क"],["स","ों"],["ణించ","లేదు"],["स","ौहार"],["ణించలేదు","."],["च","ान"],["सक","ता"],["ణిక","ుల"],["सक","ते"],["ణిపు","రి"],["च","ोल"],["सत","पुड़ा"],["ణిపురి","."],["समझ","ौ"],["चला","उँछ।"],["త","క్కువే."],["सम्","पूर्ण"],["త","గ్గిపోయింది."],["सरकार","ों"],["త","దు"],["सा","क्षरता"],["త","దేశపు"],["सा","ह"],["త","నా"],["साथ",","],["త","మ్య"],["साम्राज्य","ों"],["త","లం"],["साह","ित"],["चान","लाई"],["త","ాన"],["साहित","्य"],["सू","चना"],["త","ాయ"],["सेना","ओं"],["త","ార"],["चाल","ित,"],["सेवा","ओं"],["త","ాలతో"],["सै","निक"],["త","ీ,"],["चालुक्य","हरूले"],["सौहार","्द"],["తక్కువ","."],["स्","टाफ"],["తత్వ","ానికి"],["चि","एका"],["स्","ति"],["తదు","పరి"],["स्थ","ल"],["चि","निन्"],["తన","లో"],["स्थान","ीय"],["తనా","ట్యం,"],["स्थाप","ित"],["తమిళ","ం,"],["ह","त्या"],["తమిళ","ం."],["ह","ारी"],["चि","निन्छ।"],["हिस्","सा"],["తమిళ","ం;"],["हुआ",","],["తమిళ","నా"],["हो","ने"],["తమిళనా","డుకు"],["चि","सो"],["हों","ने"],["తమ్య","ాలు"],["ाल","य"],["चि","ह"],["తమ్యాలు","న్నాయి."],["ू","त"],["తర","తరాలు"],["ेर","ल"],["चिनिन्","छन्,"],["తరతరాలు","గా"],["ेश","ि"],["తరువాత",","],["्","म"],["తర్వాత","ి"],["्य","ों"],["चिह","्न"],["తల","ల"],["१",","],["తలం","పు"],["१९","४७"],["१९८","४"],["తలంపు","తో"],["१९९","१"],["తా","జ్‌మహల్"],["चिह्न","ित"],["२","६"],["తాక",","],["२०","१४"],["चीन",","],["తాన","ులు,"],["५","२"],["తాయ","ని"],["चुनाव","मा"],["९","."],["తార","తమ్యాలున్నాయి."],["(","3"],["తి","రి"],["चुनाव","ी"],["(","b"],["(","एन"],["తి","శ్ర"],["(","कुल"],["चोल","हरूले"],["తిక",","],["(","फ़"],["(","हिन्दी"],["తిరి","గే"],[")","।"],["चौ","कीहरू"],["తిశ్ర","ద్ధ"],["-","आ"],["-","गंगा"],["తిశ్రద్ధ","లతో,"],["-","चीन"],["चौ","थ"],["-","चीफ"],["తు","రు"],["-","फ़"],["चौथ","ो"],["తురు","ష్"],["-","समय"],["-आ","कृ"],["తురుష్","కుల"],["/","वर्ष"],["छ","ा"],["తులు",";"],["1,","200"],["195","8"],["తులు","న్నాయి."],["छ","ु"],["196","1"],["తూర్పు","న"],["198","7"],["200","8"],["छ","ै"],["తె","ప్ప"],["201","2"],["3","6."],["తె","లి"],["s",")"],["छा","प"],["తెప్ప","ించుకో"],["ं","कि"],["ं","च"],["తెప్పించుకో","వడ"],["छाप","्न"],["ं","जी"],["ं","त"],["తెప్పించుకోవడ","ానికి"],["ं","तर"],["छु","ट"],["తెప్పించుకోవడానికి",","],["ं","तीस"],["ं","पर"],["తెలి","సింది."],["ं","बर"],["छुट","्या"],["తెలుగు",";"],["ं","सक"],["ंक","ड"],["తే","ది"],["छुट्या","एको"],["ंग","लों"],["ंग","ी"],["తే","ల"],["ंग","ो"],["छै","ट"],["తేల","ిక"],["ंगी","ण"],["ंच","ों"],["తేలిక","ే"],["ंचों",","],["छैट","ौँ"],["ंति","म"],["తేలికే","న"],["ंध","्या"],["తేలికేన","నీ"],["ंध्या","चल"],["ज","ग"],["తో","ష్ణ"],["ंपर","िक"],["ज","ग्गाधनीहरू"],["ंसा","वादी"],["త్","తరాలు"],["अ","ंतिम"],["త్","తల"],["अ","ग्र"],["ज","टि"],["త్","తాక,"],["अ","थ"],["अ","निव"],["త్య","జిత్"],["ज","ता"],["अ","शांति"],["अ","सं"],["త్ర",","],["अ","सफल"],["ज","म्"],["త్రి","వర్ణ"],["अ","सैनिक"],["अंग्रे","जों"],["త్వ","ం"],["अक्ष","ु"],["ज","ित"],["త్వ","ంలో"],["अक्षु","ण्"],["अक्षुण्","ण"],["త్వ","ర"],["ज","्व"],["अग्र","णी"],["త్వ","ాలు"],["अथ","वा"],["अधि","राज्य"],["ज","।"],["త్వర","లో"],["अधिक","ारी"],["अनिव","ार"],["త్వరలో","నే"],["जटि","ल"],["अनिवार","्य"],["త్వాన్ని",","],["अनु","सूची"],["థ","మ"],["अनुसार",","],["जता","तत"],["अभिया","नों"],["థ","ాత"],["अमेर","िकी"],["जतातत","ै"],["अमेरिका",","],["థ","ాన"],["अर्","ध"],["థ","ార్"],["अलावा",","],["जन","पद"],["థ","ి"],["अल्","पा"],["अल्पा","इन"],["థాత","థ"],["जन","िक"],["अव","सा"],["अवसा","द"],["థాన","ే"],["अहि","ंसावादी"],["जनपद","हरू"],["థి","లి"],["आ","ए"],["आ","ठ"],["థిక","్"],["आ","दर्"],["जना","उँछ।"],["आ","ने"],["థిలి",";"],["आ","पात"],["ద","ం,"],["जन्","म"],["आ","म"],["ద","ండయాత్రలతో,"],["आ","र"],["जम्","मा"],["ద","క్కను"],["आक","्र"],["आक्र","म"],["ద","క్షణాసియాలో"],["आक्रम","ण"],["जलो","ढ"],["आठ","वीं"],["ద","గ్గరలో"],["आदर्","श"],["ద","శ"],["जा","ँदा,"],["आप","के"],["आपात","काल"],["ద","స"],["आपूर्","तिक"],["जा","को"],["आपूर्तिक","र्"],["ద","ాన"],["आपूर्तिकर्","ता"],["ద","ారు"],["आया","त"],["जा","ड"],["आया","तक"],["ద","ీన"],["आव","ंट"],["आव","श"],["ద","ీర్"],["जा","तन्त्र"],["आवश","्य"],["ద","ులు"],["इ","जरा"],["जा","ब"],["इ","ण्ड"],["ద","ృ"],["इ","त्या"],["ద","ైన"],["इ","लावा"],["जाड","ो"],["इ","स्त"],["దక్షి","ణాదికి"],["इंडो","न"],["इंडोन","ेश"],["దక్షిణ","ది"],["जात","ीय"],["దక్షిణది","గ్భాగే,"],["इंडोनेश","िया"],["इजरा","य"],["जीव","नको"],["దక్షిణాన",","],["इजराय","ल"],["इण्ड","िया"],["దర","ిక"],["जो","ड"],["इत्या","दि"],["దరిక","ం,"],["इन","-चीफ"],["इन","का"],["దర్శ","కుడైన"],["ज्ञ","ा"],["इस","ने"],["దర్శ","ించే"],["इस्त","े"],["ज्ञा","त"],["దశ","లో"],["इस्ते","माल"],["ईसा","ई"],["దస","రా"],["ज्ञान","ा"],["उ","ड़ी"],["దసరా","."],["उ","न्"],["उ","भरी"],["దా","టిన"],["ज्ञाना","त्मक"],["उ","ल"],["उठ","ा"],["దా","టేసింది."],["उठा","या"],["ज्ञानात्मक",","],["దాదాపు","గా"],["उड़ी","सा"],["उत्तर","-पश्चिम"],["దాన","ంతో"],["उत्तर","दाय"],["ज्व","ा"],["उत्पाद","न"]]}