{"0":13,"1":14,"2":15,"3":16,"4":17,"5":18,"6":19,"7":20,"8":21,"9":22,"10":1368,"11":2107,"12":3337,"13":1198,"14":2109,"15":1066,"16":3344,"17":892,"18":701,"19":292,"20":303,"21":3463,"22":2125,"23":2126,"24":3467,"25":1372,"26":1644,"28":1646,"29":6333,"30":1649,"31":2138,"32":3539,"34":2139,"35":2140,"36":2141,"40":6336,"42":1071,"44":2145,"46":6337,"50":1377,"53":3572,"59":3575,"62":7495,"63":2150,"64":3589,"68":3591,"70":3595,"80":2154,"94":1654,"100":1633,"113":3336,"120":3339,"125":7402,"140":3375,"142":7404,"165":7435,"172":3387,"176":3388,"184":3394,"185":1637,"188":3395,"189":3396,"192":3406,"193":1067,"194":734,"195":592,"196":593,"197":893,"198":831,"199":594,"200":470,"201":435,"202":618,"203":3488,"230":7461,"232":3521,"264":3528,"300":1374,"308":3548,"361":2143,"400":1070,"423":3565,"431":3559,"500":1650,"517":3570,"580":3574,"596":3585,"600":3586,"731":3599,"800":3611,"900":3615,"940":3621,"1000":7400,"1010":7426,"1200":1369,"1250":7431,"1300":3373,"1500":3378,"1525":3379,"1652":7439,"1765":3389,"1820":3393,"1848":3398,"1853":7442,"1857":7443,"1901":3404,"1911":3405,"1920":3407,"1928":3408,"1935":3416,"1946":3419,"1947":3420,"1948":7446,"1949":3422,"1950":3424,"1951":3425,"1956":7449,"1958":9781,"1960":9113,"1961":9784,"1962":3430,"1964":3433,"1965":2120,"1967":2121,"1971":8183,"1974":3442,"1977":3444,"1980":3446,"1981":3448,"1984":3449,"1985":3451,"1987":9786,"1990":3456,"1991":1642,"1994":3458,"1996":7457,"1998":3461,"1999":9115,"2001":1373,"2003":7471,"2004":2129,"2007":3492,"2008":9787,"2009":2131,"2011":894,"2012":9790,"2013":2133,"2014":3503,"2018":2134,"2019":3486,"2020":9117,"2021":3508,"2022":3510,"2023":7480,"2024":3512,"2026":3515,"7000":3596,"<unk>":0,"\"":1,"$":2,"%":3,"&":4,"'":5,"(":6,")":7,"+":8,",":9,"-":10,".":11,"/":12,":":23,";":24,"=":25,"[":26,"]":27,"^":28,"a":29,"b":30,"c":31,"d":32,"e":33,"f":34,"g":35,"h":36,"i":37,"j":38,"k":39,"l":40,"m":41,"n":42,"o":43,"p":44,"q":45,"r":46,"s":47,"t":48,"u":49,"v":50,"w":51,"x":52,"y":53,"z":54,"|":55,"°":56,"á":57,"â":58,"í":59,"ö":60,"ā":61,"ī":62,"ś":63,"ū":64,"ə":65,"ɦ":66,"ɪ":67,"ɾ":68,"ʊ":69,"ʱ":70,"ˈ":71,"ː":72,"ί":73,"α":74,"δ":75,"ν":76,"ο":77,"ς":78,"ό":79,"ँ":80,"ं":81,"ः":82,"अ":83,"आ":84,"इ":85,"ई":86,"उ":87,"ऊ":88,"ऋ":89,"ए":90,"ऐ":91,"ऑ":92,"ओ":93,"औ":94,"क":95,"ख":96,"ग":97,"घ":98,"ङ":99,"च":100,"छ":101,"ज":102,"झ":103,"ञ":104,"ट":105,"ठ":106,"ड":107,"ढ":108,"ण":109,"त":110,"थ":111,"द":112,"ध":113,"न":114,"प":115,"फ":116,"ब":117,"भ":118,"म":119,"य":120,"र":121,"ल":122,"व":123,"श":124,"ष":125,"स":126,"ह":127,"़":128,"ा":129,"ि":130,"ी":131,"ु":132,"ू":133,"ृ":134,"े":135,"ै":136,"ॉ":137,"ो":138,"ौ":139,"्":140,"।":141,"०":142,"१":143,"२":144,"३":145,"४":146,"५":147,"६":148,"७":149,"८":150,"९":151,"॰":152,"ం":153,"ః":154,"అ":155,"ఆ":156,"ఇ":157,"ఈ":158,"ఉ":159,"ఋ":160,"ఎ":161,"ఏ":162,"ఐ":163,"ఒ":164,"ఓ":165,"ఔ":166,"క":167,"ఖ":168,"గ":169,"ఘ":170,"చ":171,"ఛ":172,"జ":173,"ఞ":174,"ట":175,"ఠ":176,"డ":177,"ఢ":178,"ణ":179,"త":180,"థ":181,"ద":182,"ధ":183,"న":184,"ప":185,"ఫ":186,"బ":187,"భ":188,"మ":189,"య":190,"ర":191,"ల":192,"ళ":193,"వ":194,"శ":195,"ష":196,"స":197,"హ":198,"ా":199,"ి":200,"ీ":201,"ు":202,"ూ":203,"ృ":204,"ె":205,"ే":206,"ై":207,"ొ":208,"ో":209,"ౌ":210,"్":211,"ṅ":212,"ṇ":213,"ṣ":214,"ṭ":215,"ἰ":216,"‌":217,"‍":218,"–":219,"—":220,"‘":221,"’":222,"“":223,"”":224,"†":225,"′":226,"₹":227,"in":228,"th":229,"an":230,"the":231,"er":232,"on":233,"re":234,"al":235,"en":236,"st":237,"di":238,"at":239,"ar":240,"ed":241,"and":242,"or":243,"of":244,"as":245,"it":246,"ion":247,"indi":248,"es":249,"ic":250,"is":251,"ing":252,"ent":253,"to":254,"om":255,"india":256,"ou":257,"ec":258,"ly":259,"ur":260,"le":261,"ch":262,"am":263,"de":264,"li":265,"ver":266,"ce":267,"il":268,"con":269,"ri":270,"ra":271,"ol":272,"ul":273,"se":274,"ation":275,"by":276,"ve":277,"ro":278,"ad":279,"be":280,"s,":281,"tion":282,"indian":283,"em":284,"for":285,"mo":286,"un":287,"ist":288,"ge":289,"ast":290,"lo":291,"us":293,"ter":294,"we":295,"wi":296,"res":297,"wh":298,"gh":299,"ma":300,"ir":301,"su":302,"'s":304,"ex":305,"s.":306,"with":307,"im":308,"ate":309,"ment":310,"ac":311,"was":312,"ab":313,"du":314,"are":315,"art":316,"der":317,"po":318,"rom":319,"ies":320,"ut":321,"ical":322,"over":323,"wer":324,"com":325,"has":326,"per":327,"from":328,"ich":329,"ag":330,"ang":331,"so":332,"cent":333,"et":334,"ial":335,"inc":336,"sh":337,"its":338,"ill":339,"pl":340,"si":341,"which":342,"af":343,"wor":344,"00":345,"ain":346,"ay":347,"ear":348,"ity":349,"me":350,"ong":351,"pro":352,"cont":353,"ther":354,"ure":355,"rit":356,"sou":357,"um":358,"ult":359,"ant":360,"co":361,"ld":362,"ary":363,"india's":364,"sp":365,"a,":366,"ak":367,"id":368,"econ":369,"ive":370,"lu":371,"oun":372,"were":373,"lar":374,"no":375,"ted":376,"ap":377,"ated":378,"form":379,"gen":380,"ig":381,"min":382,"el":383,"mar":384,"ne":385,"west":386,"gion":387,"iv":388,"large":389,"nor":390,"part":391,"all":392,"ish":393,"ism":394,"por":395,"ru":396,"ans":397,"econom":398,"es,":399,"gover":400,"hi":401,"od":402,"y,":403,"age":404,"av":405,"after":406,"ame":407,"ass":408,"end":409,"govern":410,"low":411,"op":412,"ough":413,"world":414,"est":415,"fo":416,"indu":417,"ous":418,"south":419,"up":420,"ally":421,"any":422,"bec":423,"ber":424,"emp":425,"government":426,"our":427,"ance":428,"uring":429,"centur":430,"ind":431,"into":432,"mill":433,"ts":434,"asi":436,"dec":437,"ern":438,"india,":439,"lat":440,"pul":441,"stit":442,"tra":443,"angu":444,"comp":445,"ding":446,"during":447,"fe":448,"langu":449,"sub":450,"ution":451,"anc":452,"but":453,"ha":454,"i,":455,"minist":456,"og":457,"uc":458,"1,":459,"cl":460,"east":461,"fir":462,"fore":463,"ire":464,"ine":465,"pri":466,"ress":467,"tr":468,"year":469,"bo":471,"es.":472,"gan":473,"hindu":474,"inclu":475,"popul":476,"qu":477,"region":478,"reli":479,"ud":480,"ved":481,"constit":482,"eral":483,"first":484,"gre":485,"sc":486,"sy":487,"war":488,"dern":489,"dition":490,"duc":491,"ection":492,"ence":493,"ho":494,"land":495,"pe":496,"pol":497,"reas":498,"vi":499,"became":500,"comm":501,"eng":502,"ext":503,"had":504,"india.":505,"long":506,"mus":507,"modern":508,"nation":509,"ni":510,"row":511,"soc":512,"stem":513,"system":514,"used":515,"y.":516,"also":517,"ates":518,"been":519,"cast":520,"contin":521,"empire":522,"fic":523,"have":524,"increas":525,"jor":526,"largest":527,"major":528,"minister":529,"most":530,"ome":531,"par":532,"pre":533,"ric":534,"ser":535,"this":536,"them":537,"western":538,"ban":539,"cong":540,"ect":541,"hist":542,"million":543,"more":544,"ph":545,"ral":546,"such":547,"their":548,"there":549,"thern":550,"ural":551,"wo":552,"among":553,"atic":554,"bet":555,"both":556,"coun":557,"cult":558,"class":559,"congress":560,"constitution":561,"dom":562,"her":563,"inf":564,"many":565,"num":566,"out":567,"pt":568,"that":569,"tradition":570,"wn":571,"who":572,"bl":573,"cor":574,"ct":575,"dance":576,"diver":577,"grow":578,"imal":579,"lim":580,"mu":581,"national":582,"new":583,"not":584,"north":585,"ound":586,"port":587,"prime":588,"ta":589,"two":590,"under":591,"a.":595,"bce":596,"bi":597,"betwe":598,"between":599,"caste":600,"central":601,"economic":602,"election":603,"ess":604,"ff":605,"fol":606,"he":607,"isation":608,"istan":609,"ition":610,"lear":611,"main":612,"though":613,"ures":614,"urban":615,"years":616,"1.":617,"ament":619,"ari":620,"brit":621,"bud":622,"british":623,"budd":624,"ca":625,"continent":626,"des":627,"ght":628,"ince":629,"king":630,"led":631,"language":632,"life":633,"non":634,"nuc":635,"nuclear":636,"number":637,"oc":638,"population":639,"rough":640,"sup":641,"6%":642,"ages":643,"akistan":644,"began":645,"classical":646,"emer":647,"exp":648,"gra":649,"ially":650,"ically":651,"ism,":652,"lowing":653,"mid":654,"olog":655,"pakistan":656,"pu":657,"river":658,"sity":659,"set":660,"tec":661,"ach":662,"able":663,"act":664,"anges":665,"bal":666,"cal":667,"cre":668,"ded":669,"del":670,"deve":671,"eur":672,"enc":673,"general":674,"har":675,"histor":676,"ies,":677,"ilit":678,"ited":679,"ked":680,"lit":681,"later":682,"lop":683,"non-":684,"northern":685,"o-":686,"pres":687,"peri":688,"power":689,"rate":690,"ris":691,"since":692,"sing":693,"spec":694,"tim":695,"ting":696,"than":697,"world's":698,"0,":699,"000":700,"7,":702,"bas":703,"blic":704,"cour":705,"cho":706,"dra":707,"develop":708,"dic":709,"gr":710,"hum":711,"inter":712,"including":713,"increased":714,"influ":715,"ite":716,"ket":717,"kh":718,"lish":719,"leg":720,"liter":721,"other":722,"one":723,"plate":724,"polit":725,"public":726,"ry":727,"religion":728,"some":729,"stat":730,"subcontinent":731,"ular":732,"val":733,"aw":735,"anci":736,"ancient":737,"as,":738,"ately":739,"ations":740,"col":741,"chin":742,"culture":743,"dis":744,"diversity":745,"early":746,"forest":747,"ghal":748,"high":749,"ign":750,"ised":751,"jp":752,"krit":753,"liament":754,"mer":755,"milit":756,"mughal":757,"music":758,"occ":759,"offic":760,"ople":761,"parliament":762,"people":763,"period":764,"pos":765,"ren":766,"rule":767,"state":768,"sty":769,"te":770,"ten":771,"tri":772,"tech":773,"through":774,"union":775,"us$":776,"2.":777,"5.":778,"au":779,"anskrit":780,"app":781,"asia":782,"ation,":783,"beng":784,"bengal":785,"can":786,"caused":787,"coo":788,"common":789,"company":790,"countr":791,"dem":792,"demo":793,"dire":794,"e,":795,"economy":796,"enni":797,"ennium":798,"europ":799,"following":800,"gi":801,"gu":802,"ident":803,"ies.":804,"indus":805,"jab":806,"ke":807,"lead":808,"man":809,"mathem":810,"military":811,"millennium":812,"pun":813,"plain":814,"punjab":815,"rat":816,"ron":817,"sanskrit":818,"sur":819,"served":820,"sig":821,"soci":822,"social":823,"tro":824,"ultan":825,"vent":826,"vement":827,"work":828,"-largest":829,"0.":830,"5,":832,"ack":833,"ago":834,"amp":835,"ared":836,"ash":837,"bill":838,"billion":839,"car":840,"civ":841,"century":842,"coast":843,"cording":844,"court":845,"domin":846,"duced":847,"ef":848,"emerg":849,"ens":850,"ered":851,"europe":852,"fam":853,"far":854,"fer":855,"ga":856,"gener":857,"himal":858,"himalay":859,"howe":860,"however":861,"however,":862,"ied":863,"ics":864,"indo-":865,"ird":866,"jan":867,"ll":868,"ly,":869,"mal":870,"majority":871,"medi":872,"muslim":873,"nat":874,"ned":875,"party":876,"rural":877,"religi":878,"ritor":879,"ss":880,"territor":881,"thre":882,"theast":883,"these":884,"they":885,"united":886,"ving":887,"vol":888,"wide":889,"%.":890,"),":891,"ace":895,"air":896,"according":897,"agric":898,"agricult":899,"ange":900,"ann":901,"andhi":902,"arch":903,"arm":904,"ba":905,"based":906,"bio":907,"cit":908,"century,":909,"coal":910,"contr":911,"contri":912,"control":913,"day":914,"dle":915,"dev":916,"delhi":917,"direct":918,"ei":919,"eastern":920,"ected":921,"emerged":922,"ers":923,"fed":924,"fin":925,"fl":926,"ft":927,"feat":928,"gandhi":929,"gar":930,"great":931,"growth":932,"human":933,"ian":934,"ili":935,"igin":936,"ins":937,"include":938,"indust":939,"influenc":940,"jain":941,"last":942,"languages":943,"local":944,"lower":945,"made":946,"marri":947,"middle":948,"movement":949,"ob":950,"own":951,"omen":952,"omet":953,"origin":954,"pain":955,"pend":956,"political":957,"red":958,"republic":959,"religious":960,"sultan":961,"scri":962,"sever":963,"sikh":964,"states":965,"sultanate":966,"t,":967,"tre":968,"third":969,"trans":970,"ust":971,"very":972,"women":973,").":974,"2,":975,"3.":976,"4%":977,"6,":978,"7.":979,"9.":980,"ath":981,"ades":982,"aman":983,"animal":984,"areas":985,"bir":986,"bjp":987,"bod":988,"bra":989,"bre":990,"cap":991,"cial":992,"cru":993,"cur":994,"civil":995,"country":996,"da":997,"ds":998,"depend":999,"democ":1000,"diff":1001,"div":1002,"ep":1003,"ecially":1004,"econd":1005,"educ":1006,"english":1007,"esp":1008,"especially":1009,"ety":1010,"european":1011,"fast":1012,"fig":1013,"found":1014,"formed":1015,"ganges":1016,"grew":1017,"hindi":1018,"hru":1019,"hy":1020,"ic,":1021,"ild":1022,"increasing":1023,"ing,":1024,"isl":1025,"ity,":1026,"ives":1027,"ka":1028,"ling":1029,"literac":1030,"men":1031,"mi":1032,"mon":1033,"market":1034,"mathematic":1035,"ments":1036,"nolog":1037,"nehru":1038,"ose":1039,"occup":1040,"official":1041,"ogra":1042,"ograph":1043,"organ":1044,"ped":1045,"painting":1046,"parliamentary":1047,"prov":1048,"rul":1049,"rel":1050,"remain":1051,"second":1052,"scul":1053,"sculpt":1054,"sho":1055,"ste":1056,"tal":1057,"ti":1058,"tur":1059,"ty":1060,"technolog":1061,"ually":1062,"und":1063,"ven":1064,"0%":1065,"1947,":1068,"4.":1069,"6.":1072,"7%":1073,"8.":1074,"administ":1075,"although":1076,"alled":1077,"amil":1078,"ances":1079,"andaman":1080,"ants":1081,"art,":1082,"ating":1083,"back":1084,"bh":1085,"become":1086,"body":1087,"buddh":1088,"buddhist":1089,"c.":1090,"cess":1091,"ck":1092,"clo":1093,"centuries":1094,"ched":1095,"china":1096,"compos":1097,"commer":1098,"contain":1099,"created":1100,"den":1101,"dp":1102,"defin":1103,"dest":1104,"decl":1105,"diverse":1106,"eth":1107,"earli":1108,"ecut":1109,"ed,":1110,"education":1111,"ember":1112,"endem":1113,"enins":1114,"ere":1115,"ers,":1116,"execut":1117,"expor":1118,"fact":1119,"fied":1120,"five":1121,"four":1122,"fur":1123,"federal":1124,"ficant":1125,"foreign":1126,"further":1127,"gdp":1128,"go":1129,"geograph":1130,"grou":1131,"group":1132,"head":1133,"here":1134,"ide":1135,"ip":1136,"ice":1137,"import":1138,"indians":1139,"ions":1140,"islam":1141,"istic":1142,"kingdom":1143,"lands":1144,"left":1145,"liber":1146,"loy":1147,"longer":1148,"mit":1149,"nal":1150,"nificant":1151,"o,":1152,"ok":1153,"os":1154,"often":1155,"ould":1156,"penins":1157,"prom":1158,"persi":1159,"play":1160,"popular":1161,"quent":1162,"rates":1163,"ra,":1164,"regional":1165,"rise":1166,"sist":1167,"sequent":1168,"serv":1169,"sive":1170,"significant":1171,"southeast":1172,"southern":1173,"styl":1174,"sum":1175,"supp":1176,"tamil":1177,"til":1178,"term":1179,"three":1180,"traditional":1181,"use":1182,"until":1183,"ure,":1184,"va":1185,"valle":1186,"viol":1187,"wa":1188,"way":1189,"won":1190,"well":1191,"whose":1192,"ya":1193,"yan":1194,"-d":1195,"0s,":1196,"1%":1197,"3%":1199,"3,":1200,"9%":1201,"ade":1202,"ablish":1203,"about":1204,"ale":1205,"alli":1206,"along":1207,"als":1208,"alth":1209,"ank":1210,"and,":1211,"angered":1212,"anted":1213,"ara":1214,"ard":1215,"arn":1216,"around":1217,"asia,":1218,"asian":1219,"ative":1220,"att":1221,"bhar":1222,"ble":1223,"bor":1224,"bro":1225,"before":1226,"bharat":1227,"birth":1228,"brah":1229,"cav":1230,"cens":1231,"clim":1232,"cri":1233,"capit":1234,"ce,":1235,"census":1236,"char":1237,"che":1238,"chool":1239,"coalition":1240,"comple":1241,"conduc":1242,"consi":1243,"consider":1244,"continu":1245,"cooked":1246,"curren":1247,"ders":1248,"development":1249,"disp":1250,"dist":1251,"differ":1252,"disput":1253,"ek":1254,"every":1255,"earliest":1256,"eight":1257,"election,":1258,"emper":1259,"employ":1260,"enac":1261,"endangered":1262,"er,":1263,"establish":1264,"estim":1265,"exter":1266,"executive":1267,"external":1268,"famili":1269,"glo":1270,"gup":1271,"get":1272,"ghat":1273,"gradu":1274,"graph":1275,"growing":1276,"hav":1277,"hou":1278,"held":1279,"i-":1280,"ians":1281,"iz":1282,"ility":1283,"important":1284,"independ":1285,"influenced":1286,"ings":1287,"ise":1288,"ived":1289,"just":1290,"janu":1291,"january":1292,"kash":1293,"kno":1294,"known":1295,"lf":1296,"line":1297,"leading":1298,"lid":1299,"literacy":1300,"mary":1301,"member":1302,"mult":1303,"mid-":1304,"nic":1305,"now":1306,"ods":1307,"off":1308,"ors":1309,"pical":1310,"ple":1311,"pp":1312,"pr":1313,"pra":1314,"ption":1315,"peninsular":1316,"persian":1317,"place":1318,"plateau":1319,"poin":1320,"polic":1321,"present":1322,"president":1323,"produc":1324,"ram":1325,"ration":1326,"rich":1327,"read":1328,"recor":1329,"reg":1330,"religions":1331,"resp":1332,"rock":1333,"ross":1334,"school":1335,"sec":1336,"sim":1337,"sit":1338,"sanskrit,":1339,"sett":1340,"spe":1341,"spor":1342,"spread":1343,"species,":1344,"str":1345,"stru":1346,"style":1347,"subsequent":1348,"surv":1349,"system,":1350,"time":1351,"times":1352,"treat":1353,"ual":1354,"vari":1355,"vast":1356,"vill":1357,"vis":1358,"wan":1359,"wild":1360,"west,":1361,"when":1362,"widely":1363,"worn":1364,"-dram":1365,"-dramas":1366,"0,000":1367,"1950,":1370,"2%":1371,"4,":1375,"5%":1376,"8,":1378,"adi":1379,"ah":1380,"ai":1381,"aver":1382,"ability":1383,"abl":1384,"ably":1385,"across":1386,"adv":1387,"aff":1388,"afric":1389,"africa":1390,"again":1391,"ago.":1392,"agricultural":1393,"agriculture":1394,"ained":1395,"aking":1396,"aksh":1397,"ali":1398,"alliance":1399,"amental":1400,"apon":1401,"appro":1402,"approx":1403,"approxim":1404,"approximately":1405,"ar,":1406,"arab":1407,"aries":1408,"arma":1409,"archit":1410,"architect":1411,"aren":1412,"areas.":1413,"armace":1414,"armaceut":1415,"armaceutical":1416,"artic":1417,"associ":1418,"astri":1419,"ata":1420,"atical":1421,"band":1422,"bs":1423,"bu":1424,"bution":1425,"bce,":1426,"below":1427,"biodiversity":1428,"buddhism":1429,"called":1430,"ces":1431,"crit":1432,"ction":1433,"cu":1434,"cy,":1435,"change":1436,"changes":1437,"cities":1438,"civilisation":1439,"commercial":1440,"commonly":1441,"compan":1442,"composed":1443,"consist":1444,"conso":1445,"conducted":1446,"consolid":1447,"constitutional":1448,"continued":1449,"contribut":1450,"contribution":1451,"cooking":1452,"crust":1453,"culture.":1454,"dances":1455,"down":1456,"dri":1457,"dance-dramas":1458,"decades":1459,"democr":1460,"democratic":1461,"developed":1462,"dian":1463,"dish":1464,"dit":1465,"different":1466,"directly":1467,"dominion":1468,"dravi":1469,"dravidian":1470,"e.":1471,"equ":1472,"ective":1473,"elected":1474,"elit":1475,"ell":1476,"elections":1477,"emergen":1478,"ener":1479,"ensive":1480,"enacted":1481,"energ":1482,"energy":1483,"ert":1484,"esi":1485,"established":1486,"estimated":1487,"etwork":1488,"expand":1489,"express":1490,"extant":1491,"fem":1492,"fund":1493,"families":1494,"features":1495,"figures":1496,"forms":1497,"fundamental":1498,"gon":1499,"ghts":1500,"global":1501,"gradually":1502,"greek":1503,"greater":1504,"guj":1505,"hab":1506,"han":1507,"his":1508,"hu":1509,"himalayas":1510,"hinduism":1511,"hinduism,":1512,"hindust":1513,"hindustan":1514,"house":1515,"i.":1516,"ily":1517,"ided":1518,"ines,":1519,"ining":1520,"inn":1521,"intro":1522,"invol":1523,"inct":1524,"indigen":1525,"influence":1526,"international":1527,"ion,":1528,"islat":1529,"iss":1530,"ism.":1531,"ission":1532,"ken":1533,"kashm":1534,"kashmir":1535,"kingdoms":1536,"la":1537,"lay":1538,"languag":1539,"legislat":1540,"mall":1541,"mb":1542,"mig":1543,"maur":1544,"mathematics":1545,"meat":1546,"minister.":1547,"network":1548,"nom":1549,"oper":1550,"otion":1551,"old":1552,"oldest":1553,"ory":1554,"oul":1555,"pass":1556,"pur":1557,"pakistan.":1558,"partition":1559,"pharmaceutical":1560,"plac":1561,"pot":1562,"ported":1563,"portion":1564,"port.":1565,"pract":1566,"president,":1567,"primary":1568,"punjab,":1569,"qual":1570,"reach":1571,"reduced":1572,"refer":1573,"renew":1574,"recorded":1575,"regions":1576,"relations":1577,"reser":1578,"result":1579,"resulting":1580,"right":1581,"rights":1582,"rule.":1583,"saf":1584,"sched":1585,"sine":1586,"small":1587,"sculpture":1588,"secular":1589,"several":1590,"she":1591,"show":1592,"singh":1593,"single":1594,"soon":1595,"south-":1596,"species":1597,"st-":1598,"suppli":1599,"test":1600,"tu":1601,"tax":1602,"technology":1603,"third-largest":1604,"thought":1605,"took":1606,"tou":1607,"touch":1608,"trade":1609,"traditionally":1610,"tropical":1611,"turned":1612,"une":1613,"uni":1614,"untouch":1615,"upper":1616,"ured":1617,"valley":1618,"vention":1619,"violence":1620,"went":1621,"writ":1622,"waist":1623,"weapon":1624,"where":1625,"wildlife":1626,"within":1627,"\".":1628,"(c.":1629,"(i":1630,");":1631,"-oper":1632,"1st":1634,"1,000":1635,"13th":1636,"19th":1638,"1950s,":1639,"1951,":1640,"1965,":1641,"1991,":1643,"26%":1645,"20th":1647,"2011,":1648,"6th":1651,"8%":1652,"9,":1653,"aic":1655,"abad":1656,"abh":1657,"ables,":1658,"acter":1659,"action":1660,"added":1661,"addition":1662,"adher":1663,"adop":1664,"adesh":1665,"administrat":1666,"ago,":1667,"al,":1668,"ales":1669,"als,":1670,"alwar":1671,"allav":1672,"ally,":1673,"am,":1674,"ammal":1675,"amee":1676,"ameez":1677,"ample":1678,"anag":1679,"anch":1680,"another":1681,"ans.":1682,"anced":1683,"ands":1684,"anged":1685,"angl":1686,"angladesh":1687,"appoin":1688,"appear":1689,"arat":1690,"arav":1691,"aro,":1692,"arabian":1693,"armies":1694,"aryan":1695,"asho":1696,"asse":1697,"ashoka":1698,"asia.":1699,"assert":1700,"assemb":1701,"assembly":1702,"ata,":1703,"aten":1704,"atom":1705,"ats":1706,"avour":1707,"average":1708,"aws":1709,"bangladesh":1710,"bar":1711,"bay":1712,"bes":1713,"bon":1714,"bri":1715,"basin":1716,"bce.":1717,"being":1718,"beli":1719,"bell":1720,"belong":1721,"becom":1722,"becoming":1723,"belief":1724,"bellion":1725,"bodi":1726,"brahma":1727,"breath":1728,"broad":1729,"buddha":1730,"came":1731,"ced":1732,"cen":1733,"cle":1734,"could":1735,"cric":1736,"cul":1737,"cut":1738,"cy.":1739,"cause":1740,"capita":1741,"ce.":1742,"cean":1743,"censu":1744,"census,":1745,"centuries,":1746,"century.":1747,"chain":1748,"chol":1749,"chur":1750,"character":1751,"china,":1752,"chos":1753,"chosen":1754,"churid":1755,"churidar":1756,"classical,":1757,"climate":1758,"cloth":1759,"co-oper":1760,"cog":1761,"coastal":1762,"cogn":1763,"colon":1764,"colonial":1765,"comprom":1766,"compromise":1767,"conce":1768,"consists":1769,"constitu":1770,"constituent":1771,"contains":1772,"contributions":1773,"cricket":1774,"crucial":1775,"cuis":1776,"cultural":1777,"cultures":1778,"daro,":1779,"dro":1780,"decade":1781,"deccan":1782,"demograph":1783,"democra":1784,"demographics":1785,"devotion":1786,"dient":1787,"discri":1788,"dise":1789,"diction":1790,"discrimin":1791,"disputes":1792,"domest":1793,"domestic":1794,"drain":1795,"due":1796,"eff":1797,"eign":1798,"ely":1799,"eval":1800,"east.":1801,"economy.":1802,"ector":1803,"ement":1804,"emergency,":1805,"emple":1806,"empire.":1807,"employed":1808,"enj":1809,"ending":1810,"enjo-":1811,"enjo-daro,":1812,"enter":1813,"epic":1814,"era":1815,"ers.":1816,"etic":1817,"example":1818,"exchange":1819,"export":1820,"expans":1821,"expanding":1822,"extensive":1823,"fall":1824,"fr":1825,"fron":1826,"ful":1827,"figure":1828,"folk":1829,"follow":1830,"form,":1831,"formal":1832,"formation":1833,"gas":1834,"ger":1835,"gth":1836,"gave":1837,"government,":1838,"governments":1839,"green":1840,"guard":1841,"gujarat":1842,"gupta":1843,"ham":1844,"henjo-daro,":1845,"hor":1846,"habit":1847,"habitat":1848,"having":1849,"heredit":1850,"himalayan":1851,"history":1852,"ile":1853,"ict":1854,"ilomet":1855,"ilway":1856,"ilometres":1857,"imes":1858,"immedi":1859,"immediately":1860,"inated":1861,"incom":1862,"init":1863,"instit":1864,"increasingly":1865,"indon":1866,"independence":1867,"indira":1868,"indigenous":1869,"indo-aryan":1870,"indonesi":1871,"industri":1872,"industry":1873,"ine.":1874,"inequal":1875,"institution":1876,"introduced":1877,"is.":1878,"island":1879,"isol":1880,"islamic":1881,"itions":1882,"ivity":1883,"jam":1884,"ject":1885,"janata":1886,"kameez":1887,"kes":1888,"kilometres":1889,"ks":1890,"key":1891,"lal":1892,"laws":1893,"less":1894,"lin":1895,"ls":1896,"language\"":1897,"language,":1898,"latter":1899,"leve":1900,"leader,":1901,"like":1902,"liberal":1903,"loose":1904,"loss":1905,"mammal":1906,"mor":1907,"myan":1908,"makes":1909,"may":1910,"maint":1911,"manus":1912,"manuscri":1913,"marg":1914,"marked":1915,"marriages":1916,"mathematical":1917,"maurya":1918,"meas":1919,"medieval":1920,"merch":1921,"mi)":1922,"migration":1923,"ministers.":1924,"mitted":1925,"mohenjo-daro,":1926,"moist":1927,"movement.":1928,"much":1929,"multi-":1930,"myanmar":1931,"na":1932,"name":1933,"nar":1934,"nda":1935,"near":1936,"natal":1937,"nei":1938,"nicob":1939,"northeast":1940,"ocean":1941,"office":1942,"ometimes":1943,"open":1944,"oral":1945,"oro":1946,"organisation":1947,"originally":1948,"oulder":1949,"overeign":1950,"pallav":1951,"past":1952,"pat":1953,"pet":1954,"pts":1955,"put":1956,"painting,":1957,"parliament.":1958,"partic":1959,"parts":1960,"peace":1961,"ples":1962,"placed":1963,"played":1964,"pover":1965,"politics":1966,"populous":1967,"practic":1968,"predomin":1969,"process":1970,"prot":1971,"protec":1972,"protected":1973,"provided":1974,"range":1975,"round":1976,"railway":1977,"raj":1978,"rap":1979,"rather":1980,"rebellion":1981,"recent":1982,"recogn":1983,"rest":1984,"reven":1985,"reached":1986,"regions.":1987,"related":1988,"remaining":1989,"rength":1990,"resident":1991,"resol":1992,"respon":1993,"revenu":1994,"revenues":1995,"rid":1996,"rig":1997,"rising":1998,"role":1999,"s;":2000,"sari":2001,"sector":2002,"sil":2003,"slow":2004,"smo":2005,"sometimes":2006,"sovereign":2007,"sri":2008,"safe":2009,"schedul":2010,"scheduled":2011,"script":2012,"self":2013,"separ":2014,"setting":2015,"sha":2016,"shalwar":2017,"share":2018,"shor":2019,"side":2020,"six":2021,"signed":2022,"societ":2023,"south,":2024,"spic":2025,"sports":2026,"still":2027,"stre":2028,"strength":2029,"states,":2030,"status":2031,"strong":2032,"struct":2033,"styles":2034,"subcontinent,":2035,"summer":2036,"supported":2037,"system.":2038,"tak":2039,"temper":2040,"temple":2041,"text":2042,"ty,":2043,"territories":2044,"th-largest":2045,"thar":2046,"thor":2047,"those":2048,"then":2049,"them.":2050,"time,":2051,"today":2052,"total":2053,"town":2054,"transmitted":2055,"tribal":2056,"ung":2057,"unit":2058,"untouchability":2059,"upa":2060,"urred":2061,"urbanisation":2062,"ush":2063,"ute":2064,"varn":2065,"vict":2066,"veget":2067,"viet":2068,"village":2069,"would":2070,"ward":2071,"wealth":2072,"wear":2073,"world.":2074,"written":2075,"ya,":2076,"year.":2077,"ze":2078,"–201":2079,"\")":2080,"(2":2081,"(artic":2082,"(including":2083,"(ἰ":2084,"(2)":2085,"(ii":2086,"(ἰν":2087,"(ἰνδ":2088,"-body":2089,"-day":2090,"-des":2091,"-ga":2092,"-growing":2093,"-k":2094,"-majority":2095,"-sc":2096,"-style":2097,"-year":2098,"-gather":2099,"-gatherers,":2100,"-kn":2101,"-knit":2102,"-scale":2103,"00–":2104,"1%.":2105,"10,":2106,"12.":2108,"14%":2110,"16.":2111,"1.1":2112,"1.2":2113,"1.3":2114,"1.5":2115,"10th":2116,"17th":2117,"18th":2118,"1950.":2119,"1971,":2122,"1999.":2123,"2%.":2124,"2.8":2127,"2001,":2128,"2008,":2130,"2010.":2132,"2022,":2135,"2023.":2136,"2026,":2137,"39%":2142,"40%":2144,"46%":2146,"55,":2147,"55.":2148,"55,000":2149,"70%":2151,"7th":2152,"7.5%":2153,"8–":2155,"9%.":2156,"adem":2157,"aem":2158,"ahar":2159,"ail":2160,"aim":2161,"aism,":2162,"aj":2163,"az":2164,"aː":2165,"abo":2166,"abs":2167,"abha,":2168,"above":2169,"access":2170,"accoun":2171,"aci":2172,"acket":2173,"achaem":2174,"achaemen":2175,"ackb":2176,"ackbuc":2177,"ackbuck":2178,"ada":2179,"advent":2180,"adver":2181,"adwe":2182,"additional":2183,"administration":2184,"administrative":2185,"adopted":2186,"advanced":2187,"adweep":2188,"affir":2189,"affair":2190,"affirm":2191,"agan":2192,"agenc":2193,"agre":2194,"against":2195,"agreement":2196,"aharlal":2197,"aith":2198,"aiming":2199,"ajant":2200,"akers":2201,"akshadweep":2202,"akshagan":2203,"ala,":2204,"aled":2205,"alf":2206,"ally.":2207,"amed":2208,"amend":2209,"amework":2210,"amendments":2211,"amphi":2212,"amphibi":2213,"anatom":2214,"aning":2215,"anism":2216,"anagara":2217,"ances,":2218,"ance,":2219,"andar":2220,"ando":2221,"andy":2222,"andardis":2223,"andardised":2224,"andoor":2225,"animals":2226,"ankan":2227,"annual":2228,"annually":2229,"antially":2230,"ants,":2231,"aps":2232,"appli":2233,"applied":2234,"appointed":2235,"ari,":2236,"aris":2237,"arter":2238,"archaic":2239,"architecture,":2240,"are.":2241,"are:":2242,"area.":2243,"arents":2244,"arisen":2245,"arms":2246,"artis":2247,"artist":2248,"artistic":2249,"arts,":2250,"artisans":2251,"ary,":2252,"asion":2253,"asive":2254,"ass.":2255,"asians":2256,"assass":2257,"assassinated":2258,"associate":2259,"associated":2260,"astrianism":2261,"ater":2262,"ati,":2263,"ati.":2264,"atives":2265,"ativity":2266,"ator":2267,"attra":2268,"ature,":2269,"ated.":2270,"atedly":2271,"atened":2272,"aterial":2273,"ational":2274,"attle":2275,"attract":2276,"aved":2277,"aven":2278,"avoury":2279,"awaharlal":2280,"ayanagara":2281,"aye":2282,"bably":2283,"bour":2284,"br":2285,"bron":2286,"brough":2287,"bul":2288,"bai,":2289,"beg":2290,"beginn":2291,"beginnings":2292,"bercul":2293,"berculos":2294,"berculosis":2295,"bhang":2296,"bhā":2297,"bhārat":2298,"biosp":2299,"biotech":2300,"biosphere":2301,"blackbuck":2302,"bot":2303,"bonds":2304,"borders":2305,"borne":2306,"botto":2307,"bottom":2308,"brahmaput":2309,"bread":2310,"break":2311,"breathing":2312,"brief":2313,"briefly":2314,"british-style":2315,"brought":2316,"buil":2317,"buddhism,":2318,"building":2319,"bulk":2320,"cattle":2321,"cere":2322,"cil":2323,"cin":2324,"cris":2325,"cro":2326,"crow":2327,"cup":2328,"cust":2329,"cy":2330,"caus":2331,"calend":2332,"capital":2333,"carn":2334,"carved":2335,"carnatic":2336,"castes,":2337,"caste,":2338,"caste-":2339,"cavated":2340,"ce).":2341,"ceed":2342,"centage":2343,"centre":2344,"cereal":2345,"champ":2346,"chand":2347,"changed":2348,"chap":2349,"cher":2350,"chess":2351,"chha":2352,"chi":2353,"child":2354,"chri":2355,"chron":2356,"characteristic":2357,"cheet":2358,"cheetah":2359,"chhau":2360,"christ":2361,"christian":2362,"christianity,":2363,"chronic":2364,"churidars.":2365,"cities,":2366,"citiz":2367,"civili":2368,"civilian":2369,"claiming":2370,"class.":2371,"classes":2372,"cleared":2373,"climatic":2374,"close":2375,"codi":2376,"cosine":2377,"cost":2378,"cot":2379,"co-operation":2380,"coalition,":2381,"coastline":2382,"cold":2383,"coll":2384,"colleg":2385,"colleges":2386,"comfor":2387,"comfort":2388,"comfortable":2389,"commit":2390,"commerce":2391,"committe":2392,"commonwealth":2393,"comprising":2394,"companies":2395,"complex":2396,"conserv":2397,"consum":2398,"constitut":2399,"consumption":2400,"contra":2401,"contributed":2402,"council":2403,"countri":2404,"country,":2405,"country's":2406,"course":2407,"courts,":2408,"courts.":2409,"creating":2410,"creativity":2411,"critically":2412,"crust,":2413,"ctions":2414,"cups,":2415,"current":2416,"custom":2417,"dal":2418,"dates":2419,"do":2420,"doc":2421,"dre":2422,"dwan":2423,"dy":2424,"de,":2425,"defe":2426,"deleg":2427,"deter":2428,"deci":2429,"decis":2430,"decreas":2431,"decidu":2432,"deciduous":2433,"declared":2434,"decreasing":2435,"defeated.":2436,"defined":2437,"delegates":2438,"delhi,":2439,"democracy.":2440,"dense":2441,"dependent":2442,"derived":2443,"deser":2444,"desp":2445,"despre":2446,"desert,":2447,"despite":2448,"despread":2449,"devast":2450,"did":2451,"died":2452,"diment":2453,"dicts":2454,"dients":2455,"diffused":2456,"diseas":2457,"dishes":2458,"disputed":2459,"distinct":2460,"divor":2461,"diversity.":2462,"dominance":2463,"drew":2464,"drop":2465,"duce":2466,"duction":2467,"dwana,":2468,"dyn":2469,"e;":2470,"each":2471,"edicts":2472,"ele":2473,"eous":2474,"ev":2475,"event":2476,"evol":2477,"ew":2478,"ectr":2479,"economies":2480,"economy,":2481,"either":2482,"electr":2483,"election.":2484,"elections.":2485,"elites":2486,"elites,":2487,"emission":2488,"emples":2489,"emphas":2490,"emperor":2491,"emphasis":2492,"enab":2493,"ening":2494,"ence.":2495,"ended":2496,"ends":2497,"endemic":2498,"ength":2499,"ential":2500,"ently":2501,"eously,":2502,"erc":2503,"erly":2504,"erala":2505,"es)":2506,"es:":2507,"es;":2508,"ese,":2509,"essential":2510,"ets":2511,"ethical":2512,"ethnic":2513,"eticide":2514,"eticide,":2515,"etym":2516,"etymolog":2517,"etymology":2518,"europe.":2519,"evid":2520,"eventually":2521,"everyday":2522,"evidence":2523,"excavated":2524,"exerc":2525,"exist":2526,"exts":2527,"example,":2528,"existing":2529,"exported":2530,"exporter":2531,"exports":2532,"exports.":2533,"extends":2534,"extinct":2535,"extre":2536,"extensively":2537,"extreme":2538,"extremely":2539,"fac":2540,"faith":2541,"fash":2542,"fest":2543,"fi":2544,"fil":2545,"fire":2546,"fish":2547,"flo":2548,"flow":2549,"flower":2550,"foun":2551,"fre":2552,"fut":2553,"factor":2554,"family":2555,"far-":2556,"farmer":2557,"fastest":2558,"feature":2559,"female":2560,"females":2561,"feration":2562,"film":2563,"five-year":2564,"flan":2565,"flour":2566,"flourish":2567,"flowering":2568,"foeticide,":2569,"food":2570,"forti":2571,"forest,":2572,"forests,":2573,"formally":2574,"forms,":2575,"forms.":2576,"fortified":2577,"framework":2578,"front":2579,"gained":2580,"gig":2581,"give":2582,"gl":2583,"god":2584,"gods":2585,"gro":2586,"gadiverse":2587,"ganget":2588,"gangetic":2589,"garl":2590,"garment":2591,"garlic,":2592,"gdp,":2593,"geolog":2594,"gence":2595,"gender":2596,"generally,":2597,"generated":2598,"geographic":2599,"geography":2600,"ghbour":2601,"ghats,":2602,"gigaw":2603,"goods":2604,"gondwana,":2605,"gonomet":2606,"greenhouse":2607,"groom":2608,"gupt":2609,"half":2610,"hol":2611,"hom":2612,"hous":2613,"hun":2614,"harkh":2615,"health":2616,"headed":2617,"hereditary":2618,"hi,":2619,"highest":2620,"highly":2621,"himalayas,":2622,"himalayas.":2623,"hindustani":2624,"historians":2625,"historical":2626,"historically":2627,"history,":2628,"hood":2629,"host":2630,"hots":2631,"hotspot":2632,"hubs":2633,"humans":2634,"hunter":2635,"hunter-gatherers,":2636,"hym":2637,"hymn":2638,"hymns":2639,"ia":2640,"iff":2641,"ii,":2642,"icken":2643,"icon":2644,"ically,":2645,"idly":2646,"iger":2647,"ilar":2648,"iled":2649,"iling":2650,"ilitated":2651,"illed":2652,"ime":2653,"imper":2654,"imple":2655,"impro":2656,"imperial":2657,"implement":2658,"in,":2659,"in.":2660,"inal":2661,"information":2662,"inno":2663,"ins.":2664,"inste":2665,"int":2666,"inction":2667,"included":2668,"includes":2669,"income":2670,"inds":2671,"independent":2672,"indians.":2673,"indo-european":2674,"indo-gangetic":2675,"indonesia.":2676,"industr":2677,"industrial":2678,"inequality,":2679,"infection":2680,"influences":2681,"initi":2682,"innov":2683,"instead":2684,"intervention":2685,"involved":2686,"involving":2687,"iron":2688,"irt":2689,"isdiction":2690,"ises":2691,"ision":2692,"islam,":2693,"islands,":2694,"isolation":2695,"ities":2696,"itu":2697,"itude":2698,"iva":2699,"ival":2700,"iving":2701,"ively":2702,"ization":2703,"jacket":2704,"jawaharlal":2705,"jayanagara":2706,"jharkh":2707,"jo":2708,"june":2709,"jur":2710,"jainism":2711,"jainism,":2712,"jammu":2713,"jpaye":2714,"jput":2715,"jputs,":2716,"jurisdiction":2717,"kal":2718,"kar":2719,"kerala":2720,"kho":2721,"kk":2722,"ko":2723,"kur":2724,"kaver":2725,"kosi":2726,"kurta":2727,"lakshadweep":2728,"lankan":2729,"late":2730,"length":2731,"les":2732,"lon":2733,"languages,":2734,"languages.":2735,"larger":2736,"large-scale":2737,"largely":2738,"lasted":2739,"lative":2740,"later,":2741,"layer":2742,"lement":2743,"legal":2744,"legislature":2745,"level":2746,"li,":2747,"lies":2748,"liferation":2749,"live":2750,"lived":2751,"living":2752,"liberalisation":2753,"life,":2754,"limited":2755,"literary":2756,"literacy,":2757,"long-":2758,"loose-knit":2759,"lution":2760,"lying":2761,"mand":2762,"material":2763,"med":2764,"mum":2765,"mah":2766,"make":2767,"mainly":2768,"maintain":2769,"malay":2770,"males.":2771,"mammals,":2772,"manu":2773,"manufact":2774,"manuscript":2775,"marath":2776,"marit":2777,"marry":2778,"marsh":2779,"margins":2780,"markets.":2781,"marriage":2782,"married":2783,"marshy":2784,"mathematicians":2785,"meaning":2786,"medic":2787,"megadiverse":2788,"measured":2789,"meat,":2790,"men,":2791,"mental":2792,"mix":2793,"million-":2794,"mini":2795,"minor":2796,"mitt":2797,"model":2798,"modi":2799,"monsoon":2800,"mumbai,":2801,"music.":2802,"myanmar,":2803,"nav":2804,"nd":2805,"next":2806,"nin":2807,"ning":2808,"narrow":2809,"natak":2810,"nationalist":2811,"nep":2812,"neighbour":2813,"nepal":2814,"networks":2815,"newly":2816,"niqu":2817,"nicobar":2818,"nominal":2819,"nonviol":2820,"non-congress":2821,"non-pro":2822,"non-violence":2823,"non-proliferation":2824,"nonviolent":2825,"north,":2826,"north-":2827,"northwest":2828,"northwest.":2829,"notable":2830,"notably":2831,"nuclear-":2832,"numeral":2833,"numbers":2834,"numbers,":2835,"och":2836,"oted":2837,"ox":2838,"octo":2839,"occasion":2840,"occurred":2841,"occupation,":2842,"occupy":2843,"october":2844,"od,":2845,"ogam":2846,"ological":2847,"on,":2848,"only":2849,"ons":2850,"onset":2851,"oppos":2852,"orally":2853,"ord":2854,"ories":2855,"ors.":2856,"organised":2857,"organization":2858,"original":2859,"oroastrianism":2860,"osa,":2861,"others":2862,"ously":2863,"outside":2864,"overr":2865,"overran":2866,"p.":2867,"pa":2868,"panch":2869,"parents":2870,"pay":2871,"pically":2872,"push":2873,"py":2874,"paintings":2875,"pakistan)":2876,"pakistan,":2877,"partially":2878,"particular":2879,"partition.":2880,"passing":2881,"pastoral":2882,"patron":2883,"peatedly":2884,"ped.":2885,"percentage":2886,"percontinent":2887,"persist":2888,"period.":2889,"plant":2890,"planted":2891,"plain.":2892,"plains,":2893,"plate,":2894,"plate.":2895,"plateau,":2896,"pop":2897,"post-":2898,"points":2899,"pollution":2900,"policies":2901,"policy":2902,"population,":2903,"poverty":2904,"power.":2905,"princ":2906,"preme":2907,"prevent":2908,"presence":2909,"probably":2910,"proclaiming":2911,"produce":2912,"produced":2913,"proj":2914,"proportion":2915,"promin":2916,"protection":2917,"ptions,":2918,"ranges":2919,"ring":2920,"rajputs,":2921,"railways,":2922,"rajiv":2923,"rati":2924,"rate,":2925,"rece":2926,"refl":2927,"relative":2928,"repeatedly":2929,"report.":2930,"represent":2931,"rept":2932,"res,":2933,"returned":2934,"regist":2935,"regul":2936,"region.":2937,"relief":2938,"remained":2939,"renewable":2940,"res.":2941,"resour":2942,"reserv":2943,"residents":2944,"resolved":2945,"respective":2946,"response":2947,"ressed":2948,"ri,":2949,"river,":2950,"rivers,":2951,"ruled":2952,"ruling":2953,"rule,":2954,"sabha,":2955,"sant":2956,"sarn":2957,"savoury":2958,"saw":2959,"sind":2960,"son":2961,"safeguard":2962,"scen":2963,"sci":2964,"schools":2965,"sea":2966,"sea.":2967,"seals":2968,"seats":2969,"sediment":2970,"see":2971,"sex":2972,"second-largest":2973,"secular,":2974,"separat":2975,"serving":2976,"service":2977,"settled":2978,"settlement":2979,"severely":2980,"shared":2981,"shastri":2982,"ship":2983,"shiva":2984,"shoulder":2985,"shalwars":2986,"short":2987,"sia,":2988,"sikhs,":2989,"similar":2990,"simultan":2991,"simultaneously,":2992,"sites":2993,"sole":2994,"soviet":2995,"society":2996,"south.":2997,"speakers":2998,"speaking":2999,"speci":3000,"species.":3001,"spreading":3002,"standardised":3003,"stantially":3004,"stiff":3005,"stud":3006,"states.":3007,"statist":3008,"statu":3009,"state,":3010,"steamed":3011,"strongly":3012,"structure":3013,"styles,":3014,"suc":3015,"supercontinent":3016,"supreme":3017,"substantially":3018,"subsequently":3019,"supplanted":3020,"support":3021,"support.":3022,"survives":3023,"systems":3024,"tandoor":3025,"temples":3026,"texts":3027,"ti,":3028,"tic":3029,"tiger":3030,"tun":3031,"ty.":3032,"techniqu":3033,"technological":3034,"term.":3035,"territorial":3036,"territories.":3037,"territory":3038,"thail":3039,"thm":3040,"thous":3041,"that,":3042,"thes":3043,"thereafter":3044,"therefore":3045,"thorn":3046,"threatened":3047,"throughout":3048,"tibet":3049,"top":3050,"towar":3051,"towards":3052,"towns":3053,"traditions":3054,"traditions.":3055,"transformed":3056,"treaty,":3057,"trigonomet":3058,"tuberculosis":3059,"turn":3060,"uncommon":3061,"unresolved":3062,"univer":3063,"union.":3064,"unitary":3065,"urdu":3066,"ure.":3067,"usually":3068,"us$100":3069,"us$2,":3070,"v.":3071,"vary":3072,"vasive":3073,"voted":3074,"vajpaye":3075,"various":3076,"vedic":3077,"vegetari":3078,"vene":3079,"view":3080,"vijayanagara":3081,"victories":3082,"volcan":3083,"wanted":3084,"winds":3085,"wing":3086,"war,":3087,"war.":3088,"warri":3089,"web":3090,"welf":3091,"weapons":3092,"well-":3093,"what":3094,"whereas":3095,"widespread":3096,"wood,":3097,"yakshagan":3098,"years,":3099,"years;":3100,"zed":3101,"zes":3102,"zoroastrianism":3103,"\",":3104,"\"ap":3105,"\"associate":3106,"\"breath":3107,"\"bro":3108,"\"down":3109,"\"green":3110,"\"india":3111,"\"min":3112,"\"national":3113,"\"no":3114,"\"official":3115,"\"out":3116,"\"p":3117,"\"pro":3118,"\"river,":3119,"\"scheduled":3120,"\"the":3121,"\"untouch":3122,"\"..":3123,"\"...":3124,"\"aphor":3125,"\"aphorism":3126,"\"aphorisms":3127,"\"breath\"":3128,"\"broken":3129,"\"broken\"":3130,"\"downtro":3131,"\"downtrod":3132,"\"downtrodden":3133,"\"downtrodden\".":3134,"\"india\"":3135,"\"minim":3136,"\"minimum":3137,"\"outcast":3138,"\"outcastes":3139,"\"outcastes\"":3140,"\"pure":3141,"\"prostit":3142,"\"prostitut":3143,"\"prostitutes":3144,"\"pure\"":3145,"\"river,\"":3146,"\"untouchables,":3147,"\"untouchables,\"":3148,"%,":3149,"')":3150,"'.":3151,"'eight":3152,"'the":3153,"'í":3154,"(\"...":3155,"(\"breath\"":3156,"('eight":3157,"(1,":3158,"(1.3":3159,"(1967":3160,"(199":3161,"(1991":3162,"(2004":3163,"(3,":3164,"(4,":3165,"(400":3166,"([":3167,"(a":3168,"(after":3169,"(although":3170,"(an":3171,"(bhārat":3172,"(bjp":3173,"(c":3174,"(gdp":3175,"(generally,":3176,"(indian":3177,"(liter":3178,"(nda":3179,"(or":3180,"(par":3181,"(pp":3182,"(present":3183,"(sine":3184,"(upa":3185,"(us$":3186,"(who":3187,"(1,300":3188,"(1967),":3189,"(1992":3190,"(1991–":3191,"(1991–2001":3192,"(1991–2001).":3193,"(1992),":3194,"(2)).":3195,"(2004).":3196,"(3,400":3197,"(4,7":3198,"(4,700":3199,"([ɦ":3200,"([ɦɪ":3201,"([ɦɪnd":3202,"([ɦɪndʊ":3203,"([ɦɪndʊˈ":3204,"([ɦɪndʊˈst":3205,"([ɦɪndʊˈstaː":3206,"([ɦɪndʊˈstaːn":3207,"([ɦɪndʊˈstaːn]":3208,"(article":3209,"(articles":3210,"(bhārat;":3211,"(bjp);":3212,"(ca.":3213,"(gdp)":3214,"(i)":3215,"(ii)":3216,"(iii":3217,"(iii)":3218,"(literally,":3219,"(nda),":3220,"(pars":3221,"(parsis":3222,"(ppp":3223,"(ppp),":3224,"(present-day":3225,"(sine,":3226,"(upa).":3227,"(us$3.":3228,"(us$3.94":3229,"(who)":3230,"(ἰνδί":3231,"(ἰνδό":3232,"(ἰνδία":3233,"(ἰνδία);":3234,"(ἰνδός":3235,"(ἰνδός),":3236,",42":3237,",422":3238,"-ban":3239,"-borne":3240,"-castes,":3241,"-century":3242,"-defined":3243,"-dem":3244,"-derived":3245,"-di":3246,"-div":3247,"-elected":3248,"-existing":3249,"-fastest":3250,"-five":3251,"-for":3252,"-hor":3253,"-in":3254,"-income":3255,"-l":3256,"-lived":3257,"-market":3258,"-million-":3259,"-n":3260,"-origin":3261,"-own":3262,"-pastoral":3263,"-president,":3264,"-produc":3265,"-r":3266,"-rich":3267,"-round":3268,"-rule,":3269,"-se":3270,"-sh":3271,"-si":3272,"-speaking":3273,"-speci":3274,"-ti":3275,"-tre":3276,"-urban":3277,"-wing":3278,"-dand":3279,"-danda,":3280,"-descri":3281,"-design":3282,"-description":3283,"-designated":3284,"-divi":3285,"-divine":3286,"-divide,":3287,"-force).":3288,"-horse":3289,"-insp":3290,"-inspire":3291,"-inspired":3292,"-lad":3293,"-laden":3294,"-million-work":3295,"-million-worker":3296,"-nine":3297,"-owned":3298,"-producing":3299,"-rum":3300,"-round.":3301,"-rumped":3302,"-sel":3303,"-selective":3304,"-shap":3305,"-shaped":3306,"-sided":3307,"-specific":3308,"-specific—":3309,"-specific—bec":3310,"-specific—becau":3311,"-specific—because":3312,"-tier":3313,"-treated":3314,".\")":3315,".1%.":3316,".6":3317,".64%":3318,"01":3319,"01,":3320,"04%":3321,"094":3322,"0s":3323,"0s.":3324,"0–":3325,"0.4%":3326,"0.7":3327,"0.7%":3328,"00–19":3329,"00–400":3330,"00–1900":3331,"04%:":3332,"0–197":3333,"0–1975":3334,"11%":3335,"12%":3338,"13.":3340,"14.":3341,"15,":3342,"15.":3343,"16th":3345,"1%,":3346,"1,2":3347,"1,3":3348,"1,42":3349,"1,210,":3350,"1,210,193":3351,"1,210,193,422":3352,"1,380":3353,"1,428,":3354,"1,428,6":3355,"1,428,62":3356,"1,428,627,":3357,"1,428,627,6":3358,"1,428,627,663":3359,"1.2%":3360,"1.4":3361,"1.6%":3362,"1.7%":3363,"1.16%":3364,"1.24":3365,"1.54%":3366,"1.6%;":3367,"10,500":3368,"12.2%":3369,"12.6%":3370,"12.6%,":3371,"1206.":3372,"13.7%":3374,"14.2%":3376,"15(2)":3377,"15th":3380,"15.1%":3381,"16(2)).":3382,"16.1":3383,"16.6%":3384,"17)":3385,"17.64%":3386,"18%,":3390,"18,":3391,"18.1%.":3392,"1820s.":3397,"1857.":3399,"1858,":3400,"1858.":3401,"1885.":3402,"1891,":3403,"1921,":3409,"1920,":3410,"1928–":3411,"1928–2":3412,"1928–29,":3413,"1930s,":3414,"1930s.":3415,"1935,":3417,"1935.":3418,"1947.":3421,"1949.":3423,"1956,":3426,"1957,":3427,"1960s":3428,"1960s,":3429,"1962,":3431,"1962.":3432,"1964,":3434,"1966,":3435,"1967,":3436,"1962;":3437,"1964–201":3438,"1964–2014,":3439,"1970–1975":3440,"1972,":3441,"1975,":3443,"1977;":3445,"1980.":3447,"1984.":3450,"1985.":3452,"1988.":3453,"1989,":3454,"1985;":3455,"1991.":3457,"1995.":3459,"1996,":3460,"1998.":3462,"21.2":3464,"21.54%":3465,"21st":3466,"24%":3468,"24.":3469,"26,":3470,"26.":3471,"27%":3472,"27.":3473,"28.":3474,"29%.":3475,"2nd":3476,"2–201":3477,"2,094":3478,"2.0":3479,"2.14%":3480,"2.3%":3481,"2.5":3482,"2.9%":3483,"20%":3484,"20.":3485,"2020.":3487,"204.":3489,"2001.":3490,"2006,":3491,"2007,":3493,"2008–":3494,"2009.":3495,"2008–2009.":3496,"2009–201":3497,"2009–2010,":3498,"2010,":3499,"2011.":3500,"2012–201":3501,"2013.":3502,"2017,":3504,"2017.":3505,"2018.":3506,"2012–2013,":3507,"2021,":3509,"2023,":3511,"2024,":3513,"2024.":3514,"2026.":3516,"2030.":3517,"204.4":3518,"20th-century":3519,"22-million-worker":3520,"235.":3522,"235.24":3523,"24%,":3524,"24.44":3525,"2500–1900":3526,"25′":3527,"268–":3529,"26.3%":3530,"268–232":3531,"27.8":3532,"27.81%":3533,"28.7":3534,"30,000":3535,"31,":3536,"31.16%":3537,"31.2%":3538,"36%":3540,"3–":3541,"3,000":3542,"3,264":3543,"3.8":3544,"3.9":3545,"3.82%.":3546,"3.91%":3547,"30′":3549,"343–":3550,"343–35":3551,"343–351":3552,"35°":3553,"4%.":3554,"40,000":3555,"41%,":3556,"41.1":3557,"43%":3558,"45.":3560,"49.":3561,"4th":3562,"4.04%:":3563,"42%.":3564,"44′":3566,"45.8%":3567,"49.7":3568,"50,000":3569,"522-million-worker":3571,"53%":3573,"5th":3576,"5%,":3577,"5,423":3578,"5.46%":3579,"50–":3580,"50–6":3581,"50–60%":3582,"55.6%":3583,"55.8%":3584,"601,":3587,"63.82%.":3588,"65.46%":3590,"6°":3592,"6.0%":3593,"68°":3594,"700–400":3597,"72.0":3598,"74%.":3600,"74.04%:":3601,"79.":3602,"7°":3603,"7′":3604,"7%,":3605,"7,517":3606,"7.9%":3607,"70%,":3608,"79.8%":3609,"80,000":3610,"82.14%":3612,"8th":3613,"8.6%":3614,"93.91%":3616,"97°":3617,"9th":3618,"9,000":3619,"9.39%":3620,"[ˈ":3622,"[ˈb":3623,"[ˈbʱ":3624,"[ˈbʱaː":3625,"[ˈbʱaːɾ":3626,"[ˈbʱaːɾə":3627,"[ˈbʱaːɾət":3628,"[ˈbʱaːɾət]":3629,"adic":3630,"adiv":3631,"ahead":3632,"ares":3633,"athan":3634,"aud":3635,"aut":3636,"aute":3637,"aṅ":3638,"aṣ":3639,"a—":3640,"abatic":3641,"abin":3642,"abj":3643,"abol":3644,"abor":3645,"abour":3646,"abad,":3647,"abaddi":3648,"abaddi,":3649,"abhata,":3650,"abinet":3651,"abjured":3652,"abla,":3653,"abolish":3654,"abolished":3655,"aboration":3656,"absence":3657,"absol":3658,"absolute":3659,"academ":3660,"accin":3661,"accom":3662,"accompan":3663,"acity":3664,"acri":3665,"acute":3666,"acy.":3667,"academi,":3668,"accines":3669,"accommo":3670,"accommod":3671,"accommodated":3672,"accompanied":3673,"accounting":3674,"accounts":3675,"aches;":3676,"achi":3677,"achings":3678,"achis":3679,"achment":3680,"achaemenian":3681,"achaemenid":3682,"achie":3683,"achievement":3684,"achievement;":3685,"achisi":3686,"aciers":3687,"acified":3688,"acrific":3689,"acrifices":3690,"act,":3691,"actional":3692,"actionalism,":3693,"ada,":3694,"ada.":3695,"adas":3696,"adhav":3697,"adjo":3698,"administer":3699,"ado":3700,"adru":3701,"adu":3702,"adai,":3703,"adasis.":3704,"adequ":3705,"ademi":3706,"adequate":3707,"adhava.":3708,"adhered":3709,"adherent":3710,"adhering":3711,"adherents.":3712,"adi,":3713,"adily":3714,"adira":3715,"adirach":3716,"adirachta":3717,"adivasi":3718,"adjoining":3719,"administr":3720,"administration,":3721,"administrators.":3722,"adopting":3723,"adrupl":3724,"adrupled":3725,"adu;":3726,"advances":3727,"advant":3728,"advantag":3729,"advantaged":3730,"advantaged.":3731,"adverse":3732,"adversity":3733,"adversely":3734,"adversity,":3735,"af.":3736,"afgh":3737,"aflo":3738,"affected":3739,"affection":3740,"affairs,":3741,"affairs.":3742,"affirmative":3743,"afghan":3744,"afghanistan":3745,"afloor":3746,"after;":3747,"afterward":3748,"afterwards.":3749,"agement":3750,"ages.":3751,"aggl":3752,"aging":3753,"agon":3754,"agpur":3755,"agro":3756,"age,":3757,"age.":3758,"age;":3759,"agency":3760,"agency.":3761,"agglom":3762,"agglomer":3763,"agglomerations":3764,"agore":3765,"agos":3766,"agonist":3767,"agonists":3768,"agorean":3769,"agos:":3770,"agreements":3771,"agriculture.":3772,"agro-pastoral":3773,"ahism,":3774,"ahmed":3775,"ahmedabad,":3776,"ainsu":3777,"ainsukh":3778,"ainsukh.":3779,"ajanta":3780,"ajanta,":3781,"akademi":3782,"akb":3783,"akbar":3784,"ake.":3785,"ake;":3786,"akening":3787,"akh":3788,"akhi,":3789,"akti":3790,"akbar,":3791,"akbar.":3792,"akhsh":3793,"akhshali":3794,"alam,":3795,"alge":3796,"align":3797,"alised":3798,"alite":3799,"alle":3800,"allow":3801,"allowing":3802,"allu":3803,"alm":3804,"almon":3805,"almost":3806,"alo":3807,"alry":3808,"alter":3809,"alty":3810,"alty,":3811,"algebra":3812,"algebra.":3813,"alighat":3814,"aligned":3815,"all.":3816,"alleng":3817,"alling":3818,"allis.":3819,"alls":3820,"allel":3821,"allenges":3822,"allows":3823,"alluv":3824,"alluvial":3825,"alms":3826,"almond":3827,"almonds,":3828,"altern":3829,"alternately":3830,"alty—":3831,"alty—express":3832,"alty—expressed":3833,"amahism,":3834,"amarav":3835,"amb":3836,"amble":3837,"ambodi":3838,"amese,":3839,"amic":3840,"amm":3841,"amom":3842,"amon,":3843,"amples":3844,"amr":3845,"ams":3846,"ams,":3847,"amtre":3848,"amun":3849,"amanu":3850,"amanujan":3851,"amaravati,":3852,"ambitions":3853,"ambodia,":3854,"ammatical":3855,"amps.":3856,"amphibian":3857,"amphibians.":3858,"amrits":3859,"amritsar,":3860,"amtre.":3861,"amuna":3862,"an.":3863,"an;":3864,"ana":3865,"anamahism,":3866,"anand":3867,"andise":3868,"ane.":3869,"ani":3870,"anim":3871,"anis":3872,"anka":3873,"ans,":3874,"anagari":3875,"anatomically":3876,"anatomy":3877,"ancake.":3878,"ancing":3879,"anctu":3880,"ancy":3881,"anchi,":3882,"anctuaries":3883,"ander,":3884,"andm":3885,"andaman,":3886,"andamanese,":3887,"andmast":3888,"andmasters.":3889,"andson,":3890,"andyas":3891,"angam":3892,"angent":3893,"anges.":3894,"angeet":3895,"angent)":3896,"animously":3897,"animals,":3898,"anis)":3899,"ankar":3900,"ankari":3901,"anks":3902,"ankari;":3903,"annada,":3904,"annex":3905,"anning,":3906,"annexe":3907,"annually,":3908,"ans\",":3909,"anta":3910,"anti-":3911,"antic":3912,"antle":3913,"antly":3914,"antra,":3915,"anti-discrimin":3916,"anti-discriminat":3917,"anti-discriminatory":3918,"anticide":3919,"ap,":3920,"apan.":3921,"api":3922,"apti,":3923,"apiens":3924,"appa,":3925,"appare":3926,"apped":3927,"appell":3928,"appes)":3929,"apparel":3930,"appearance":3931,"appellate":3932,"appoint":3933,"appointment":3934,"aras":3935,"arb":3936,"arc":3937,"ards":3938,"arhi,":3939,"arial":3940,"arish":3941,"arj":3942,"arose":3943,"arp":3944,"arr":3945,"arra":3946,"arri":3947,"ars":3948,"ars,":3949,"arsh":3950,"arund":3951,"arā":3952,"araj":3953,"arabic":3954,"araja":3955,"arasw":3956,"araswati.":3957,"aravalli":3958,"aravallis.":3959,"arbans":3960,"archip":3961,"archived":3962,"archipel":3963,"archipelagos:":3964,"architectural":3965,"architecture.":3966,"ard;":3967,"ardhan":3968,"ardhanarish":3969,"ardhanarishv":3970,"ardhanarishvara":3971,"area,":3972,"areas,":3973,"aret":3974,"aretak":3975,"arenas,":3976,"arendra":3977,"arett":3978,"aretaker":3979,"arettes":3980,"aripp":3981,"arithm":3982,"arial,":3983,"arippay":3984,"arippayatt":3985,"arippayattu":3986,"arisen,":3987,"arisen:":3988,"arithmet":3989,"arithmetic,":3990,"arji":3991,"armada":3992,"army":3993,"arranged":3994,"array":3995,"arrived":3996,"arsha,":3997,"art.":3998,"artial":3999,"arting":4000,"arts":4001,"arts.":4002,"arteries":4003,"articles":4004,"articul":4005,"articulating":4006,"artists":4007,"artists,":4008,"arundale":4009,"aryabhata,":4010,"arāham":4011,"arāhami":4012,"arāhamihi":4013,"arāhamihira,":4014,"as:":4015,"asa":4016,"asants":4017,"asaraswati.":4018,"ascent":4019,"ases":4020,"asim":4021,"asing":4022,"asli":4023,"asp":4024,"ass,":4025,"asures":4026,"asy":4027,"ashk":4028,"ashup":4029,"ashkent":4030,"ashupat":4031,"ashupati":4032,"asiatic":4033,"asia's":4034,"asia—":4035,"asia—dates":4036,"asimha":4037,"aslila":4038,"aspect":4039,"assamese,":4040,"assing":4041,"asslands":4042,"asties,":4043,"astring":4044,"astringent":4045,"at,":4046,"atabatic":4047,"atal":4048,"atantra,":4049,"aters":4050,"ates.":4051,"atis":4052,"atite":4053,"atl":4054,"atma":4055,"atol":4056,"atop":4057,"atpur":4058,"atri":4059,"atts":4060,"atur":4061,"ature":4062,"atures":4063,"aty":4064,"ate.":4065,"atic,":4066,"ation.":4067,"ations.":4068,"atis,":4069,"ative,":4070,"atlas":4071,"atolls":4072,"atomic":4073,"atory.":4074,"atpura":4075,"atriya,":4076,"attain":4077,"atts,":4078,"attracting":4079,"attractive":4080,"aturaṅ":4081,"aturaṅga":4082,"aturaṅga;":4083,"atypically":4084,"augu":4085,"aust":4086,"author":4087,"auto":4088,"audh":4089,"audhary,":4090,"august":4091,"austral":4092,"australian":4093,"auton":4094,"auteed":4095,"authority":4096,"automo":4097,"automot":4098,"automotive":4099,"autonom":4100,"autonomy":4101,"avari,":4102,"avarsha,":4103,"avi":4104,"avily":4105,"aving":4106,"avor":4107,"avou":4108,"avur":4109,"avened":4110,"avenge":4111,"averaging":4112,"average.":4113,"avira,":4114,"avor,":4115,"avoured":4116,"away":4117,"awed":4118,"ayat":4119,"ays":4120,"azadirachta":4121,"azz":4122,"aṣṭ":4123,"aṣṭā":4124,"aṣṭād":4125,"aṣṭādhy":4126,"aṣṭādhyā":4127,"aṣṭādhyāy":4128,"aṣṭādhyāyī":4129,"a—the":4130,"bakhshali":4131,"baking":4132,"bally.":4133,"bate":4134,"bb":4135,"bed":4136,"bhas":4137,"big":4138,"bility":4139,"bin":4140,"bird":4141,"bit":4142,"bli":4143,"blo":4144,"blowing":4145,"bol":4146,"boulder":4147,"bound":4148,"bur":4149,"bust":4150,"baby":4151,"bade":4152,"bah":4153,"bahad":4154,"babylon":4155,"babylonian":4156,"babylonians.":4157,"babylonians.)":4158,"backdrop":4159,"backs":4160,"backs,":4161,"backsli":4162,"backsliding":4163,"bahá":4164,"bahadur":4165,"bahá'í":4166,"balance":4167,"balanced":4168,"balasaraswati.":4169,"baloch":4170,"balochistan":4171,"balochistan,":4172,"banned":4173,"banded,":4174,"bandh":4175,"bandhan":4176,"bandhg":4177,"bandhan,":4178,"bandhgala,":4179,"bangladesh.":4180,"bark":4181,"barle":4182,"barley":4183,"barley)":4184,"basis.":4185,"basin,":4186,"basin.":4187,"bbc":4188,"bce)":4189,"bce),":4190,"bce;":4191,"beaches;":4192,"bears":4193,"bel":4194,"best":4195,"best-":4196,"bey":4197,"bedd":4198,"beddome":4199,"beddome's":4200,"began,":4201,"began.":4202,"bel,":4203,"belief,":4204,"belief.":4205,"beliefs":4206,"below,":4207,"bengal,":4208,"bengal.":4209,"bengal;":4210,"bengali,":4211,"bengalur":4212,"bengaluru":4213,"bengaluru,":4214,"beset":4215,"best-known":4216,"beyon":4217,"beyond":4218,"bhakti":4219,"bhut":4220,"bhangra":4221,"bhangra,":4222,"bharatavarsha,":4223,"bharati":4224,"bharatnat":4225,"bharatiya":4226,"bharatnaty":4227,"bharatnatyam,":4228,"bhask":4229,"bhaskara":4230,"bhutan":4231,"bhārata":4232,"bias,":4233,"bibli":4234,"bih":4235,"bihar":4236,"biological":4237,"biqu":4238,"bibliograph":4239,"bibliography":4240,"bihari":4241,"billion.":4242,"bined":4243,"biquit":4244,"biquitous":4245,"birch":4246,"biryan":4247,"birthplace":4248,"births":4249,"births.":4250,"biryani,":4251,"bitter":4252,"bjp,":4253,"bled":4254,"blou":4255,"blurred":4256,"blackbuck,":4257,"ble.":4258,"block":4259,"blouse":4260,"blouse,":4261,"blurred,":4262,"book":4263,"bodo":4264,"bodies":4265,"bodiment":4266,"body's":4267,"bodyguard":4268,"bolly":4269,"bollywood,":4270,"book.":4271,"border":4272,"bottom,":4273,"bottom.":4274,"bounded":4275,"braries":4276,"brune":4277,"brac":4278,"bracing":4279,"brahman":4280,"brahmin":4281,"brahmagupt":4282,"brahmagupta,":4283,"brahmanism,":4284,"brahmaputra":4285,"brahmaputra,":4286,"brahmaputra.":4287,"brahmin,":4288,"bread;":4289,"breakdown":4290,"breakfast":4291,"breakdown:":4292,"bride":4293,"british,":4294,"broi":4295,"broadly":4296,"broider":4297,"broidered":4298,"bronze":4299,"bronzes":4300,"brunei,":4301,"bsite":4302,"buff":4303,"buddha.":4304,"buddhist,":4305,"buddhists.":4306,"buffalo":4307,"building,":4308,"burden":4309,"bustard;":4310,"butaries":4311,"ca,":4312,"cabinet":4313,"cake;":4314,"calls":4315,"cambodia,":4316,"camps.":4317,"capped":4318,"care.":4319,"caretaker":4320,"cases":4321,"cation":4322,"cations":4323,"cence":4324,"cended":4325,"ces,":4326,"cies":4327,"cig":4328,"cinn":4329,"cise":4330,"cited":4331,"city":4332,"city,":4333,"cked":4334,"ckey":4335,"cli":4336,"cover":4337,"cra":4338,"cres":4339,"cted":4340,"cum":4341,"cused":4342,"calcul":4343,"calcut":4344,"calculus":4345,"calcutt":4346,"calcutta,":4347,"calendar":4348,"calendr":4349,"calendrical":4350,"canada.":4351,"canalled":4352,"canals,":4353,"canon":4354,"canop":4355,"canopy":4356,"capability":4357,"capacity":4358,"carbon":4359,"card":4360,"carr":4361,"carri":4362,"carry":4363,"cardamom":4364,"carrion":4365,"carried":4366,"casts":4367,"caste.":4368,"caste-based":4369,"caste-related":4370,"cattle)":4371,"cattle.":4372,"causes":4373,"causing":4374,"cause.":4375,"cavalry":4376,"caves":4377,"caves.":4378,"ce\"":4379,"ce)":4380,"ce),":4381,"cept":4382,"ceptions,":4383,"cedent":4384,"cedented":4385,"ceeded":4386,"ceeding":4387,"census.":4388,"cent-shaped":4389,"centred":4390,"central,":4391,"centralised":4392,"centralised,":4393,"cess.":4394,"cessful":4395,"challenges":4396,"changes.":4397,"charts,":4398,"chasing":4399,"chaturaṅga;":4400,"chaudhary,":4401,"chec":4402,"chem":4403,"chen":4404,"chicken":4405,"chine.":4406,"ching":4407,"chor":4408,"chrom":4409,"chains":4410,"chains.":4411,"champion":4412,"champions":4413,"chandra":4414,"changes—":4415,"changes—among":4416,"chapati,":4417,"chapter":4418,"chapters":4419,"chapters')":4420,"charan":4421,"charter":4422,"characterised":4423,"chartered":4424,"cheap":4425,"cheesi":4426,"chewing":4427,"checked":4428,"ched.":4429,"cheetah;":4430,"chemical":4431,"chenna":4432,"chennai,":4433,"cheras":4434,"cherry":4435,"chief":4436,"chik":4437,"chicken—":4438,"chicken—cooked":4439,"chikankari;":4440,"china.":4441,"chines":4442,"china's":4443,"chinese":4444,"choic":4445,"choli,":4446,"chose":4447,"chota":4448,"choice,":4449,"chola":4450,"cholars,":4451,"cholas,":4452,"chords":4453,"chords\"":4454,"chromo":4455,"chromosome":4456,"chronicling":4457,"churidars":4458,"cies;":4459,"cigarettes":4460,"cinem":4461,"cinema,":4462,"cinnamon,":4463,"citizen":4464,"citizens":4465,"citizens.":4466,"civilisation,":4467,"civilisation.":4468,"clans,":4469,"clof":4470,"clus":4471,"classes.":4472,"clean":4473,"cliff":4474,"cliffs;":4475,"clothes":4476,"clofenac":4477,"clofenac-treated":4478,"cloth,":4479,"clothing":4480,"clusively":4481,"coher":4482,"coins.":4483,"core":4484,"cosmo":4485,"co-operation,":4486,"coal-rich":4487,"coales":4488,"coalescence":4489,"coast;":4490,"coasts":4491,"coasts.":4492,"codified":4493,"codili":4494,"codilian;":4495,"coherent":4496,"collar":4497,"color":4498,"collaboration":4499,"collision":4500,"collarless":4501,"colorado":4502,"combined":4503,"compl":4504,"commended":4505,"commission":4506,"communit":4507,"commerce;":4508,"commercialisation":4509,"commissioning":4510,"committee":4511,"committees.":4512,"committee—":4513,"committee—headed":4514,"commonwealth.":4515,"communities.":4516,"compared":4517,"compassing":4518,"compre":4519,"companies.":4520,"companies—":4521,"companies—notably":4522,"company's":4523,"company—":4524,"company—so":4525,"company—soli":4526,"company—solidi":4527,"company—solidified":4528,"complic":4529,"complement":4530,"complete":4531,"completed":4532,"complemented":4533,"complicated":4534,"composite":4535,"compositions":4536,"compreh":4537,"comprehensive":4538,"concurrent":4539,"condition":4540,"coni":4541,"conqu":4542,"consci":4543,"consequent":4544,"conspic":4545,"consu":4546,"conto":4547,"convention":4548,"concealed":4549,"concept":4550,"concepts":4551,"concurrently,":4552,"conditioning":4553,"conduct,":4554,"congres":4555,"congress,":4556,"congress\")":4557,"congress's":4558,"conifer":4559,"coniferous":4560,"conquest":4561,"consciously":4562,"consequently":4563,"conservation":4564,"conservative":4565,"considerable":4566,"considered":4567,"considering":4568,"consistently":4569,"consolidate":4570,"consolidated":4571,"consolidation":4572,"consolidations":4573,"conspicu":4574,"conspicuous":4575,"constituted":4576,"constitutes":4577,"constitution)":4578,"constitution,":4579,"constitution.":4580,"constitutional.":4581,"consumer":4582,"consumption.":4583,"contem":4584,"content":4585,"context":4586,"contempor":4587,"contemporary":4588,"contexts.":4589,"continental":4590,"continue":4591,"contour":4592,"contours.":4593,"contrast":4594,"contravene":4595,"contrasting":4596,"contributing":4597,"contributors":4598,"controlled":4599,"convention.":4600,"cooper":4601,"cooperation":4602,"coral":4603,"cordi":4604,"cori":4605,"cordial":4606,"coriander,":4607,"cosine,":4608,"cosmopolit":4609,"cosmopolitan":4610,"cott":4611,"cotta":4612,"cotton":4613,"counted":4614,"counter":4615,"counterculture.":4616,"country.":4617,"countries":4618,"countries.":4619,"courts":4620,"court,":4621,"courtes":4622,"courtesans\",":4623,"covering":4624,"craf":4625,"crafts":4626,"create":4627,"credi":4628,"cretic":4629,"credible":4630,"crescent-shaped":4631,"cribes":4632,"crises:":4633,"crisis":4634,"criter":4635,"critical":4636,"criteria":4637,"crocodilian;":4638,"cropp":4639,"cropping,":4640,"crowded":4641,"crown":4642,"crustal":4643,"ction.":4644,"cuff":4645,"cuffed":4646,"cuisine":4647,"cuisine.":4648,"cuisines,":4649,"cultur":4650,"culturally":4651,"culture,":4652,"culture;":4653,"culture—":4654,"culture—to":4655,"cumin,":4656,"curs":4657,"curta":4658,"currency":4659,"currency,":4660,"currency.":4661,"cursions":4662,"curtailed":4663,"customs.":4664,"d.":4665,"dal,":4666,"dances,":4667,"dancing":4668,"dasi":4669,"data":4670,"data,":4671,"date":4672,"dham":4673,"dho":4674,"dhol":4675,"dining":4676,"dled":4677,"dna":4678,"dog":4679,"dol":4680,"don":4681,"done":4682,"dosa,":4683,"dou":4684,"dr":4685,"dress":4686,"drough":4687,"dry":4688,"dur":4689,"daily":4690,"dawn":4691,"dalhou":4692,"dalit":4693,"dalhousi":4694,"dalhousie":4695,"dalit,":4696,"dance,":4697,"dance.":4698,"dawnings":4699,"day.":4700,"deal":4701,"death":4702,"deavor,":4703,"debate":4704,"deem":4705,"deep":4706,"def":4707,"defeat":4708,"deforest":4709,"demar":4710,"depos":4711,"deta":4712,"devi":4713,"decen":4714,"decent":4715,"decimal":4716,"declar":4717,"decol":4718,"decor":4719,"decenn":4720,"decennial":4721,"decentral":4722,"decentralisation":4723,"decentralisation,":4724,"decisions":4725,"decisively":4726,"declares":4727,"declin":4728,"decline":4729,"declining":4730,"declaration.":4731,"declined,":4732,"decolon":4733,"decolonisation":4734,"decoration,":4735,"decreasing:":4736,"deems":4737,"defence":4738,"defence,":4739,"defining":4740,"definite":4741,"definition":4742,"definitions":4743,"definitely":4744,"definitely.":4745,"deforested,":4746,"delin":4747,"deline":4748,"delta":4749,"delines.":4750,"demand,":4751,"demarcation":4752,"democracy":4753,"density":4754,"deposition":4755,"deposition,":4756,"der's":4757,"derabad":4758,"derately":4759,"derec":4760,"dering":4761,"derives":4762,"deriving":4763,"ders,":4764,"ders.":4765,"derecog":4766,"derecogni":4767,"derecognized":4768,"derness":4769,"derness;":4770,"desai":4771,"descended":4772,"describes":4773,"desert":4774,"desh":4775,"destin":4776,"destru":4777,"destinations":4778,"destruction":4779,"detail":4780,"determin":4781,"deterren":4782,"determined":4783,"deterrence\"":4784,"devadasis.":4785,"devanagari":4786,"devdasi":4787,"devastating":4788,"devastation":4789,"develop.":4790,"developed,":4791,"developing":4792,"developed;":4793,"development.":4794,"devotion,":4795,"devotional":4796,"dhamma":4797,"dhoti,":4798,"dholavira,":4799,"dia":4800,"diclofenac-treated":4801,"diers,":4802,"diox":4803,"disc":4804,"dici":4805,"diciary":4806,"dictionary,":4807,"dient,":4808,"differenc":4809,"differences.":4810,"differenti":4811,"differentiation":4812,"dings":4813,"dioxide":4814,"direction.":4815,"directions":4816,"directiv":4817,"directors":4818,"directory":4819,"directives,":4820,"disadvantaged.":4821,"disaffection":4822,"disbanded,":4823,"discontent":4824,"displaced":4825,"display":4826,"displayed":4827,"disproportion":4828,"disru":4829,"discover":4830,"discovery":4831,"discrimination,":4832,"discriminatory.":4833,"disease":4834,"disease.":4835,"disha":4836,"dishes.":4837,"disproportionately":4838,"disrupt":4839,"disruptive":4840,"distance,":4841,"distinction":4842,"distric":4843,"distinctive":4844,"distinctly":4845,"distinctions":4846,"district,":4847,"diture.":4848,"dives.":4849,"divided":4850,"divis":4851,"diverse,":4852,"diverse.":4853,"divisions":4854,"divorce":4855,"divorce.":4856,"doctr":4857,"docu":4858,"doctrine.":4859,"document":4860,"dogri,":4861,"dolph":4862,"dolphin.":4863,"domestication":4864,"dominions,":4865,"dony":4866,"donyi-":4867,"donyi-pol":4868,"donyi-polo,":4869,"doubled":4870,"dry,":4871,"draf":4872,"draped.":4873,"draw":4874,"drawn":4875,"drafted":4876,"drawstr":4877,"drawstring,":4878,"drial":4879,"drift":4880,"drive":4881,"driving":4882,"drograph":4883,"drographic":4884,"dropped":4885,"droughts":4886,"dual":4887,"ducherry":4888,"duct":4889,"durable":4890,"dynamic":4891,"dynasties,":4892,"e-market":4893,"eans.":4894,"eaten":4895,"een":4896,"eing":4897,"eld":4898,"eper":4899,"epul":4900,"ether":4901,"earth":4902,"earlier":4903,"earth.":4904,"east,":4905,"eastward":4906,"ece":4907,"ecolog":4908,"ects":4909,"ecologically":4910,"economically":4911,"economic,":4912,"economics.":4913,"economy;":4914,"ectancy":4915,"ecting":4916,"ecton":4917,"ections,":4918,"ectively":4919,"ectonic":4920,"eddings":4921,"edom":4922,"education,":4923,"efied":4924,"effect":4925,"effectively":4926,"effects":4927,"eigh":4928,"eighth":4929,"eight.":4930,"eighteen":4931,"eighty":4932,"eighty-nine":4933,"ekhar":4934,"elders.":4935,"elite":4936,"elli":4937,"elling":4938,"elped":4939,"elt":4940,"elements":4941,"eleph":4942,"elections,":4943,"electric":4944,"electrical":4945,"electricity":4946,"elephanta":4947,"elite;":4948,"ellen":4949,"ellor":4950,"ellenistic":4951,"elligence":4952,"ellora.":4953,"em,":4954,"embodiment":4955,"embracing":4956,"embroidered":4957,"emits":4958,"emerge":4959,"emerging":4960,"emerged,":4961,"emerged.":4962,"emergence":4963,"emissions,":4964,"emissions.":4965,"empi":4966,"emphasising":4967,"empires.":4968,"empire's":4969,"empire);":4970,"empire,":4971,"employing":4972,"employment":4973,"్ర":4974,"ార":4975,"లు":4976,"లో":4977,"స్":4978,"్య":4979,"న్":4980,"ది":4981,"దే":4982,"ప్ర":4983,"ిం":4984,"దేశ":4985,"ాల":4986,"ిక":4987,"ర్":4988,"భార":4989,"को":4990,"భారత":4991,"న్న":4992,"मा":4993,"ాలు":4994,"గా":4995,"ది.":4996,"्र":4997,"కు":4998,"ని":4999,"ार":5000,"వి":5001,"ాయ":5002,"క్":5003,"न्":5004,"ాత":5005,"దేశం":5006,"ాన":5007,"रू":5008,"రా":5009,"్ట":5010,"ను":5011,"र्":5012,"ండ":5013,"ము":5014,"हरू":5015,"ీయ":5016,"ద్":5017,"ిన":5018,"्य":5019,"త్":5020,"తి":5021,"भार":5022,"ల్":5023,"స్త":5024,"िक":5025,"ించ":5026,"ంత":5027,"भारत":5028,"రి":5029,"సం":5030,"ला":5031,"రు":5032,"పు":5033,"ले":5034,"ులు":5035,"స్థ":5036,"स्":5037,"ంట":5038,"ాయి":5039,"ింది.":5040,"प्र":5041,"భారతదేశం":5042,"ంలో":5043,"क्":5044,"భా":5045,"ైన":5046,"यो":5047,"ంగ":5048,"ూడ":5049,"का":5050,"ాయి.":5051,"ంగా":5052,"्व":5053,"ంది.":5054,"క్ష":5055,"गर":5056,"ధిక":5057,"వా":5058,"क्ष":5059,"సా":5060,"ఉన్న":5061,"रा":5062,"పా":5063,"ారు":5064,"ता":5065,"టి":5066,"ార్":5067,"ति":5068,"ిత":5069,"वि":5070,"్చ":5071,"ం,":5072,"या":5073,"ష్ట":5074,"కూడ":5075,"ीय":5076,"జాత":5077,"ప్రా":5078,"ित":5079,"రాజ":5080,"కో":5081,"एको":5082,"క్ర":5083,"కా":5084,"सा":5085,"చ్చ":5086,"ట్ట":5087,"ुन":5088,"నే":5089,"మొ":5090,"ङ्":5091,"ంచ":5092,"దు":5093,"नि":5094,"పే":5095,"భారతీయ":5096,"त्र":5097,"మా":5098,"యా":5099,"थि":5100,"త్వ":5101,"నా":5102,"द्व":5103,"రై":5104,"లి":5105,"यस":5106,"వ్య":5107,"సి":5108,"लाई":5109,"్ల":5110,"జాతీయ":5111,"ास":5112,"తర":5113,"రాష్ట":5114,"రాష్ట్ర":5115,"हि":5116,"వాత":5117,"ान":5118,"ారు.":5119,"గు":5120,"తో":5121,"त्":5122,"ద్ధ":5123,"ల్ల":5124,"न्द":5125,"వచ్చ":5126,"ికి":5127,"सम":5128,"ంత్ర":5129,"ना":5130,"అధిక":5131,"కొ":5132,"बा":5133,"ఖ్య":5134,"డు":5135,"वा":5136,"పాల":5137,"భారతదేశ":5138,"गर्":5139,"మైన":5140,"వే":5141,"छ।":5142,"ాలు,":5143,"नी":5144,"ండి":5145,"ఒక":5146,"यो।":5147,"కాల":5148,"డి":5149,"ेश":5150,"ణా":5151,"ద్ర":5152,"छन्":5153,"మార్":5154,"ఉంది.":5155,"ने":5156,"చే":5157,"తం":5158,"राज":5159,"దేశాల":5160,"ाल":5161,"ధ్య":5162,"వ్యవ":5163,"कार":5164,"శా":5165,"ింద":5166,"बाट":5167,"ులు,":5168,"్‌":5169,"मु":5170,"ంది":5171,"ఉన్నాయి.":5172,"सं":5173,"ఎన్న":5174,"కి":5175,"सि":5176,"టు":5177,"क्षि":5178,"న్ని":5179,"పంచ":5180,"क्षिण":5181,"పార":5182,"భారతదేశంలో":5183,"गरि":5184,"ాన్":5185,"ాబ":5186,"दक्षिण":5187,"చె":5188,"డ్":5189,"पू":5190,"ధాన":5191,"भा":5192,"పె":5193,"మార్గ":5194,"लो":5195,"ర్వ":5196,"వ్యవస్థ":5197,"ङ्ग":5198,"ిన్న":5199,"ీ,":5200,"त्त":5201,"ెండ":5202,"ంబ":5203,"भारतको":5204,"అధికార":5205,"కార":5206,"मह":5207,"కృ":5208,"కే":5209,"रूप":5210,"కూడా":5211,"शास":5212,"తు":5213,"దా":5214,"िका":5215,"మత":5216,"మొద":5217,"चि":5218,"స్తు":5219,"హింద":5220,"दी":5221,"ానికి":5222,"కర":5223,"पूर्":5224,"క్షి":5225,"ట్":5226,"भारतीय":5227,"త్య":5228,"త్ర":5229,"ारा":5230,"ద్ద":5231,"పర":5232,"गरे":5233,"పరి":5234,"द्वारा":5235,"పేరు":5236,"ప్రధాన":5237,"म्":5238,"ప్రపంచ":5239,"ప్రాంత":5240,"समा":5241,"భాష":5242,"మధ్య":5243,"हो":5244,"మీ":5245,"మే":5246,"हरूले":5247,"రాజ్య":5248,"मा,":5249,"రైలు":5250,"వర":5251,"यसको":5252,"సు":5253,"స్థాన":5254,"ल्":5255,"ి,":5256,"वर्":5257,"క్కు":5258,"క్రీ":5259,"ष्":5260,"దక్షి":5261,"దాయ":5262,"्या":5263,"దేశంలో":5264,"ప్":5265,"क्षे":5266,"పార్ట":5267,"क्षेत्र":5268,"వర్":5269,"వార":5270,"गरिएको":5271,"సభ":5272,"ాత్ర":5273,"जुन":5274,"అయ":5275,"द्वी":5276,"ఆర్":5277,"జనా":5278,"द्वीप":5279,"నాలు":5280,"ప్రజ":5281,"न्त्र":5282,"ప్రభ":5283,"ప్రభు":5284,"मुख":5285,"రెండ":5286,"రో":5287,"रूपमा":5288,"లం":5289,"श्":5290,"లా":5291,"వె":5292,"सु":5293,"హిందూ":5294,"ించింది.":5295,"ीन":5296,"ంద్ర":5297,"ఇతర":5298,"ेर":5299,"క్కువ":5300,"తరు":5301,"्रा":5302,"తా":5303,"పూ":5304,"उत्त":5305,"పో":5306,"పార్టీ":5307,"टि":5308,"పెద్ద":5309,"మన":5310,"मि":5311,"మి":5312,"महा":5313,"ముఖ్య":5314,"లకు":5315,"लाग":5316,"వీ":5317,"వు":5318,"अध":5319,"వచ్చింది.":5320,"శ్ర":5321,"आध":5322,"ష్":5323,"उत्तर":5324,"సాం":5325,"స్కృ":5326,"कृ":5327,"స్త్ర":5328,"ాల్":5329,"चिम":5330,"ించిన":5331,"थियो":5332,"ీన":5333,"ం.":5334,"देश":5335,"అతి":5336,"అయిన":5337,"न्ध":5338,"ఉంట":5339,"ఉత్":5340,"पश्":5341,"కేంద్ర":5342,"క్రీడ":5343,"पा":5344,"గర":5345,"గి":5346,"पश्चिम":5347,"గీ":5348,"पूर्व":5349,"జరి":5350,"జనాభా":5351,"भि":5352,"తరువాత":5353,"పట్ట":5354,"विध":5355,"ప్ప":5356,"ప్రభుత్వ":5357,"सह":5358,"బడ":5359,"బా":5360,"सिया":5361,"బె":5362,"బ్ర":5363,"हु":5364,"భాగ":5365,"हरूको":5366,"మహ":5367,"మార్గాలు":5368,"००":5369,"లలో":5370,"లు,":5371,"ंश":5372,"వంట":5373,"छन्।":5374,"వాణా":5375,"విధ":5376,"जन":5377,"ుకు":5378,"్యం":5379,"जस":5380,"ంగ్ర":5381,"जा":5382,"ంగ్రె":5383,"ందిన":5384,"ज्य":5385,"అనే":5386,"ఇది":5387,"था":5388,"ఎక్కువ":5389,"ఎన్నో":5390,"पहि":5391,"ఏర్":5392,"కలి":5393,"पु":5394,"కీయ":5395,"కాంగ్రె":5396,"भएको":5397,"కాలంలో":5398,"క్క":5399,"रु":5400,"గిన":5401,"र्म":5402,"గో":5403,"గ్":5404,"लागि":5405,"జన":5406,"టిక":5407,"शासन":5408,"ణం":5409,"దక్షిణ":5410,"सङ्":5411,"పాకి":5412,"ప్రదాయ":5413,"सद":5414,"ప్రస్తు":5415,"బహ":5416,"सन्":5417,"మంత్ర":5418,"మొదటి":5419,"साम":5420,"రవాణా":5421,"स्त":5422,"రాజకీయ":5423,"లను":5424,"उप":5425,"లే":5426,"సరి":5427,"कर":5428,"సిం":5429,"సాధ":5430,"कि":5431,"స్తాన్":5432,"के":5433,"ాబ్":5434,"ిల్ల":5435,"खा":5436,"్రా":5437,"ంగ్ల":5438,"टा":5439,"ండు":5440,"ండియా":5441,"तन्त्र":5442,"అత్య":5443,"त्य":5444,"అత్యధిక":5445,"ఆర్ధిక":5446,"ताब":5447,"ఇండియా":5448,"ఉప":5449,"थियो।":5450,"క్య":5451,"క్రమ":5452,"द्र":5453,"గల":5454,"చిన్న":5455,"धर्म":5456,"పతి":5457,"పై":5458,"ध्य":5459,"ప్రతి":5460,"ప్రాచ":5461,"पछ":5462,"భూ":5463,"మాన":5464,"प्रमुख":5465,"మై":5466,"యు":5467,"बढ":5468,"యో":5469,"రంగ":5470,"भारतमा":5471,"రెండు":5472,"मान":5473,"లతో":5474,"వల":5475,"वेश":5476,"విస్త":5477,"శ్":5478,"व्य":5479,"శాస్త్ర":5480,"షు":5481,"साम्रा":5482,"సంగీ":5483,"సంస్కృ":5484,"साम्राज्य":5485,"సరిహ":5486,"సిని":5487,"हरूमा":5488,"సియా":5489,"ా,":5490,"हिन्द":5491,"ావర":5492,"ాలను":5493,"ाय":5494,"ాలలో":5495,"ిత్ర":5496,"्ध":5497,"ెలు":5498,"్మ":5499,"्न":5500,"ం:":5501,"ంధ":5502,"आधुन":5503,"ంతో":5504,"ఆధ":5505,"आधुनिक":5506,"ఉత్తర":5507,"एसिया":5508,"ఏర్ప":5509,"కాలు":5510,"औँ":5511,"కర్య":5512,"కోర్":5513,"गरे,":5514,"గణ":5515,"జాబ":5516,"गर्द":5517,"జ్య":5518,"ట్ల":5519,"छ,":5520,"డిప":5521,"డ్డ":5522,"ताब्":5523,"ఢిల్ల":5524,"ణి":5525,"ताब्दी":5526,"తంత్ర":5527,"తిక":5528,"द्ध":5529,"దం":5530,"దార":5531,"न्छ।":5532,"దేశంలోని":5533,"ద్దు":5534,"न्न":5535,"ద్ధి":5536,"ధి":5537,"पछि":5538,"నడిప":5539,"నె":5540,"बङ्ग":5541,"పట్టణ":5542,"పేర్":5543,"बै":5544,"ప్పటిక":5545,"ప్రము":5546,"भू":5547,"ప్రముఖ":5548,"ప్రాంతాలు":5549,"मध्य":5550,"బహు":5551,"బెంగ":5552,"राज्य":5553,"బ్రి":5554,"ली":5555,"భిన్న":5556,"భారత్":5557,"शताब्दी":5558,"మాత్ర":5559,"మూడ":5560,"सम्":5561,"మె":5562,"మంత్రి":5563,"समावेश":5564,"ముద్ర":5565,"మొదల":5566,"स्कृ":5567,"రహ":5568,"రాష్ట్రపతి":5569,"स्ता":5570,"వై":5571,"వివిధ":5572,"स्व":5573,"శాఖ":5574,"సమా":5575,"्द":5576,"సింది.":5577,"సౌ":5578,"्री":5579,"సరిహద్దు":5580,"సామ":5581,"१९":5582,"సింధ":5583,"సౌకర్య":5584,"ँँ":5585,"స్య":5586,"స్వ":5587,"ँग":5588,"స్వా":5589,"अधिका":5590,"హార":5591,"ాల్లో":5592,"अधिकांश":5593,"ీ;":5594,"आर्":5595,"ీర్":5596,"ుకో":5597,"उपमहा":5598,"్యాయ":5599,"ంద":5600,"उपमहाद्वीप":5601,"ందు":5602,"ంటు":5603,"एँँ":5604,"అను":5605,"అభ":5606,"एक":5607,"అధికారిక":5608,"అనేక":5609,"करण":5610,"అభి":5611,"ఎక్కువగా":5612,"काल":5613,"ఒకటి":5614,"కల్":5615,"गङ्ग":5616,"కళ":5617,"కాంగ్రెసు":5618,"गङ्गा":5619,"కూడిన":5620,"గంగా":5621,"ठु":5622,"గలు":5623,"గే":5624,"णाल":5625,"గా,":5626,"చరి":5627,"णाली":5628,"చార":5629,"చైన":5630,"त्व":5631,"చరిత్ర":5632,"చేయ":5633,"थिएँँ":5634,"జరిగిన":5635,"ें":5636,"జాబిత":5637,"दे":5638,"జాబితా":5639,"టీ":5640,"धेर":5641,"టె":5642,"ట్లు":5643,"धेरै":5644,"తన":5645,"తమి":5646,"नदी":5647,"తాబ్":5648,"తూ":5649,"नाम":5650,"తమిళ":5651,"తున్న":5652,"निर्":5653,"త్తం":5654,"థిక":5655,"न्ड":5656,"దారులు,":5657,"దేశాలలో":5658,"न्या":5659,"నగర":5660,"నీ":5661,"पनि":5662,"నడిపించ":5663,"నిర్వ":5664,"प्रणाली":5665,"నిర్వహ":5666,"నుండి":5667,"ब्र":5668,"నుక":5669,"న్నాయి.":5670,"भए":5671,"పండు":5672,"పత":5673,"भाष":5674,"పద్ధ":5675,"పొ":5676,"मू":5677,"పాలన":5678,"ప్రజా":5679,"रि":5680,"ప్రపంచంలో":5681,"ప్రస్తుతం":5682,"री":5683,"ప్రాచీన":5684,"భారతదేశానికి":5685,"लि":5686,"మర":5687,"మ్య":5688,"वर्ष":5689,"మొత్తం":5690,"రూ":5691,"सँग":5692,"రైల్":5693,"రైల్వే":5694,"सबै":5695,"లు.":5696,"ళ్ల":5697,"सी":5698,"వడ":5699,"వత్":5700,"संस्कृ":5701,"వహ":5702,"వృ":5703,"समय":5704,"వంటి":5705,"వాతంత్ర":5706,"हास":5707,"వాతావర":5708,"వాతావరణం":5709,"हे":5710,"వెబ":5711,"శతాబ్":5712,"हरू,":5713,"में":5714,"సముద్ర":5715,"సర":5716,"हरूलाई":5717,"సర్వ":5718,"సార":5719,"हिन्दु":5720,"సై":5721,"సంఖ్య":5722,"हो।":5723,"స్వాతంత్ర":5724,"ాలతో":5725,"ैद":5726,"ిమ":5727,"ించే":5728,"ँच":5729,"ు.":5730,"अर्":5731,"..":5732,"1-":5733,"ంచి":5734,"कम्":5735,"ంటారు.":5736,"ంటే":5737,"केन्द":5738,"అని":5739,"అభివృ":5740,"क्ति":5741,"ఆఫ":5742,"ఆధార":5743,"खि":5744,"ఆఫ్":5745,"ఆర్థిక":5746,"ग्री":5747,"ఇవ":5748,"ఉంటాయి.":5749,"च्":5750,"కం":5751,"కల":5752,"ढा":5753,"కరణ":5754,"కారం":5755,"ण्":5756,"కార్య":5757,"కుటు":5758,"ण्ड":5759,"కుల":5760,"కుటుంబ":5761,"तर्":5762,"కేంద్రపాల":5763,"కేంద్రపాలిత":5764,"కొన్ని":5765,"तिनी":5766,"క్షరా":5767,"है":5768,"క్షరాస్య":5769,"तिहास":5770,"క్షరాస్యత":5771,"ఖండ":5772,"दु":5773,"చి":5774,"చెందిన":5775,"देखि":5776,"జన్":5777,"జి":5778,"न्दा":5779,"టం":5780,"టా":5781,"प्":5782,"టిలో":5783,"డే":5784,"पश्चिमी":5785,"డుకు":5786,"ఢిల్లీ":5787,"बन्ध":5788,"ణంగా":5789,"ణాసియా":5790,"बङ्गाल":5791,"తి,":5792,"దన":5793,"भन्दा":5794,"దీ":5795,"ద్య":5796,"भाषा":5797,"దక్షిణాన":5798,"ద్వీ":5799,"भिन्न":5800,"నాయ":5801,"న్యాయ":5802,"भूमि":5803,"నిర్":5804,"పం":5805,"పద":5806,"मक":5807,"పశ":5808,"పాత్ర":5809,"म्भ":5810,"పరంగా":5811,"పరిశ్ర":5812,"योग":5813,"పరిశ్రమ":5814,"పశ్చ":5815,"लग":5816,"పాక్":5817,"పాకిస్తాన్":5818,"लय":5819,"పాకిస్థ":5820,"పాకిస్థాన్":5821,"ल्लो":5822,"పుట్ట":5823,"పూ.":5824,"विश":5825,"పైగా":5826,"ప్రధానమంత్రి":5827,"सागर":5828,"బాద్":5829,"బెంగాల":5830,"और":5831,"स्था":5832,"బ్రిటి":5833,"భాగం":5834,"स्तान":5835,"భారతదేశపు":5836,"భారతదేశంలోని":5837,"ानमा":5838,"మల":5839,"మ్మ":5840,"ारी":5841,"మాత్రం":5842,"ము.":5843,"ेद":5844,"ముంబ":5845,"ములో":5846,"अन्":5847,"ముఖ్యమైన":5848,"మూడు":5849,"अभि":5850,"మేన":5851,"రకాల":5852,"अव":5853,"రే":5854,"अधीन":5855,"ర్య":5856,"రహదారులు,":5857,"आफ":5858,"రాజ్యాలు":5859,"రాష్ట్రాల":5860,"इतिहास":5861,"రాష్ట్రాలు":5862,"इन्ड":5863,"రైళ్ల":5864,"రోడ్":5865,"उनी":5866,"లక్ష":5867,"లోక్":5868,"उत्तरी":5869,"ల్లో":5870,"एका":5871,"వరి":5872,"से":5873,"వచ్చిన":5874,"వారస":5875,"వారి":5876,"कम्प":5877,"వి.":5878,"कम्पनी":5879,"వేగంగా":5880,"వ్యవస్థలో":5881,"किस्तान":5882,"శతాబ్దం":5883,"సూ":5884,"केन्द्र":5885,"సంఘ":5886,"ख्या":5887,"సంప్రదాయ":5888,"సంవత్":5889,"ग्":5890,"సంగీతం":5891,"సంస్కృతి":5892,"च्च":5893,"సభ్య":5894,"छन्,":5895,"సర్వీ":5896,"సాంప్రదాయ":5897,"जसले":5898,"సాధించ":5899,"సామ్రా":5900,"जात":5901,"సినిమా":5902,"ट्र":5903,"స్,":5904,"స్లా":5905,"टिस":5906,"స్థానంలో":5907,"స్వతంత్ర":5908,"ठुलो":5909,"స్వామ్య":5910,"तिक":5911,"హా":5912,"ాయు":5913,"की":5914,"तु":5915,"ాలకు":5916,"ిల్":5917,"त्मक":5918,"ిక,":5919,"ికత":5920,"थान":5921,"ిక్":5922,"थियो,":5923,"ుల":5924,"ెల":5925,"धार":5926,"ోర":5927,"(వె":5928,"धर्मको":5929,"(వెనుక":5930,"(వెనుకటి":5931,"नको":5932,".పూ.":5933,"bn":5934,"नु":5935,"isbn":5936,"ంభ":5937,"न्धु":5938,"ంగం":5939,"ంగ్లా":5940,"ంగ్లాదేశ":5941,"पाल":5942,"ంధీ":5943,"ంబూ":5944,"पहिले":5945,"అవి":5946,"అహ":5947,"पहिलो":5948,"అభివృద్ధి":5949,"ఆక్రమ":5950,"पाकिस्तान":5951,"ఆహార":5952,"ఆఫ్ఘ":5953,"ఇంగ్ల":5954,"पुरा":5955,"ఇవి":5956,"ఇస్లా":5957,"पूर्ण":5958,"ఇస్లామా":5959,"ों":5960,"ఇస్లామాబాద్":5961,"पूर्वमा":5962,"ఉండ":5963,"ఉంటు":5964,"प्त":5965,"ఉంటుంది.":5966,"ఉన్నారు.":5967,"प्रार":5968,"ఉపఖండ":5969,"ఎన్నిక":5970,"ఏర్పడ్డ":5971,"प्रारम्भ":5972,"ఒకే":5973,"కత్వ":5974,"बङ्गालको":5975,"కథ":5976,"కన్న":5977,"बढ्द":5978,"కింద":5979,"కీర్":5980,"ब्रि":5981,"కూ":5982,"కంపె":5983,"ब्रिटिस":5984,"కంపెనీ":5985,"కన్నడ":5986,"కలిగి":5987,"भाग":5988,"కలిసి":5989,"కాశ్":5990,"भारत,":5991,"కారణంగా":5992,"కార్యక్రమ":5993,"मन":5994,"కాశ్మీ":5995,"కులు":5996,"मैद":5997,"కూడుకు":5998,"కేవ":5999,"है।":6000,"కేవలం":6001,"मौ":6002,"కొన":6003,"కొని":6004,"मानव":6005,"కోట్ల":6006,"కోల్":6007,"मूल":6008,"కోర్ట":6009,"కోర్టు":6010,"यु":6011,"క్యాల":6012,"క్యాలెండ":6013,"यसलाई":6014,"క్యాలెండర్":6015,"క్రీడలు":6016,"గరికత":6017,"रकार":6018,"గాంధీ":6019,"గుర్":6020,"रहे":6021,"గువ":6022,"గుర్త":6023,"रो":6024,"గోళ":6025,"చన":6026,"राख":6027,"చాల":6028,"చిత్ర":6029,"राष्":6030,"చు":6031,"చారిత్ర":6032,"చారిత్రక":6033,"राष्ट्र":6034,"చాలా":6035,"చేసింది.":6036,"लाम":6037,"జంబూ":6038,"జరు":6039,"लेख":6040,"జాలు":6041,"జనగణ":6042,"वर्ग":6043,"జన్మ":6044,"జరుపు":6045,"జరుపుకు":6046,"विस्त":6047,"టర్":6048,"టే":6049,"विधाय":6050,"టై":6051,"ట్టమొదటి":6052,"विस्तार":6053,"డిన":6054,"पर":6055,"ణిజ్య":6056,"తంలో":6057,"व्यव":6058,"తము":6059,"తల":6060,"शताब्दीको":6061,"తులు":6062,"తె":6063,"తెలు":6064,"शासित":6065,"తే":6066,"తరువాతి":6067,"ष्ण":6068,"తాక":6069,"తిగా":6070,"सरकार":6071,"తుంది.":6072,"తెలుగు":6073,"संसद":6074,"త్వా":6075,"త్వాన్ని":6076,"దర":6077,"संस्कृति":6078,"దక్షిణాసియా":6079,"దాదా":6080,"सङ्ख्या":6081,"దాదాపు":6082,"हैं":6083,"దిన":6084,"सदन":6085,"దినాలు":6086,"దేశపు":6087,"सबैभन्दा":6088,"దేశానికి":6089,"దేశంగా":6090,"समू":6091,"ద్వార":6092,"ద్ధం":6093,"ద్వారా":6094,"समूह":6095,"ద్వీప":6096,"నది":6097,"सम्म":6098,"నాగరికత":6099,"నాలుగు":6100,"ड़":6101,"सिन्धु":6102,"నిస్తాన్":6103,"నిర్వహణ":6104,"सुरु":6105,"నుంచి":6106,"నేపాల":6107,"स्ट":6108,"న్నది.":6109,"న్నారు.":6110,"పక్ష":6111,"स्थाप":6112,"పార్":6113,"పీ":6114,"हरूद्वारा":6115,"పతకాలు":6116,"పద్ధతి":6117,"भी":6118,"हो,":6119,"పరిశ్రమలు":6120,"పాటు":6121,"ाव":6122,"పాదన":6123,"పాలించ":6124,"పీఠ":6125,"ेष":6126,"పురు":6127,"పూర్వ":6128,"्यो":6129,"పేర్లు":6130,"పొందిన":6131,"्रो":6132,"ప్పటికీ,":6133,"ప్రకారం":6134,"हैं।":6135,",००":6136,"ప్రార":6137,"ప్రజల":6138,",०००":6139,"ప్రజాస్వామ్య":6140,"ప్రతిపాదన":6141,"अण्ड":6142,"ప్రభుత్వం":6143,"अनु":6144,"ప్రారంభ":6145,"బంగ్లాదేశ":6146,"अफ":6147,"బంధ":6148,"బడ్డ":6149,"अहि":6150,"బి":6151,"तथा":6152,"బడత":6153,"अण्डमान":6154,"బడిన":6155,"अधीनमा,":6156,"బహుళ":6157,"బెంగాలీ":6158,"अफ्र":6159,"భర":6160,"భౌ":6161,"अफ्रिका":6162,"िया":6163,"భాషలు":6164,"మంది":6165,"మతి":6166,"अवध":6167,"మారు":6168,"మాలు":6169,"अवधि":6170,"మించ":6171,"आक":6172,"మూ":6173,"మౌ":6174,"ंग":6175,"आफ्न":6176,"మహా":6177,"ముంబై":6178,"आफ्नो":6179,"మైనది.":6180,"आर्द्र":6181,"మొట్టమొదటి":6182,"మొదలైన":6183,"इतिहासकार":6184,"యాలు":6185,"हा":6186,"రాజ్యా":6187,"రైళ్లను":6188,"इतिहासकारहरूले":6189,"రోడ్డు":6190,"ర్,":6191,"उपमहाद्वीपमा":6192,"ర్ష":6193,"जि":6194,"ర్‌":6195,"कटि":6196,"లిం":6197,"कु":6198,"లె":6199,"లతో,":6200,"क्र":6201,"లిచ":6202,"లేదా":6203,"कटिबन्ध":6204,"లోయ":6205,"कटिबन्धीय":6206,"ళ్":6207,"ళ్ళ":6208,"कारी":6209,"వల్ల":6210,"इस":6211,"వచ్చు.":6212,"कार्य":6213,"వడం":6214,"వర్గ":6215,"कालको":6216,"వర్ణ":6217,"क्रम":6218,"వాణిజ్య":6219,"వాహ":6220,"क्षेत्रलाई":6221,"వారసత్వ":6222,"किया":6223,"విద్య":6224,"खाड":6225,"విధ్య":6226,"खाडी":6227,"విభిన్న":6228,"వీటిలో":6229,"गण":6230,"వెబ్‌":6231,"వెబ్‌సై":6232,"गल":6233,"ंत्र":6234,"వెబ్‌సైటు":6235,"गा":6236,"వైవిధ్య":6237,"వ్యా":6238,"गणतन्त्र":6239,"వ్యాపార":6240,"శెల":6241,"गरेका":6242,"శాస్త్రం,":6243,"तक":6244,"गरेको":6245,"శాస్త్రీయ":6246,"శెలవు":6247,"गर्न":6248,"శ్రీ":6249,"ష్ణ":6250,"गर्ने":6251,"ते":6252,"సమ":6253,"गर्दछ।":6254,"సహ":6255,"సార్":6256,"ग्रीक":6257,"సులు":6258,"సే":6259,"ही":6260,"సైన":6261,"ङ्ग्र":6262,"స్ర":6263,"ङ्ग्रे":6264,"సంకీర్":6265,"సంబంధ":6266,"ंध":6267,"चाल":6268,"సంప్రదాయాలు":6269,"సంవత్సర":6270,"चीन":6271,"సమాఖ్య":6272,"छ;":6273,"సర్వీసులు":6274,"సాంస్కృ":6275,"छन्:":6276,"సాంప్రదాయిక":6277,"సాంస్కృతిక":6278,"ती":6279,"जना":6280,"సామ్రాజ్య":6281,"సింధు":6282,"जब":6283,"స్థి":6284,"స్వాతంత్ర్య":6285,"जसमा":6286,"హిమ":6287,"साथ":6288,"హై":6289,"जिक":6290,"హిందూదేశం":6291,"హిమాల":6292,"जो":6293,"హిమాలయ":6294,"जसको":6295,"ాతో":6296,"ాలనే":6297,"टाढा":6298,"ాలు.":6299,"ओं":6300,"ిస్త":6301,"तट":6302,"ించి,":6303,"तर":6304,"ీర":6305,"ీలు":6306,"तृ":6307,"ూప":6308,"ూరు":6309,"तृत्व":6310,"ెట్":6311,"त्यस":6312,"ే,":6313,"్,":6314,"त्यसपछि":6315,"गया":6316,"్వ":6317,"थप":6318,"్యా":6319,"\"భర":6320,"थिएँँ।":6321,"(0.":6322,"जी":6323,"-0":6324,"-ఢిల్లీ":6325,"-లా":6326,"-ఢిల్లీ-లా":6327,"दि":6328,"-ఢిల్లీ-లాహ":6329,"-ఢిల్లీ-లాహో":6330,"द्वारा,":6331,"...":6332,"26న":6334,"धान":6335,"नया":6338,"5-0":6339,"59-":6340,"7/":6341,"नो":6342,"cia":6343,"बाद":6344,"cee":6345,"नयाँ":6346,"factbook":6347,"ofile":6348,"profile":6349,"निन्छ।":6350,"ం;":6351,"यह":6352,"ంక":6353,"नेतृत्व":6354,"ంకా":6355,"ంగారు":6356,"ంగా,":6357,"न्याया":6358,"ంచిన":6359,"ంటి":6360,"पराज":6361,"ంటూ":6362,"ంటో":6363,"ంటుంది.":6364,"परि":6365,"ండా":6366,"्रे":6367,"ండో":6368,"पर्":6369,"ండ్":6370,"ంతర":6371,"ంతర్":6372,"पराजित":6373,"ంతర్జాతీయ":6374,"ందాయి.":6375,"पुग":6376,"ందింది.":6377,"ందుతున్న":6378,"बसे":6379,"ంలో,":6380,"पूर्वी":6381,"అంతర్జాతీయ":6382,"అక్షరాస్యత":6383,"प्रति":6384,"అణ":6385,"అన్ని":6386,"प्रदेश":6387,"అప్ప":6388,"అమె":6389,"అవ":6390,"प्रया":6391,"అతిపెద్ద":6392,"అధికారం":6393,"सबसे":6394,"प्रयोग":6395,"అమెర":6396,"అమెరిక":6397,"అయినా,":6398,"प्रशासन":6399,"ఆసియా":6400,"ఆధారప":6401,"प्रा":6402,"ఆధారపడిన":6403,"ఆఫ్ఘనిస్తాన్":6404,"ఇండో":6405,"प्रयास":6406,"ఇక్క":6407,"ఇటీ":6408,"फल":6409,"ఇదే":6410,"ఇంగ్లీ":6411,"दो":6412,"ఇంగ్లీషు":6413,"ఇతరదేశాల":6414,"ఇవిక":6415,"फार":6416,"ఈశ":6417,"ఈస్":6418,"बहु":6419,"ఈశాన":6420,"ఈశాన్య":6421,"ఈస్ట్":6422,"फारसी":6423,"ఉత్తరాన":6424,"यों":6425,"ఉపయో":6426,"बग्":6427,"ఉపయోగి":6428,"ఎడ":6429,"ఎల":6430,"बना":6431,"ఎన్నుకు":6432,"ఎన్నుకో":6433,"बन्":6434,"ఎన్నికల్లో":6435,"ఎన్నుకోబడత":6436,"रे":6437,"ఎన్నుకోబడతారు.":6438,"भग":6439,"ఎలక్":6440,"ఎలక్ట":6441,"ఎలక్టోర":6442,"भने":6443,"ఎలక్టోరల్":6444,"ंग्रे":6445,"ఏప్ర":6446,"भयो।":6447,"ఏప్రిల్":6448,"ఏర్పడ్డాయి.":6449,"ఐక్య":6450,"भारतले":6451,"ఐరో":6452,"अप":6453,"ఐరోపా":6454,"म्य":6455,"ఒలం":6456,"ఒకటిగా":6457,"ఒలంప":6458,"माण":6459,"కంటే":6460,"కను":6461,"मालय":6462,"కనుక":6463,"కబడ్డ":6464,"కలు":6465,"मुगल":6466,"बंध":6467,"కాత":6468,"కీ":6469,"म्यानमा":6470,"కనుమ":6471,"కా-ఢిల్లీ-లాహో":6472,"है,":6473,"కాపా":6474,"म्यानमार":6475,"కాహార":6476,"కాంగ్రెస్":6477,"रक्ष":6478,"కాతా":6479,"కాపాడుకు":6480,"కాపాడుకుంటూ":6481,"राजनी":6482,"కార్యక్రమాలు":6483,"కాలే":6484,"अधिक":6485,"र्ष":6486,"కాలంలో,":6487,"కిలో":6488,"కిందకు":6489,"ल्या":6490,"కిలోమీ":6491,"కిలోమీటర్":6492,"थी":6493,"लगभग":6494,"కిలోమీటర్లకు":6495,"కు,":6496,"కుడ":6497,"लामो":6498,"కులాలు,":6499,"కూడి":6500,"दिया":6501,"विक":6502,"కూడు":6503,"కూడుకొని":6504,"కూడుకుని":6505,"वै":6506,"కేతిక":6507,"కొంటు":6508,"वाद":6509,"కోట్లకు":6510,"కోర్టులు":6511,"కోల్‌":6512,"विभिन्न":6513,"కోల్‌కాతా":6514,"पार":6515,"క్కన":6516,"క్కను":6517,"క్రి":6518,"विविध":6519,"క్రీ.పూ.":6520,"ंड":6521,"క్రీడలలో":6522,"विधायिका":6523,"క్రీడా":6524,"ఖని":6525,"ఖో":6526,"विशेष":6527,"ఖనిజాలు":6528,"बी":6529,"గంగ":6530,"గత":6531,"గమన":6532,"शा":6533,"గెలు":6534,"గ్ర":6535,"शताब्दीमा,":6536,"గ్రా":6537,"विश्व":6538,"గణతంత్ర":6539,"గాన్ని":6540,"గినది.":6541,"గుబా":6542,"शासक":6543,"ये":6544,"గుబాటు":6545,"గెలుచ":6546,"शासनको":6547,"గెలుచుకో":6548,"గెలుచుకోవడం":6549,"सार":6550,"గోదా":6551,"ष्णकटिबन्धीय":6552,"గోళిక":6553,"చద":6554,"ड़ा":6555,"చయ":6556,"स्रो":6557,"చవి":6558,"చించిన":6559,"संरक्ष":6560,"చూడ":6561,"हुआ":6562,"చదరంగ":6563,"చయిత":6564,"संसदीय":6565,"చిరు":6566,"చించినట్లు":6567,"हुई":6568,"सङ्घ":6569,"చూడండి":6570,"చెందాయి.":6571,"చెందుతున్న":6572,"सन्तु":6573,"ज़":6574,"చెన్న":6575,"చెప్":6576,"समूहहरू":6577,"చెన్నై":6578,"చెప్పు":6579,"जाता":6580,"చెప్పుకో":6581,"सहरी":6582,"చైనా,":6583,"చైనాన":6584,"जिस":6585,"साझ":6586,"చైనాను":6587,"చ్చే":6588,"జమ్మ":6589,"साम्राज्यले":6590,"टी":6591,"జల":6592,"జిక,":6593,"सुधार":6594,"జీ":6595,"జో":6596,"मंत्र":6597,"జ్":6598,"हिमालय":6599,"జనతా":6600,"జనవరి":6601,"हुन्":6602,"జనగణన":6603,"सेना":6604,"జనాభ":6605,"జనాభాతో":6606,"జమ్మూ":6607,"ा,":6608,"జరిగే":6609,"हिन्दी":6610,"జరుపుకుంటారు.":6611,"ार्":6612,"జాతి":6613,"జాతులు,":6614,"టక":6615,"ित,":6616,"ोड़":6617,"టన్":6618,"టలు":6619,"ुक":6620,"టాన్":6621,"ట్ర":6622,"ंद्र":6623,"ట్‌":6624,"ेरि":6625,"టైటి":6626,"ట్రో":6627,"मिल":6628,"ట్లా":6629,"ట్లాడే":6630,"ोल":6631,"డివి":6632,"డిస్":6633,"ौँ":6634,"డుతున్న":6635,"केंद्र":6636,"ఢా":6637,"ఢాకా-ఢిల్లీ-లాహో":6638,"१६":6639,"ఢిల్లీ,":6640,"न्य":6641,"ణులు":6642,"తం,":6643,"१८":6644,"తంగా":6645,"తక్కువ":6646,"बढ़":6647,"తత్వ":6648,"१९५":6649,"తను":6650,"తర్":6651,"-पश्चिम":6652,"తీర":6653,"मी":6654,"తరాలు":6655,"తర్వాత":6656,"-पश्चिमी":6657,"తిరు":6658,"राज्यों":6659,"తిరుగుబాటు":6660,"ँछ।":6661,"తులతో":6662,"తూర్":6663,"ँद":6664,"हीं":6665,"తూర్పు":6666,"अत्य":6667,"తెలుగు,":6668,"త్తా":6669,"अर":6670,"త్రి":6671,"త్రిక":6672,"असन्तु":6673,"अन्य":6674,"థ్యం":6675,"असह":6676,"దగా":6677,"దరా":6678,"एश":6679,"अन्तर्":6680,"దర్":6681,"దరణ":6682,"अन्तर्ग":6683,"దర్శ":6684,"जाति":6685,"अन्तर्गत":6686,"దాయంలో":6687,"దుగా":6688,"अफ्रिकाबाट":6689,"దేశా":6690,"लिए":6691,"దేశీ":6692,"अभिजात":6693,"దేశం.":6694,"अभिलेख":6695,"ద్రా":6696,"वी":6697,"ధీన":6698,"నం":6699,"నిక":6700,"संघ":6701,"अरब":6702,"నూ":6703,"अर्को":6704,"నగరాలు":6705,"నాథ":6706,"अर्थ":6707,"నాయకత్వ":6708,"నిడివి":6709,"असन्तुष्":6710,"चुन":6711,"నిపు":6712,"నియ":6713,"నిపుణులు":6714,"टे":6715,"నియమించ":6716,"असन्तुष्टि":6717,"నిర్మ":6718,"देशों":6719,"असहयोग":6720,"నిర్వహించింది.":6721,"నులు,":6722,"असहयोगको":6723,"నెల":6724,"बन":6725,"నెహ":6726,"अहिले":6727,"నేరే":6728,"आइ":6729,"सै":6730,"నేపాల్,":6731,"నేరేడు":6732,"న్నీ":6733,"आकार":6734,"हैं,":6735,"పక్కన":6736,"పతాక":6737,"आइपुग":6738,"పర్వ":6739,"इन":6740,"పలు":6741,"आइपुगे":6742,"పల్ల":6743,"करने":6744,"పవి":6745,"आइपुगेका":6746,"ప్ల":6747,"आकर्ष":6748,"పండుగలు":6749,"ड़ी":6750,"పక్షం":6751,"आकर्षित":6752,"పట్టణాలు,":6753,"పరీ":6754,"आधार":6755,"పర్యాయ":6756,"था।":6757,"आर्थ":6758,"పరిపాలన":6759,"పరీక్ష":6760,"आर्थिक":6761,"పర్యాయాలు":6762,"పవిత్ర":6763,"इल्या":6764,"పశ్చి":6765,"इन्डिया":6766,"పశ్చిమ":6767,"दश":6768,"పశ్చిమాన":6769,"इन्डो":6770,"పాంతర":6771,"रहा":6772,"పావ":6773,"इन्डोने":6774,"పాకిస్థాన్,":6775,"इन्डोनेसिया":6776,"పార్ల":6777,"शु":6778,"పార్టీ,":6779,"इल्यान्ड":6780,"పార్లమె":6781,"अंग्रे":6782,"పాలనలో":6783,"इल्यान्ड,":6784,"పాలించారు.":6785,"अम":6786,"ईपू":6787,"పీఠభూ":6788,"పీఠభూమ":6789,"ईसा":6790,"పుతూ":6791,"పురుషు":6792,"उँछ।":6793,"अनुसार":6794,"పూర్":6795,"उच्च":6796,"పూర్తిగా":6797,"పేరు,":6798,"उद":6799,"పోయ":6800,"పోయింది.":6801,"उल्":6802,"इसके":6803,"ప్పటికిన":6804,"ప్పటికినీ":6805,"उष्णकटिबन्धीय":6806,"एशिया":6807,"ప్రత్య":6808,"ప్రదేశ":6809,"उदय":6810,"ప్రయో":6811,"कई":6812,"उनीहरूलाई":6813,"ప్రసి":6814,"ప్రాయ":6815,"उल्लेख":6816,"कारण":6817,"ప్రీ":6818,"ప్రజలు":6819,"ప్రజాదరణ":6820,"ऋग":6821,"क्त":6822,"ప్రతిపాదనకు":6823,"ప్రపంచములో":6824,"ऋग्व":6825,"चुनाव":6826,"ప్రపంచంలోని":6827,"ప్రభుత్వాన్ని":6828,"ప్రముఖమైన":6829,"तंत्र":6830,"ऋग्वेद":6831,"ప్రసిద్ధి":6832,"ప్రస్తుతము":6833,"नहीं":6834,"एसियाको":6835,"ప్రాంతాల్లో":6836,"ప్రాంతీయ":6837,"एसियामा":6838,"नों":6839,"ప్రారంభించ":6840,"एसियाली":6841,"ప్రీం":6842,"ఫల":6843,"पह":6844,"काङ्ग्रे":6845,"బంగారు":6846,"బు":6847,"कान":6848,"प्राचीन":6849,"బౌ":6850,"బంగ్లాదేశ్‌":6851,"विधान":6852,"బడింది.":6853,"బౌద్ధ":6854,"బ్రిటీ":6855,"सू":6856,"బ్రిటిషు":6857,"काङ्ग्रेस":6858,"బ్రిటిష్":6859,"स्थान":6860,"భక్":6861,"భవ":6862,"हुए":6863,"భాగాన్ని":6864,"कानू":6865,"భావిస్త":6866,"कार्यकारी":6867,"భారతం,":6868,"होता":6869,"భారత్‌":6870,"कालीन":6871,"భారతదేశం.":6872,"భారత్,":6873,"कॉ":6874,"कृत":6875,"భారత్‌లో":6876,"कोब":6877,"భాషలను":6878,"करोड़":6879,"భాషా":6880,"कोबार":6881,"భూటాన్":6882,"गु":6883,"భూభాగం":6884,"భౌగోళిక":6885,"गया।":6886,"क्रमश":6887,"మరో":6888,"మాత":6889,"क्रमशः":6890,"మ్":6891,"णा":6892,"మతము":6893,"खाहरू":6894,"మతాలు":6895,"धी":6896,"మనదేశం":6897,"మరం":6898,"खाडीमा":6899,"पार्":6900,"మలయా":6901,"మలయాళ":6902,"ग्द":6903,"प्रधान":6904,"మహాత":6905,"మహి":6906,"गङ्गाको":6907,"మహాసముద్ర":6908,"भाषाओं":6909,"మహాత్":6910,"गरी":6911,"మహాత్మా":6912,"मो":6913,"गरियो।":6914,"మహిళ":6915,"మాజిక,":6916,"मंत्री":6917,"गर्छन्।":6918,"మాట్లాడే":6919,"మాత్రమే":6920,"गर्यो।":6921,"लोक":6922,"మానం:":6923,"మిస్తు":6924,"संविधान":6925,"మీదగా":6926,"ము,":6927,"समें":6928,"ముడి":6929,"गर्‍":6930,"ముస్":6931,"गर्दा":6932,"ముఖ్యంగా":6933,"स्थ":6934,"ముస్లిం":6935,"మూల":6936,"हर":6937,"మే.":6938,"घेरि":6939,"మేనని":6940,"ाने":6941,"घेरिएको":6942,"మొగలు":6943,"మౌర్య":6944,"िकार":6945,"యాత్ర":6946,"चार":6947,"యుగ":6948,"రకాలు":6949,"चित":6950,"రచయిత":6951,"चौ":6952,"రీ":6953,"ंग्रेस":6954,"రాజు":6955,"चालुक":6956,"రాజ్యంగా":6957,"एव":6958,"चालुक्य":6959,"రాజ్యాంగం":6960,"రాజ్యాలుగా":6961,"छन्;":6962,"రాష్ట్రాలు,":6963,"किया।":6964,"రూపాంతర":6965,"जत्त":6966,"రెండవ":6967,"गठ":6968,"ज्":6969,"రెండో":6970,"రైల్వేశాఖ":6971,"जत्तिक":6972,"चल":6973,"ర్చు":6974,"ర్థ్యం":6975,"जत्तिकै":6976,"चुनावों":6977,"ర్షణ":6978,"जनसङ्ख्या":6979,"ర్‌ల":6980,"ढ़":6981,"లస్య":6982,"जसलाई":6983,"లీ":6984,"दशक":6985,"లౌ":6986,"जिकको":6987,"లంక":6988,"बीच":6989,"లుగా":6990,"లువ":6991,"ज्ञ":6992,"లేదు":6993,"मैदान":6994,"లో,":6995,"లోను":6996,"यन":6997,"లోక్‌":6998,"ट्":6999,"లోక్‌సభ":7000,"यू":7001,"లౌక":7002,"ठुला":7003,"ళి,":7004,"राष्ट्रीय":7005,"వం":7006,"डा":7007,"వంత":7008,"ढी":7009,"వత్రిక":7010,"व्यवस्था":7011,"వనాలు":7012,"ढाँच":7013,"వరు":7014,"संबंध":7015,"వాయు":7016,"तको":7017,"వార్":7018,"स्वतंत्र":7019,"तत":7020,"విం":7021,"వులు,":7022,"तन":7023,"వచ్చని":7024,"ई।":7025,"వరీ":7026,"तीन":7027,"వర్తి":7028,"त्या":7029,"వర్ష":7030,"వలన":7031,"तटीय":7032,"उत्":7033,"వలస":7034,"వాదం":7035,"उन":7036,"तर्क":7037,"విదేశీ":7038,"విమాన":7039,"कॉंग्रेस":7040,"तामा":7041,"విలువ":7042,"విశ":7043,"ची":7044,"ताहरूको":7045,"విశ్":7046,"जनजाति":7047,"విష":7048,"ताहरूमा":7049,"విద్యు":7050,"जाती":7051,"విద్యుత్":7052,"तिर":7053,"విషయాలు":7054,"थी।":7055,"तिनीहरू":7056,"విస్తీర్":7057,"వుతుంది.":7058,"तिनीहरूको":7059,"दा":7060,"వెల్ల":7061,"వెబ్":7062,"निर्माण":7063,"వే.":7064,"వేద":7065,"पी":7066,"त्त्व":7067,"వేల":7068,"శక":7069,"फ़":7070,"त्त्वपूर्ण":7071,"శక్":7072,"శీ":7073,"बर":7074,"శై":7075,"थार":7076,"बे":7077,"శో":7078,"శాస":7079,"बहुत":7080,"శాసన":7081,"శెలవుదినాలు":7082,"थाइल्यान्ड,":7083,"मत":7084,"సమరం":7085,"थिल्लो":7086,"సాల":7087,"में,":7088,"సిక్":7089,"थिएँँ,":7090,"సీ":7091,"लों":7092,"సె":7093,"थियो;":7094,"సంస్":7095,"संख्या":7096,"दस":7097,"సంకీర్ణ":7098,"సంఖ్యా":7099,"सैन्य":7100,"సంస్కరణ":7101,"दू":7102,"సభను":7103,"्योग":7104,"दृ":7105,"సభ్యు":7106,"సభ్యులు":7107,"दक्षिणबाट":7108,"సమాజ":7109,"ंगा":7110,"సమాఖ్య.":7111,"दसक":7112,"సముద్రతీర":7113,"कर्":7114,"సరిహద్దుగా":7115,"दी,":7116,"సహస్ర":7117,"कुल":7118,"సహస్రాబ్":7119,"సహస్రాబ్ది":7120,"गणराज्य":7121,"दुई":7122,"సామాజిక,":7123,"दर":7124,"సాహ":7125,"दुवै":7126,"సాంకేతిక":7127,"परमाण":7128,"సాధించిన":7129,"दूर":7130,"సామర్థ్యం":7131,"परमाणु":7132,"సారస్వ":7133,"दृढ":7134,"पर्व":7135,"సార్వత్రిక":7136,"సింధూ":7137,"दोस्रो":7138,"प्रधानमंत्री":7139,"సింధూనది":7140,"సినిమాలు":7141,"द्रो":7142,"मुख्य":7143,"సుప్రీం":7144,"సూచించినట్లు":7145,"लिया":7146,"సైనిక":7147,"द्रोह":7148,"సౌకర్యాలలో":7149,"वीं":7150,"సౌకర్యాలు":7151,"धनी":7152,"స్వీ":7153,"स्त्र":7154,"స్తారు":7155,"धिक":7156,"స్తులు":7157,"हुआ।":7158,"స్త్రీలు":7159,"न,":7160,"స్థావర":7161,"नका":7162,"స్థానం":7163,"िय":7164,"స్థానాలను":7165,"ोष":7166,"స్థావరాలు":7167,"స్థితి":7168,"नजिकको":7169,"ंति":7170,"స్వాతంత్ర్యం":7171,"नवी":7172,"హాకీ":7173,"ओर":7174,"హైదరా":7175,"नवीकरण":7176,"क्षेत्रीय":7177,"ామ":7178,"ాతం":7179,"गति":7180,"ాతి":7181,"निकोबार":7182,"जै":7183,"ానీ":7184,"ాయుత":7185,"जिसमें":7186,"निने":7187,"ారి":7188,"धीरे":7189,"ార్థ":7190,"निन्":7191,"ాలే":7192,"न्तु":7193,"निय":7194,"ిగా":7195,"ింది":7196,"पे":7197,"ించుకో":7198,"ికలు":7199,"परं":7200,"नियन्त्र":7201,"ిక్‌":7202,"पहले":7203,"नियन्त्रण":7204,"ౌర":7205,"్రాన్":7206,"प्राप्त":7207,"\"గ":7208,"निर्या":7209,"\"నేరేడు":7210,"\"భారతదేశం":7211,"भाज":7212,"\"గిన్న":7213,"\"గిన్నె":7214,"निर्वा":7215,"\"నేరేడు\"":7216,"युक्त":7217,"\"భరత":7218,"\"భరతు":7219,"निर्यात":7220,"\"భరతవర్ష":7221,"\"భరతవర్షం":7222,"युद्ध":7223,"\"భరతవర్షం\",":7224,"\"భరతుడు":7225,"\"భరతుడు\".":7226,"रक्षा":7227,"\"భారతదేశం\"":7228,"(17":7229,"न्छन्।":7230,"(3.":7231,"र्व":7232,"(5.":7233,"(8.":7234,"(cee":7235,"लिये":7236,"(p":7237,"न्त":7238,"(ఆ":7239,"(ఇదే":7240,"वे":7241,"(ఉ":7242,"(గి":7243,"(ట":7244,"वर्षों":7245,"(తా":7246,"न्दर्":7247,"(బ్ర":7248,"(భారత":7249,"(య":7250,"विकास":7251,"(ర":7252,"(శక":7253,"न्दि":7254,"(సా":7255,"शक्ति":7256,"(0.36%":7257,"(0.9%":7258,"(0.36%),":7259,"सक":7260,"(0.9%)":7261,"(17.":7262,"(17.2":7263,"न्दर्भ":7264,"सभा":7265,"(17.23%":7266,"(17.23%).":7267,"(3.7":7268,"समाज":7269,"(3.72%":7270,"(3.72%),":7271,"(5.3":7272,"हाला":7273,"(5.30%":7274,"(5.30%),":7275,"(8.70%":7276,"१९९":7277,"(8.70%),":7278,"न्दिर":7279,"(pin":7280,"(pin)":7281,"२००":7282,"(pin):":7283,"(ఆంగ్ల":7284,"(ఆంగ్లే":7285,"न्याय":7286,"(ఆంగ్లేయ":7287,"अपने":7288,"(ఆంగ్లేయులు":7289,"(ఆంగ్లేయులు)":7290,"न्यायपाल":7291,"(ఇదే,":7292,"(ఉదా":7293,"इंड":7294,"(ఉదా:":7295,"न्यायपालिका":7296,"(గిల్ల":7297,"(గిల్లీ":7298,"(గిల్లీ-":7299,"एँ":7300,"(గిల్లీ-ద":7301,"न्यायालय":7302,"(గిల్లీ-దండా":7303,"(గిల్లీ-దండా)":7304,"(టండ":7305,"पद":7306,"(టండ్రా":7307,"(టండ్రా)":7308,"एवं":7309,"(తామర":7310,"पि":7311,"(తామర)":7312,"(బ్రె":7313,"(బ్రెడ్":7314,"कुछ":7315,"(బ్రెడ్,":7316,"पेश":7317,"(యూ":7318,"(యూద":7319,"कों":7320,"(యూదులు,":7321,"पछिल्लो":7322,"(రాయ":7323,"(రాయల్":7324,"जान":7325,"(సాక":7326,"पश्चिममा":7327,"(సాకర్‌":7328,"जनसंख्या":7329,"(సాకర్‌)":7330,",000":7331,"-19":7332,"पाँच":7333,"-5":7334,"-7":7335,"टिश":7336,"-ఆ":7337,"पुरानो":7338,"-ఇ":7339,"ड़े":7340,"-ఖో":7341,"-టె":7342,"पेली":7343,"-దేశ":7344,"तीस":7345,"-19-5":7346,"-19-56":7347,"-19-5623":7348,"प्रभा":7349,"-19-562359-":7350,"-19-562359-2":7351,"थे":7352,"-ఆర్య":7353,"प्रशासनिक":7354,"-ఆర్యన్":7355,"-ఆర్యన్,":7356,"-ఇస్త":7357,"दल":7358,"-ఇస్తా":7359,"-ఇస్తాంబ":7360,"प्रारम्भमा,":7361,"-ఇస్తాంబు":7362,"देख":7363,"-ఇస్తాంబుల్":7364,"-ఖో,":7365,"फत":7366,"दोनों":7367,"-టెహ":7368,"-టెహ్రాన్":7369,"-టెహ్రాన్-ఇస్తాంబుల్":7370,"निभा":7371,"-దేశాలు.":7372,"फि":7373,".ఇ":7374,".ఈ":7375,".ఏ":7376,"फलस्व":7377,".కి":7378,"न्ह":7379,".మీ":7380,"...).":7381,"फलस्वरूप":7382,"न्हें":7383,".ఇ,":7384,".ఏ.ఇ,":7385,".కి.మీ":7386,"परा":7387,"/g":7388,"0-19-562359-2":7389,"बरु":7390,"000,000":7391,"पै":7392,"01,9":7393,"01,93,":7394,"बौ":7395,"01,93,42":7396,"01,93,422.":7397,"प्ले":7398,"04%,":7399,"बङ्गला":7401,"बो":7403,"1లోను":7405,"1,01,93,422.":7406,"बंधन":7407,"1-5":7408,"बङ्गलादेश":7409,"1-7":7410,"1-8":7411,"ब्रिटिश":7412,"1-900":7413,"बढ्दै":7414,"1-740":7415,"भूम":7416,"1-74059-":7417,"1-74059-42":7418,"1-74059-421-5":7419,"भूमिका":7420,"1-8-7":7421,"1-90046":7422,"1-900461-8-7":7423,"बढ्दो":7424,"लोग":7425,"10,000,000":7427,"100,000":7428,"व्या":7429,"121,01,93,422.":7430,"14%,":7432,"वायु":7433,"15న":7434,"बन्यो।":7436,"16;":7437,"स,":7438,"17;":7440,"स्य":7441,"1857లో":7444,"संग":7445,"1948లో":7447,"बरको":7448,"सदस्य":7450,"1962లో":7451,"1971లోను":7452,"1974లో,":7453,"साल":7454,"1977లో":7455,"बाढी":7456,"1991లో":7458,"स्थित":7459,"1998లో":7460,"बौद्ध":7462,"2,14%,":7463,"2,8":7464,"स्वतंत्रता":7465,"2,87,":7466,"भक्ति":7467,"2,87,26":7468,"2,87,263":7469,"हरी":7470,"भजन":7472,"2003–":7473,"2005-0":7474,"2003–2004":7475,"हाँ":7476,"2005-05-0":7477,"2005-05-07":7478,"भनिने":7479,"ाली":7481,"25%":7482,"32,87,263":7483,"िकी":7484,"3,04%,":7485,"भरि":7486,"3.80%":7487,"46)":7488,"िक्":7489,"546)":7490,"भित":7491,"5,7":7492,"5,7%.":7493,"ँकि":7494,"भु":7496,"75,7%.":7497,"7/16;":7498,"7/17;":7499,"अप्र":7500,"81-900461-8-7":7501,"82,14%,":7502,"अलग":7503,"83,04%,":7504,"83.80%":7505,"भ्य":7506,"b/g":7507,"bbc's":7508,"अपनी":7509,"c,":7510,"भए,":7511,"chine":7512,"अमेर":7513,"cia's":7514,"ethnolog":7515,"ethnologu":7516,"भए।":7517,"आधिकार":7518,"ethnologue":7519,"hz":7520,"आधिकारिक":7521,"machine":7522,"pal":7523,"इसी":7524,"profile:":7525,"report":7526,"भनेर":7527,"type":7528,"करना":7529,"v;":7530,"wayback":7531,"काम":7532,"ంజ":7533,"भाजन":7534,"ంతి,":7535,"ంథ":7536,"गंगा":7537,"ం....":7538,"भागलाई":7539,"ంకణి":7540,"ంకెలు":7541,"गठबंधन":7542,"ంకణి;":7543,"भारतका":7544,"ంకాగా":7545,"घोष":7546,"ంకెలు.":7547,"ంగల":7548,"भित्र":7549,"ంగాన":7550,"जल":7551,"ంగాళ":7552,"ంగానికి":7553,"ज़ी":7554,"ంగాళా":7555,"ంగాళాఖ":7556,"मन्दिर":7557,"ంగాళాఖాతం":7558,"जाते":7559,"ంచే":7560,"ంజూరు":7561,"जिन":7562,"ంటరీ":7563,"मरु":7564,"ంటార్":7565,"ంటైన":7566,"डी":7567,"ంటార్క్":7568,"मनस":7569,"ంటార్క్‌":7570,"डॉ":7571,"ంటార్క్‌టిక":7572,"ంటార్క్‌టికా":7573,"मनसुन":7574,"ంటార్క్‌టికాలో":7575,"तमिल":7576,"ంటిపేర్లు":7577,"ంటైనె":7578,"था,":7579,"ంటైనెర్":7580,"ంటో,":7581,"मरुभूमि":7582,"ంటోంది.":7583,"थिय":7584,"ండమ":7585,"ండయాత్ర":7586,"थियार":7587,"ండర్":7588,"महत्त्वपूर्ण":7589,"ండ్య":7590,"ండ్ల":7591,"दर्":7592,"ండమస్,":7593,"महासागर":7594,"ండయాత్రలతో,":7595,"ండి,":7596,"नव":7597,"ండిచ్చే":7598,"माथिल्लो":7599,"ండిచ్చేరి":7600,"पं":7601,"ండిచ్చేరి,":7602,"ండుట":7603,"ండుటచే":7604,"मान्छन्।":7605,"पड़":7606,"ండ్లు":7607,"ండ్యులు":7608,"परंपरा":7609,"ండ్లను":7610,"मार्":7611,"ంతటా":7612,"ంతల":7613,"ంతు":7614,"पार्टी":7615,"मानवहरू":7616,"ంతై":7617,"ంతువు":7618,"ంతువు:":7619,"प्रकार":7620,"ంథాలు":7621,"ందని":7622,"प्लेट":7623,"मार्फत":7624,"ందరూ":7625,"ందరో":7626,"ందించిన":7627,"बड़ा":7628,"ందిరా":7629,"मुस्":7630,"ందుగా":7631,"ందులో":7632,"ందువల్ల":7633,"बनी":7634,"मुस्लि":7635,"ంద్రనాథ":7636,"ంద్రనాథ్":7637,"ంబి":7638,"मुस्लिम":7639,"ంబే":7640,"ంబిళ్ళ":7641,"बने":7642,"ంబే),":7643,"ంలో)":7644,"भाजपा":7645,"ంలోని":7646,"मैदानमा":7647,"అంకెలు.":7648,"అంటారు.":7649,"युग":7650,"అంటార్క్‌టికాలో":7651,"అంటే":7652,"मौर्":7653,"అందరూ":7654,"అందించిన":7655,"लं":7656,"అక్ష":7657,"मौर्य":7658,"అఖండ":7659,"అది":7660,"वल":7661,"అద్ద":7662,"यी":7663,"అధి":7664,"అధీన":7665,"वर्त":7666,"అన్న":7667,"అమల":7668,"विदेश":7669,"అర":7670,"यसले":7671,"అరు":7672,"అరే":7673,"शी":7674,"అల":7675,"అలం":7676,"सित":7677,"అల్":7678,"అవర":7679,"అశో":7680,"संयुक्त":7681,"అస్":7682,"అక్షర":7683,"सेवा":7684,"అక్షరబ":7685,"అక్షరబద్ధం":7686,"అణు":7687,"स्तर":7688,"అణ్వ":7689,"అణ్వస్త్ర":7690,"हथियार":7691,"అతిముఖ్యమైన":7692,"यो,":7693,"అతివేగంగా":7694,"అతిశీ":7695,"हालाँकि":7696,"అతిశీతల":7697,"रहेका":7698,"అత్యధికంగా":7699,"ृत":7700,"అద్దం":7701,"అధిగ":7702,"२०":7703,"అధికారంలో":7704,"అధికారక":7705,"అధికారా":7706,"ंट":7707,"అధికారాలు":7708,"रहेको":7709,"అధికారి":7710,"ंधी":7711,"అధికారాన్ని":7712,"అధికారికంగా":7713,"अंग्रेजी":7714,"राख्न":7715,"అధిగమించ":7716,"అధిగమించి":7717,"आं":7718,"అధీనంలో":7719,"అని,":7720,"राजा":7721,"అనునది":7722,"అనుమతి":7723,"आग":7724,"అనువ":7725,"అనుసరి":7726,"उस":7727,"అనుమతిని":7728,"राजनीतिक":7729,"అనువైన":7730,"అనువైనది.":7731,"అనుసరిస్త":7732,"ऊँच":7733,"राज्यहरू":7734,"అనుసరిస్తూ":7735,"అనుసరిస్తూ,":7736,"एं":7737,"అన్నం,":7738,"राष्ट्रिय":7739,"అన్నిటిక":7740,"कह":7741,"అన్నిటికంటే":7742,"అప్పటి":7743,"कर्ज":7744,"అప్పి":7745,"रोक्":7746,"అప్పిలే":7747,"किन्तु":7748,"అప్పిలేట్":7749,"అభిప్రాయ":7750,"र्जना":7751,"అభిప్రాయప":7752,"की।":7753,"అభిప్రాయపడుతున్న":7754,"అభిప్రాయపడుతున్నారు.":7755,"गए":7756,"लागु":7757,"అభివృద్ధ":7758,"అభివృద్ధి,":7759,"ग्र":7760,"అమలవుతుంది.":7761,"అమెరికా":7762,"गांधी":7763,"అమెరికా,":7764,"लीको":7765,"అయింది.":7766,"जनता":7767,"అయిత":7768,"అయితే,":7769,"जिसके":7770,"అయినప్పటికినీ":7771,"అయినప్పటికీ,":7772,"ल्ला":7773,"जीव":7774,"అరవిం":7775,"అరవింద్":7776,"అరుదుగా":7777,"डॉल":7778,"అరేబి":7779,"అరేబియా":7780,"डॉलर":7781,"वटा":7782,"అలీన":7783,"అలంకార":7784,"णी":7785,"అలీనో":7786,"అలీనోద్య":7787,"वर":7788,"तो":7789,"అలీనోద్యమ":7790,"అలీనోద్యమంలో":7791,"निर":7792,"అల్ప":7793,"అవతర":7794,"అవసర":7795,"पहा":7796,"वैद":7797,"అవతరించింది.":7798,"అవరో":7799,"అవరోధ":7800,"पर्वत":7801,"అవరోధాల":7802,"అవసరమై":7803,"वर्षको":7804,"बड़ी":7805,"అవసరమైతే":7806,"అవి,":7807,"बड़े":7808,"అవినీ":7809,"वात":7810,"అవినీతి,":7811,"बार":7812,"అశోకు":7813,"అశోకుడు":7814,"बि":7815,"అస్సా":7816,"అస్సామీ":7817,"वालाई":7818,"बहुमत":7819,"అస్సామీ;":7820,"అహమ్మ":7821,"भर":7822,"అహిం":7823,"అహ్మ":7824,"అహమ్మద":7825,"र्वो":7826,"అహమ్మదాబ":7827,"అహమ్మదాబా":7828,"वादको":7829,"लावा":7830,"అహమ్మదాబాదు":7831,"అహింస":7832,"वंश":7833,"అహింసాయుత":7834,"అహ్మద":7835,"वर्ण":7836,"అహ్మదీయ":7837,"विद्रोह":7838,"అహ్మదీయులు,":7839,"ఆక్ర":7840,"विदेशी":7841,"ఆక్షరాస్యత":7842,"विभाजन":7843,"ఆగ":7844,"ఆగ్":7845,"विस्तृत":7846,"ఆచార":7847,"विकसित":7848,"ఆటలు":7849,"ఆడుతున్న":7850,"शन":7851,"ఆణి":7852,"विश्वयुद्ध":7853,"ఆతి":7854,"ఆదాయ":7855,"शि":7856,"ఆదేశ":7857,"ఆధ్య":7858,"शांति":7859,"वैदिक":7860,"ఆనం":7861,"ఆనా":7862,"ఆయా":7863,"शील":7864,"ఆలస్య":7865,"ఆలో":7866,"व्यवस्थाप":7867,"शुरू":7868,"ఆవల":7869,"ఆవి":7870,"सत":7871,"ఆక్రమిస్తు":7872,"शै":7873,"ఆక్రమణ":7874,"ఆక్రమించ":7875,"ఆక్రమించిన":7876,"सो":7877,"ఆక్రమణదారులు,":7878,"ఆక్రమించుకు":7879,"संस्कृत":7880,"ఆక్రమించుకున్నారు.":7881,"ఆక్రమిస్తున్నాయి.":7882,"समर्":7883,"ఆగష్ట":7884,"शैलीको":7885,"ఆగష్టు":7886,"सहयोग":7887,"ఆగ్నే":7888,"ఆగ్నేయ":7889,"सामा":7890,"ఆచారాలు,":7891,"ఆడుతున్నవార్":7892,"सन्दर्भ":7893,"ఆడుతున్నవార్లలో":7894,"हार":7895,"ఆణిము":7896,"ఆణిముత్య":7897,"होती":7898,"ఆణిముత్యం.":7899,"ఆదాయం":7900,"ृद्ध":7901,"सङ्क":7902,"ఆదేశాలు,":7903,"ఆధీన":7904,"१९७":7905,"ఆధు":7906,"ఆధారాలు.":7907,"सङ्ख्यामा":7908,"१९८":7909,"ఆధారిత":7910,"ఆధీనములో":7911,"ंक":7912,"ఆధునిక":7913,"सङ्घीय":7914,"ఆధ్యాత":7915,"ंह":7916,"ఆధ్యాత్మ":7917,"ఆధ్యాత్మికత":7918,"ं।":7919,"समे":7920,"ఆనంద్":7921,"ఆనాది":7922,"ఆఫ్ఘా":7923,"अब":7924,"ఆఫ్ఘనిస్తాన్‌":7925,"समयमा":7926,"अभी":7927,"ఆఫ్ఘనిస్తాన్‌కు":7928,"ఆఫ్ఘానిస్తాన్":7929,"अंग्रेज़ी":7930,"ఆర్థిక,":7931,"समान":7932,"ఆలస్యం":7933,"ఆలోచన":7934,"अधिकार":7935,"ఆవిర్":7936,"सम्म,":7937,"ఆవిర్భవ":7938,"अप्रै":7939,"ఆవిర్భవించింది.":7940,"ఆసియాలో":7941,"अप्रैल":7942,"ఆహారం":7943,"सहर":7944,"ఆహారం.":7945,"अफ्री":7946,"ఆహార్యం":7947,"अफ्रीका":7948,"ఇ-":7949,"साना":7950,"ఇంకా":7951,"अमरी":7952,"ఇంటిపేర్లు":7953,"ఇందిరా":7954,"अर्थव्यवस्था":7955,"सागरमा":7956,"ఇందులో":7957,"ఇచ్చే":7958,"आदि":7959,"ఇతను":7960,"ఇతరు":7961,"आन्द":7962,"ఇతి":7963,"ఇను":7964,"आया":7965,"ఇన్":7966,"साझेद":7967,"ఇప్పటిక":7968,"आन्दोल":7969,"ఇము":7970,"ఇయ":7971,"इसकी":7972,"ఇంగ్లండు":7973,"ఇండియా,":7974,"उत्पा":7975,"साझेदारी":7976,"ఇండియాలో":7977,"ఇండో-ఆర్యన్,":7978,"उत्पाद":7979,"ఇండోనే":7980,"साम्राज्यको":7981,"ఇండోనేసియా":7982,"उद्योग":7983,"ఇక్కడ":7984,"ఇక్కడి":7985,"ऋतु":7986,"ఇటీవ":7987,"सिर्जना":7988,"ఇటీవల":7989,"कम":7990,"ఇటీవలి":7991,"करता":7992,"ఇతరదేశాలకు":7993,"ఇతరదేశాలను":7994,"केवल":7995,"ఇతరులు":7996,"सीमा":7997,"ఇతిహా":7998,"ఇతిహాసాల":7999,"चा":8000,"ఇతిహాసాలపై":8001,"सुरुवात":8002,"ఇనుము,":8003,"जरा":8004,"ఇన్‌":8005,"ఇన్‌ఫ":8006,"जलो":8007,"ఇన్‌ఫర్":8008,"ఇన్‌ఫర్మే":8009,"जू":8010,"स्वतन्त्र":8011,"ఇన్‌ఫర్మేష":8012,"ఇన్‌ఫర్మేషన్":8013,"जबकि":8014,"ఇప్పటికీ":8015,"हल्ला":8016,"ఇముడ":8017,"जलवायु":8018,"ఇముడ్చ":8019,"ఇముడ్చుకు":8020,"जलोढ़":8021,"ఇముడ్చుకుంది.":8022,"जाना":8023,"ఇయర్":8024,"हुन":8025,"ఇవన్నీ":8026,"थन":8027,"ఇవ్వ":8028,"ఇవికా":8029,"दान":8030,"ఇవికూడ":8031,"ఇవికాక":8032,"द्योग":8033,"हावालाई":8034,"ఇవికూడా":8035,"ఇవ్వబడిన":8036,"दिया।":8037,"ఇస్లామాబాద్-టెహ్రాన్-ఇస్తాంబుల్":8038,"हुन्छ।":8039,"ఇస్లామాబాద్:":8040,"दृष्":8041,"ఉండి,":8042,"दृष्टि":8043,"ఉండుటచే":8044,"ఉద్":8045,"हुने":8046,"पास":8047,"ఉనిక":8048,"ఉపా":8049,"पीय":8050,"ఉర్":8051,"ार्थ":8052,"ఉష్ణ":8053,"पड़ो":8054,"ఉంటాయి":8055,"ఉంటూ":8056,"पड़ोसी":8057,"ुना":8058,"ఉండగా,":8059,"ఉండట":8060,"प्रतिश":8061,"ఉండటం":8062,"प्रतिशत":8063,"ఉండటం,":8064,"्यो,":8065,"ఉత్కృ":8066,"प्रभाव":8067,"ఉత్త":8068,"ఉత్సాహ":8069,"फै":8070,"ఉత్కృష్ట":8071,"ఉత్కృష్టమైన":8072,"बनाने":8073,"ఉత్కృష్టమైన,":8074,"्यो।":8075,"ఉత్తరా":8076,"भरा":8077,"ఉత్తర,":8078,"ఉత్తరాదిన":8079,"म,":8080,"ఉత్సాహంగా,":8081,"१९५१":8082,"ఉద్భవ":8083,"माना":8084,"ఉద్భవించిన":8085,"ఉద్భవించినవే.":8086,"मिला":8087,"२५":8088,"ఉనికికి":8089,"ఉన్నట్లు":8090,"यूरो":8091,"ఉన్నతంగా":8092,"३०":8093,"ఉన్నాయి":8094,"ఉన్నారు":8095,"यूरोपीय":8096,"ఉపయు":8097,"र्वोच्च":8098,"ఉపరాష్ట్ర":8099,"ఉపఖండం":8100,"लाख":8101,"ఉపఖండపు":8102,"ఉపఖండములో":8103,"४७":8104,"ఉపయుక్":8105,"ली,":8106,"ఉపయుక్త":8107,"ఉపయోగిస్తారు":8108,"वरी":8109,"५,०००":8110,"ఉపయోగిస్తు":8111,"ఉపయోగిస్తుంది.":8112,"वर्तमान":8113,"ఉపరాష్ట్రపత":8114,"ఉపరాష్ట్రపతులు":8115,"वादी":8116,"ఉపాధి":8117,"५५,०००":8118,"ఉర్ద":8119,"विवाद":8120,"ఉర్దూ":8121,"व्यापार":8122,"ఉర్దూ;":8123,"ఋతు":8124,"शेष":8125,"ఋతుప":8126,"ఋతుపవనాలు":8127,"श्री":8128,"ఎంతో":8129,"ఎగు":8130,"षा":8131,"ఎగువ":8132,"\"इन्डिया":8133,"ఎదు":8134,"ष्ठ":8135,"ఎమ":8136,"ఎల్ల":8137,"सफल":8138,"\"नदी":8139,"ఎక్కువై":8140,"सर्वोच्च":8141,"ఎక్కువైపో":8142,"ఎక్కువైపోతున్న":8143,"\"सिन्धु":8144,"समर्थन":8145,"ఎక్కువైపోతున్నప్పటికీ,":8146,"ఎగుమతి":8147,"\"इन्डिया\"":8148,"सां":8149,"ఎడమ":8150,"ఎడారి":8151,"स्थापना":8152,"ఎదుర్":8153,"ఎదుర్కొంటు":8154,"स्वरूप":8155,"ఎదుర్కొంటున్నది.":8156,"\"नदी,":8157,"ఎన్ను":8158,"हन":8159,"ఎన్నికలలో":8160,"\"नदी,\"":8161,"हरा":8162,"ఎన్నుకొన":8163,"\"सिन्धुका":8164,"ఎన్నుకుంటారు.":8165,"हिन्दू":8166,"ఎన్నుకుంటుంది.":8167,"$१":8168,"ఎన్నుకొనబడిన":8169,"होते":8170,"ఎమర్":8171,"$६":8172,"ఎమర్జ":8173,"$१,":8174,"ఎమర్జె":8175,"१९६":8176,"ఎమర్జెన్":8177,"$१,४":8178,"२.":8179,"ఎమర్జెన్సీ":8180,"$१,४९":8181,"ఎల్లలుగా":8182,"ఏక":8184,"$१,४९८":8185,"ఏకత్వ":8186,"ंदि":8187,"ఏటా":8188,"$६४":8189,"ंत्रिक":8190,"ఏడ":8191,"(जनता":8192,"ఏడు":8193,"अलावा":8194,"ఏళ్ళ":8195,"(जनताको":8196,"अपना":8197,"ఏకై":8198,"ఏకత్వంగల":8199,"(ἰνδο":8200,"अभिया":8201,"ఏకైక":8202,"अमेरिका":8203,"(ἰνδοί":8204,"ఏడవ":8205,"ఏడవస్థానంలో":8206,"आत":8207,"(ἰνδοί)":8208,"ఏర్పర":8209,"आव":8210,"ఏర్పాటు":8211,"(ἰνδός);":8212,"ఏర్పడ":8213,"इंडिया":8214,"-गङ्गा":8215,"ఏర్పడిన":8216,"ఏర్పడే":8217,"उसके":8218,"-मूल":8219,"ఏర్పడింది.":8220,"एन":8221,"ఏర్పరచ":8222,"-शासनको":8223,"ఏర్పరచింది.":8224,"कहते":8225,"-शैलीको":8226,"ఏళ్ళపాటు":8227,"किये":8228,"ఐదు":8229,"-सङ्क":8230,"ఐక్యరాజ్య":8231,"किया,":8232,"ఐక్యరాజ్యస":8233,"-स्तर":8234,"कृष":8235,"ఐక్యరాజ్యసమి":8236,"-पश्चिमबाट":8237,"ఐక్యరాజ్యసమితి":8238,"कोई":8239,"ఒక్":8240,"-सङ्कल":8241,"क्षर":8242,"ఒడిస్":8243,"ఒరి":8244,"गई":8245,"ఒలిం":8246,"गई।":8247,"-सङ्कलन":8248,"ఒకట":8249,"ఒకటో":8250,"गत":8251,"-सङ्कलनकर्":8252,"ఒకటిగా,":8253,"गुप्त":8254,"ఒకేఒక":8255,"ఒకేమా":8256,"घा":8257,"-सङ्कलनकर्ताहरूको":8258,"ఒకేమాది":8259,"घोषणा":8260,"ఒకేమాదిరి":8261,"-स्तरीय":8262,"ఒకేమాదిరిగా":8263,"चना":8264,"ఒక్కొ":8265,"चला":8266,"ఒక్కొక్క":8267,"ఒక్కొక్కటే":8268,"चु":8269,"ఒడిస్స":8270,".४":8271,"ఒడిస్సీ,":8272,"चीफ":8273,"ఒరియా":8274,".६":8275,"ఒరియా;":8276,"छो":8277,".६%":8278,"ఒలంపిక్":8279,"छोड़":8280,"ఒలంపిక్‌":8281,"h,":8282,"ఒలింప":8283,"छोटे":8284,"ఒలింపిక్‌":8285,"hindus":8286,"ఓటర్":8287,"जहाँ":8288,"ఓడ":8289,"जनवरी":8290,"ఓటర్ల":8291,"hindush,":8292,"ఓటర్లపై":8293,"जिसका":8294,"ఓడించి,":8295,"hu,":8296,"जीत":8297,"ఔట్‌":8298,"indo":8299,"ఔట్‌స":8300,"जून":8301,"ఔట్‌సొ":8302,"indos":8303,"जैसे":8304,"ఔట్‌సొర్":8305,"ఔట్‌సొర్సిం":8306,"indoi":8307,"टन":8308,"ఔట్‌సొర్సింగ్":8309,"ण,":8310,"sindhu,":8311,"కంటైనెర్":8312,"కట్ట":8313,"तग":8314,"ँस":8315,"కత్తా":8316,"కని":8317,"तना":8318,"ँदा,":8319,"కమల":8320,"तम":8321,"ँदै":8322,"కమీ":8323,"కమేన":8324,"तनत":8325,"ँसरा":8326,"కమైన":8327,"तरह":8328,"కరా":8329,"ँसराइ":8330,"కర్":8331,"थे।":8332,"ँसराइको":8333,"కవరీ":8334,"दिल्":8335,"కష్ట":8336,"ंसा":8337,"కానీ":8338,"కాయ":8339,"ंशमा":8340,"दियाँ":8341,"కార్":8342,"देखा":8343,"కిం":8344,"కిత":8345,"देव":8346,"ंसात्मक":8347,"కెట్":8348,"द्योगिकी":8349,"క్యం":8350,"अक":8351,"కంపెనీపై":8352,"धानी":8353,"కట్టడ":8354,"ध्यम":8355,"కట్టడాలు,":8356,"కత్తా),":8357,"नदियाँ":8358,"కథకళ":8359,"अक्":8360,"కథక్":8361,"अक्ष":8362,"కథన":8363,"नै":8364,"కథకళి":8365,"अखा":8366,"निव":8367,"కథక్,":8368,"కథనాలతో":8369,"अङ्ग्रे":8370,"निभाई":8371,"కనిప":8372,"अझ":8373,"కనిపించింది.":8374,"निरपे":8375,"కనుమలు":8376,"अनि":8377,"निरपेक्ष":8378,"కనుమలు,":8379,"కన్నడ,":8380,"अभ्य":8381,"नेमा":8382,"కన్నడ;":8383,"नैतिक":8384,"కన్నడం,":8385,"కబడ్డీ":8386,"अरू":8387,"परी":8388,"కబడ్డీ,":8389,"पहु":8390,"కబడ్డీలో":8391,"కమలము":8392,"पंजा":8393,"अश":8394,"కమీజ్":8395,"కమేనన":8396,"अकबरको":8397,"पर्य":8398,"కమేననీ,":8399,"अक्ट":8400,"కరంతై":8401,"కరమేనని":8402,"पहुँच":8403,"కరించింది.":8404,"पार्टि":8405,"కరణలో":8406,"अक्टो":8407,"కరాచ":8408,"पुर्":8409,"अक्टोबरको":8410,"కరాచీ,":8411,"पुर्तग":8412,"కర్ణా":8413,"अक्षा":8414,"కర్ణాటక":8415,"प्रचल":8416,"కలకత్తా),":8417,"अक्षांशमा":8418,"प्रत्य":8419,"కలగలు":8420,"अखाम":8421,"కలదు":8422,"प्रौ":8423,"కలగలుపు":8424,"अखामनी":8425,"प्रौद्योगिकी":8426,"కలిగ":8427,"కలిగిన":8428,"अङ्ग्रेजी":8429,"फ्रा":8430,"కలిగి,":8431,"बंग":8432,"अझै":8433,"కలిసివ":8434,"కలిసివస్తు":8435,"बदल":8436,"अत्यधिक":8437,"కలిసివస్తుందని":8438,"కలుగు":8439,"बढ़कर":8440,"अत्यन्त":8441,"కలుపుతూ":8442,"बाहरी":8443,"अधीनमा":8444,"కలుగుత":8445,"కలుగుతాయి.":8446,"भाषाएँ":8447,"अनिश्":8448,"కల్గి":8449,"కల్ప":8450,"भील":8451,"अनिश्चित":8452,"కల్పం":8453,"अनुकरण":8454,"मे":8455,"కల్పుతూ":8456,"కల్పే":8457,"माध्यम":8458,"కల్పించే":8459,"माल":8460,"కళలు,":8461,"अनुवाद":8462,"కళలు.":8463,"मानसू":8464,"अनुष्ठ":8465,"కష్టంకాగా":8466,"కాకు":8467,"मानसून":8468,"अनुष्ठान":8469,"కాగా":8470,"मिलि":8471,"కాగా,":8472,"కావడం":8473,"मिलियन":8474,"కాంగ్రెసే":8475,"मूल्य":8476,"కాంగ్రెసును":8477,"अनुष्ठानको":8478,"కాంగ్రెసేతర":8479,"यत":8480,"కాకుండా":8481,"यां":8482,"కాపాడుకుంటూనే":8483,"अन्तत":8484,"కాయ\",":8485,"కారం,":8486,"र-":8487,"अन्ति":8488,"కారిగా":8489,"रह":8490,"కారణంగా,":8491,"अन्ततः":8492,"కార్ప":8493,"अन्तिम":8494,"కార్పస్,":8495,"रही":8496,"కార్యనిర్":8497,"अप्रत्य":8498,"కార్యక్రమాలలో":8499,"रिक":8500,"కార్యనిర్వాహ":8501,"अप्रत्यक्ष":8502,"కార్యనిర్వాహక":8503,"राजधानी":8504,"కాలం":8505,"राजनैतिक":8506,"కాలతో":8507,"अभिलेख,":8508,"కాలపరి":8509,"लोगों":8510,"కాలాల్లో":8511,"अभ्यास":8512,"ल्तनत":8513,"కాలపరిమ":8514,"अभ्यासहरू":8515,"కాలపరిమిత":8516,"वियत":8517,"కాలపరిమితికి":8518,"अरूले":8519,"కాలేజి":8520,"शुरु":8521,"కాలేజీ":8522,"अर्ब":8523,"सल्तनत":8524,"కాశ్మీర":8525,"अर्थतन्त्र":8526,"కాశ్మీరు":8527,"संगी":8528,"కాశ్మీర్":8529,"अलगाव":8530,"संगीत":8531,"కాశ్మీరీ;":8532,"కిమీ":8533,"अलगावका":8534,"संघर्ष":8535,"కింగ్":8536,"संघीय":8537,"अवशेष":8538,"కింగ్డ":8539,"కింగ్డమ్":8540,"अवधिमा":8541,"కిందట":8542,"समाप्त":8543,"కితాబ":8544,"अवधिलाई":8545,"सरकारें":8546,"కితాబు":8547,"अशो":8548,"కితాబుని":8549,"కితాబునిస్తు":8550,"सामाजिक":8551,"కితాబునిస్తున్నారు.":8552,"सिंह":8553,"కుంతల":8554,"अशोक":8555,"కుడి":8556,"अशोकको":8557,"सिनेमा":8558,"కుది":8559,"కుమారు":8560,"स्थि":8561,"కుమార్":8562,"हिस्":8563,"కుర్":8564,"కులం":8565,"हुई।":8566,"अहिंसात्मक":8567,"కులను":8568,"िम":8569,"కుటుంబాలకు":8570,"आएका":8571,"కుటుంబాలు":8572,"ियाँ":8573,"కుడైన":8574,"आएको":8575,"ृत्य":8576,"కుడ్య":8577,"आज":8578,"కుడ్యచిత్ర":8579,"కుడ్యచిత్రాలు":8580,"आनु":8581,"ौर":8582,"కుదిర్":8583,"आपूर्":8584,"కుదిర్చ":8585,"्यादा":8586,"కుదిర్చిన":8587,"आय":8588,"కుమారుడు":8589,"కుమారుడు.":8590,"आह":8591,"१४":8592,"కుమార్తె":8593,"आक्रा":8594,"కుర్తా":8595,"१५":8596,"కులనుండి":8597,"आकारका":8598,"२४":8599,"కులాలు,భాష":8600,"కులాలు,భాషలు,":8601,"ंदिरा":8602,"आकारले":8603,"కూచి":8604,"ंधु":8605,"आक्रामक":8606,"కూచిప":8607,"अग":8608,"కూచిపూడ":8609,"आगमन":8610,"కూచిపూడి,":8611,"కూడినది.":8612,"अने":8613,"आदिव":8614,"కూడుకున్నది.":8615,"अल्":8616,"आदिवास":8617,"కూడుకొనిన":8618,"अधि":8619,"కూడుకొనినప్పటికినీ":8620,"आदिवासी":8621,"अनेक":8622,"కృత":8623,"अन्त":8624,"కృష్":8625,"आधारमा":8626,"కృష్ణ":8627,"अन्तर":8628,"आधारित":8629,"కృతమై":8630,"కృష్ణా":8631,"अमरीकी":8632,"आनुवंश":8633,"కృష్ణ,":8634,"आप":8635,"కేంద్రాల్లో":8636,"आनुवंशिक":8637,"आन्दोलन":8638,"కేంద్రీ":8639,"इंदिरा":8640,"आन्दोलनको":8641,"కేంద్రీకృతమై":8642,"इसमें":8643,"కొంకణి;":8644,"आपूर्ति":8645,"కొత్":8646,"इसे":8647,"కొద్":8648,"आफु":8649,"इस्":8650,"కొన్న":8651,"इसका":8652,"కొన్నాయి.":8653,"इस्लाम":8654,"కొల":8655,"కొంటున్నారు.":8656,"ई,":8657,"కొత్త":8658,"उन्हें":8659,"కొద్ది":8660,"उष्ण":8661,"आफुलाई":8662,"కొద్దిభాగం":8663,"उसे":8664,"కొనవచ్చు.":8665,"आर्य":8666,"కొనసా":8667,"उनकी":8668,"కొనసాగు":8669,"आर्द्र,":8670,"उनके":8671,"కొనసాగుతో":8672,"उपयोग":8673,"आर्द्रता":8674,"కొనసాగుతోంది.":8675,"ऊँची":8676,"కొన్ని:":8677,"आर्द्रताले":8678,"కొలమానం:":8679,"कं":8680,"కోటి":8681,"आह्व":8682,"कट":8683,"కోడు":8684,"कप":8685,"आह्वान":8686,"కోవడ":8687,"कश्":8688,"కోవార":8689,"आह्वानहरू":8690,"కోసం":8691,"कटिबंध":8692,"కోటి.":8693,"इँसराइको":8694,"कटिबंधीय":8695,"కోర్టులు,":8696,"करती":8697,"इन्छ।":8698,"కోర్టు,":8699,"करते":8700,"కోర్టులకు":8701,"इरहेको":8702,"कश्मी":8703,"కోల్పో":8704,"కోల్పోతూ":8705,"कश्मीर":8706,"इन्डोनेसियाको":8707,"కోవడంతో":8708,"कार्यकाल":8709,"इन्डोनेसियासँग":8710,"కోవారంటో,":8711,"कार्यपाल":8712,"క్న":8713,"इसकेका":8714,"कार्यपालिका":8715,"క్కలు":8716,"క్కనుంది.":8717,"किए":8718,"इस्लामिक":8719,"క్కులకు":8720,"किसी":8721,"ईश":8722,"క్కువే.":8723,"कृषि":8724,"క్నాల":8725,"ईस्ट":8726,"క్నాలజ":8727,"क्रिय":8728,"క్నాలజీ,":8729,"ईस्व":8730,"క్యార":8731,"क्षण":8732,"ईश्व":8733,"క్యులు,":8734,"क्षा":8735,"క్యారమ":8736,"ईश्वर":8737,"गुजरा":8738,"క్యారమ్‌":8739,"चे":8740,"క్యారమ్‌,":8741,"ईश्वरीय":8742,"క్యాలెండర్)":8743,"च्छ":8744,"క్యాలెండర్:":8745,"जट":8746,"క్రవర్తి":8747,"ईसापूर्व":8748,"जमा":8749,"క్రా":8750,"जों":8751,"క్రై":8752,"ईसापूर्वमा":8753,"जिन्हें":8754,"క్రమంగా":8755,"ईस्वी":8756,"క్రాంతి,":8757,"जिनमें":8758,"క్రి.పూ.":8759,"उनको":8760,"जीवन":8761,"క్రిస్":8762,"ज्ञान":8763,"క్రిస్టా":8764,"క్రిస్టాట":8765,"टल":8766,"उही":8767,"క్రిస్టాటస్":8768,"टेली":8769,"క్రిస్టాటస్.":8770,"उत्थान":8771,"క్రీ.":8772,"टेलीवि":8773,"క్రీ.పూ.20":8774,"उत्तरा":8775,"डाल":8776,"క్రీ.పూ.5":8777,"उत्तर-पश्चिमबाट":8778,"डि":8779,"క్రీడ:":8780,"క్రీడల":8781,"डालर":8782,"उत्तर-पश्चिमी":8783,"క్రైస్త":8784,"णाम":8785,"క్రైస్తవ":8786,"उत्तरपश्चिम":8787,"णामस्वरूप":8788,"క్రైస్తవులు":8789,"उत्तरमा":8790,"క్షం:":8791,"ण्डल":8792,"క్షంగా":8793,"तनाव":8794,"క్షణ":8795,"तुल":8796,"క్షణాసియా":8797,"तुलना":8798,"క్షిక":8799,"క్షణాసియాలో":8800,"द्य":8801,"క్షరాస్యత,":8802,"दिल्ली":8803,"క్షి:":8804,"धिकार":8805,"उत्तरार":8806,"ఖగోళ":8807,"नौ":8808,"ఖర్చు":8809,"उत्तरपश्चिमबाट":8810,"निम्":8811,"ఖిక":8812,"ఖర్చుతో":8813,"नौसेना":8814,"उत्तराधिक":8815,"ఖికమైనది.":8816,"पत्":8817,"उत्तराधिकारी":8818,"ఖో-ఖో,":8819,"ఖ్యాతి":8820,"पान":8821,"గతి":8822,"पंजाब":8823,"గనులు,":8824,"उत्तराधिकारीले":8825,"परंपरागत":8826,"గమ":8827,"परिणामस्वरूप":8828,"उत्तरार्ध":8829,"గర్":8830,"గర్,":8831,"परीक्षण":8832,"उत्तरार्धमा,":8833,"గలి":8834,"पर्यटन":8835,"గలు,":8836,"उत्थान।":8837,"पात":8838,"గల్":8839,"पाया":8840,"उपत्य":8841,"గించుకో":8842,"पुरु":8843,"గింది.":8844,"उपो":8845,"గులు":8846,"पुरुष":8847,"గృ":8848,"उपत्यका":8849,"पूरा":8850,"గె":8851,"उपमहाद्वीपका":8852,"पूरे":8853,"గౌర":8854,"గంగ,":8855,"प्रका":8856,"उपमहाद्वीपको":8857,"గంగో":8858,"प्रदान":8859,"గంగోత్ర":8860,"प्रभु":8861,"గంగోత్రి,":8862,"प्रिय":8863,"గణిత":8864,"గణితం,":8865,"प्रत्ये":8866,"उपमहाद्वीपलाई":8867,"గతిని":8868,"प्रत्येक":8869,"గమనించి,":8870,"उपोष्णकटिबन्धीय":8871,"फैली":8872,"గమనికలు":8873,"फ्रां":8874,"ऋग्वेदका":8875,"గరలో":8876,"बजट":8877,"గర్).":8878,"ऋग्वेदले":8879,"గలిగినది.":8880,"ब्":8881,"గల్,":8882,"एकताब":8883,"बढ़ती":8884,"గాంచిన":8885,"भागी":8886,"एकी":8887,"గాయ":8888,"గాయి":8889,"भागीद":8890,"एकताबद्ध":8891,"గాయి.":8892,"भाषी":8893,"గిపోయింది.":8894,"एकात्मक":8895,"भाषाएं":8896,"గిల":8897,"भ्यता":8898,"एकीकृत":8899,"గించుకోవచ్చని":8900,"గిలిన":8901,"मंत्रिम":8902,"ऐतिहास":8903,"గీకరణలో":8904,"मंत्रिमण्डल":8905,"గీతం":8906,"ऐतिहासिक":8907,"గీతం:":8908,"माता":8909,"ओस,":8910,"గుత్తా":8911,"मैदानी":8912,"గున":8913,"औप":8914,"గుప్":8915,"मोहन":8916,"గుత్తాధి":8917,"औपनि":8918,"यर":8919,"గుత్తాధిప":8920,"औपचार":8921,"यहाँ":8922,"గుత్తాధిపత్య":8923,"గుత్తాధిపత్యం":8924,"याँ":8925,"औपचारिक":8926,"గునవి":8927,"या।":8928,"గునవి).":8929,"औपनिवेश":8930,"रख":8931,"గుప్తు":8932,"औपनिवेशिक":8933,"గుప్తుల":8934,"रहा।":8935,"గుప్తులకాలం":8936,"कच्च":8937,"राजवंश":8938,"గుర్తిం":8939,"గుర్తించ":8940,"कच्छ":8941,"राज्यसभा":8942,"గుర్తించింది.":8943,"रिया":8944,"कठ":8945,"గుర్తింపు":8946,"रूस":8947,"గుర్తించవచ్చు.":8948,"कडा":8949,"लड़ा":8950,"గులు:":8951,"గువారు":8952,"लन":8953,"कति":8954,"గృహ":8955,"लौ":8956,"कनका":8957,"గృహాలు,":8958,"लंका":8959,"గెలిచ":8960,"कन्न":8961,"గెలిచిన":8962,"लंबे":8963,"గేజి":8964,"कहरू":8965,"लगा":8966,"గేయ":8967,"कुन":8968,"लेकर":8969,"గేయం:":8970,"గోడు":8971,"लोकता":8972,"గోధ":8973,"लोकप्रिय":8974,"గోర్":8975,"कच्चा":8976,"वाली":8977,"గోడుంబిళ్ళ":8978,"कच्छको":8979,"वास्त":8980,"గోదావరి":8981,"గోదావరీ":8982,"विज":8983,"గోదావరి.":8984,"विरो":8985,"గోధు":8986,"शस्त्र":8987,"గోధుమ":8988,"कठो":8989,"शहर":8990,"గౌరవిస్త":8991,"గౌరవిస్తారు.":8992,"शहरी":8993,"कठोर":8994,"గ్గరలో":8995,"शाली":8996,"గ్గిపోయింది.":8997,"कतिप":8998,"शिक्":8999,"గ్గులు:":9000,"कतिपय":9001,"शिक्षा":9002,"గ్న":9003,"शुष्":9004,"గ్భాగ":9005,"कतिपयले":9006,"గ్నలు":9007,"शुरुआत":9008,"कन्नौ":9009,"గ్నలు:":9010,"शुष्क":9011,"గ్భాగే,":9012,"कन्नौज":9013,"గ్రంథాలు":9014,"श्रीलंका":9015,"గ్రీ":9016,"कन्नौजका":9017,"सक्रिय":9018,"గ్రాండ్":9019,"सभ्यता":9020,"कम्बो":9021,"గ్రామ":9022,"संबंधों":9023,"గ్రీకులు":9024,"कम्पनीसँग":9025,"ఘట్ట":9026,"सदस्यों":9027,"ఘన":9028,"कम्पनीहरूले":9029,"समझ":9030,"ఘర్షణ":9031,"समृद्ध":9032,"कम्पनीसँगको":9033,"ఘిక,":9034,"सहाय":9035,"ఘు":9036,"ఘోర":9037,"सहायक":9038,"ఘట్టాలు":9039,"सांस्कृ":9040,"ఘనత":9041,"सांस्कृतिक":9042,"ఘర్షణను":9043,"सामरिक":9044,"చ.కి.మీ":9045,"सिंधु":9046,"చక్రవర్తి":9047,"చట్ట":9048,"सूची":9049,"చము":9050,"से,":9051,"कम्बोड":9052,"చర్,":9053,"सोवियत":9054,"చా":9055,"कम्बोडिया":9056,"स्थिति":9057,"చిత":9058,"చీర":9059,"हाल":9060,"చులు,":9061,"हॉ":9062,"कम्बोडिया,":9063,"చూ":9064,"हैं:":9065,"చూప":9066,"करको":9067,"हॉकी":9068,"చో":9069,"हों":9070,"చ్":9071,"करहरू,":9072,"చట్టం,":9073,"होना":9074,"का,":9075,"చదరంగంలో":9076,"చదరంగము,":9077,"ियों":9078,"काटा":9079,"చనలు,":9080,"ीकरण":9081,"చనలో":9082,"काव":9083,"ेक्षा":9084,"చమురు":9085,"ौहार":9086,"काव्य":9087,"చమురు,":9088,"చరిత్రలో":9089,"०,":9090,"काङ्ग्रेसको":9091,"చవిచూ":9092,"१०":9093,"చవితి,":9094,"१९५०":9095,"చవిచూసింది.":9096,"२००४":9097,"చాళ":9098,"చారం":9099,"४०":9100,"काङ्ग्रेसले":9101,"చారిత్రకంగా":9102,"(०,":9103,"చాళు":9104,"काटाब":9105,"-धीरे":9106,"చాళుక్యులు,":9107,"-पूर्व":9108,"काटाब्या":9109,"చిహ":9110,".२":9111,"చిత్రకళ":9112,"काटाब्याट":9114,"చిత్రమ":9116,"చిత్రమాల":9118,"काटाब्याटिक":9119,"ंजन":9120,"చిత్రమాలిక":9121,"ंद":9122,"कानून":9123,"చిరునా":9124,"अं":9125,"చిరునామాలు":9126,"कानूनी":9127,"अच्छ":9128,"చిహ్":9129,"अति":9130,"చిహ్నాలు":9131,"कारको":9132,"असम":9133,"చీర,":9134,"अक्टू":9135,"कारणले":9136,"చుట్ట":9137,"अक्टूबर":9138,"చుట్టూ":9139,"अगस्त":9140,"कार्यकालको":9141,"చూడండి:":9142,"अपेक्षा":9143,"अभियान":9144,"చూపబడ":9145,"कार्यकारी:":9146,"आई":9147,"చూపబడింది":9148,"आते":9149,"कालतको":9150,"చెంది":9151,"आस":9152,"చెందింది.":9153,"कावेर":9154,"आंतर":9155,"చెట్ట":9156,"आंदो":9157,"చెట్టు.":9158,"कावेरी":9159,"आंतरिक":9160,"చెప్పుకోద":9161,"आंदोलन":9162,"किन":9163,"చెప్పుకోవచ్చు.":9164,"చెప్పుకోదగినది.":9165,"आकर्म":9166,"किन्छ।":9167,"చేత":9168,"आकर्मण":9169,"చేర":9170,"आगे":9171,"किनकि":9172,"आसपास":9173,"చేసు":9174,"कीहरू":9175,"इंडो":9176,"చేసే":9177,"ईद":9178,"చేత,":9179,"कुमा":9180,"उठ":9181,"చేయట":9182,"उभरा":9183,"చేయడ":9184,"कुश":9185,"उनका":9186,"చేయబడింది.":9187,"ऊपर":9188,"कुनै":9189,"చేయలేదు":9190,"ऊँचा":9191,"చేయిస్త":9192,"ऊँचाई":9193,"कुमार":9194,"చేయటంతో":9195,"एशन":9196,"చేయడానికి":9197,"कुमारहरूको":9198,"ऑपर":9199,"చేయిస్తారు.":9200,"ऑफ":9201,"कुलीन":9202,"చేర,":9203,"ऑपरेश":9204,"చేసింది.ఢాకా-ఢిల్లీ-లాహో":9205,"कुशता":9206,"ऑपरेशन":9207,"చేసింది.ఢాకా-ఢిల్లీ-లాహోర్‌ల":9208,"क,":9209,"చేసుకోవడంతో":9210,"कृष्ण":9211,"कमा":9212,"చైనాతో":9213,"कमांड":9214,"कृष्णा":9215,"చోళ":9216,"करे":9217,"చోళులు,":9218,"केन":9219,"करो":9220,"చ్ఛ":9221,"काज":9222,"చ్చజ":9223,"केही":9224,"कामकाज":9225,"చ్చింది.":9226,"केंद्रीय":9227,"केन्द्री":9228,"చ్చజెండ":9229,"केन्द्रशासित":9230,"చ్చజెండా":9231,"क्रय":9232,"చ్ఛాయుత":9233,"क्षरता":9234,"జంతువు:":9235,"क्षेत्रों":9236,"జనాలు":9237,"खंड":9238,"केन्द्रहरू":9239,"खर":9240,"జపా":9241,"खान":9242,"జవహ":9243,"केन्द्रीकृत":9244,"खे":9245,"జా":9246,"गढ़":9247,"జాన":9248,"गी":9249,"జిత":9250,"गै":9251,"कोर":9252,"జిన":9253,"गो":9254,"జిల్ల":9255,"गों":9256,"జెట్":9257,"गोल":9258,"జై":9259,"गतिशील":9260,"జైన":9261,"गया,":9262,"జౌ":9263,"गुट":9264,"गुजरात":9265,"జ్యం":9266,"कोशी":9267,"गैर-":9268,"జ్ర":9269,"गोंड":9270,"कोरल":9271,"జ్‌":9272,"घाटी":9273,"జనకరమేనని":9274,"घोषित":9275,"क्कनका":9276,"జనగణమన":9277,"चर":9278,"జనగణమన.":9279,"क्का,":9280,"चली":9281,"జనాభాలో":9282,"चो":9283,"क्षद्वीप":9284,"జన్మదిన":9285,"चुकी":9286,"జన్మని":9287,"छह":9288,"क्षम":9289,"జన్మస్థాన":9290,"छोड़कर":9291,"జన్మదినాలకు":9292,"क्षद्वीप,":9293,"जन्":9294,"జన్మనిచ్చింది.":9295,"जाने":9296,"జన్మస్థానం.":9297,"जु":9298,"జరిగాయి.":9299,"ज़्यादा":9300,"क्षेत्रका":9301,"జరిగింది.":9302,"जिन्":9303,"జరుపుకునే":9304,"जिसकी":9305,"क्षेत्रको":9306,"జవహర్‌ల":9307,"जिसने":9308,"क्षेत्रफल":9309,"జవహర్‌లాల్":9310,"जैन":9311,"झार":9312,"జాస్వామ్య":9313,"टक":9314,"జాతి,":9315,"टना":9316,"జాతిప":9317,"क्षेत्रहरू":9318,"टाफ":9319,"జాతిపిత":9320,"ठक":9321,"क्षेत्रहरूद्वारा":9322,"జాతీయవాదం":9323,"ठार":9324,"జాతీయా":9325,"डिया":9326,"क्षेत्रहरूमा":9327,"జాతీయాదాయంలో":9328,"डु":9329,"జానపద":9330,"क्षेत्रहरूलाई":9331,"ड़ियाँ":9332,"జాబీ;":9333,"तः":9334,"क्षेत्रफलको":9335,"జాబితాలో":9336,"तब":9337,"జిత్":9338,"तार":9339,"खडा":9340,"ता,":9341,"జిస్":9342,"तीसरी":9343,"జితమై":9344,"त्‍":9345,"జినె":9346,"त्रि":9347,"खला":9348,"జినెస్":9349,"थल":9350,"జిల్లా":9351,"खिक":9352,"थी,":9353,"జిస్లే":9354,"दाय":9355,"జిస్లేచర్,":9356,"ख्":9357,"द्":9358,"జీవి":9359,"दर्शन":9360,"खला।":9361,"జీవితంలో":9362,"दियों":9363,"జైను":9364,"दीव":9365,"खा,":9366,"జైన,":9367,"दूस":9368,"జైనులు":9369,"खाडीले":9370,"द्यपि":9371,"జోక్యం":9372,"धर्म,":9373,"జోన్":9374,"धर्मों":9375,"జోన్లుగా":9376,"धीरे-धीरे":9377,"खेल्":9378,"नगर":9379,"జౌళి,":9380,"नदियों":9381,"జ్ఞ":9382,"खेल्छ":9383,"नम":9384,"జ్ఞాన":9385,"नर":9386,"ख्खा,":9387,"జ్రాలు,":9388,"निक":9389,"జ్‌మహ":9390,"गइरहेको":9391,"नृत्य":9392,"జ్‌మహల్":9393,"नागा":9394,"టంలో":9395,"गम्भ":9396,"निवेश":9397,"టన":9398,"निभाई।":9399,"गयो":9400,"టమూ":9401,"नियंत्र":9402,"టాయి":9403,"निर्भर":9404,"गङ्गाका":9405,"టిన":9406,"निवास":9407,"नीति":9408,"ట్య":9409,"गतिशीलता":9410,"नेट":9411,"ట్రా":9412,"गम्भी":9413,"नेहरू":9414,"టనల":9415,"पक्ष":9416,"టనలబ":9417,"गम्भीर":9418,"पठार":9419,"టనలబై":9420,"पड़ा":9421,"టనలబైరెండు":9422,"गरिक":9423,"టనలబైరెండుకోట్లకు":9424,"पस":9425,"गरिएका":9426,"టన్‌":9427,"पुन":9428,"पो":9429,"టాగోర్":9430,"पंथी":9431,"టాయిడ్":9432,"पत्ति":9433,"టాయిడ్స్":9434,"गरिब":9435,"पहली":9436,"టియో":9437,"पहाड़ी":9438,"गरिरहेको":9439,"టిల్ల":9440,"पार्टियों":9441,"టియోర":9442,"गरिएको,":9443,"पुड़ा":9444,"టియోరారి":9445,"पुलि":9446,"టిల్లింది.":9447,"गरिकहरूलाई":9448,"पुरुषों":9449,"టీలలో":9450,"पुर्तगाली":9451,"गरे।":9452,"టువంటి":9453,"पुलिस":9454,"టెక్నాలజీ,":9455,"प्ति":9456,"गर्मी":9457,"प्रसार":9458,"టెడ్":9459,"प्रकाश":9460,"టెన్ని":9461,"गर्दछ;":9462,"प्रचलित":9463,"టెలి":9464,"गर्दै":9465,"प्रदेशों":9466,"టెన్నిస్":9467,"प्रभावशाली":9468,"టెన్నిస్లో":9469,"गर्दैन,":9470,"प्राचीनतम":9471,"టెలివి":9472,"प्रारम्भिक":9473,"టెలివిజన్":9474,"फु":9475,"టేటాయిడ్స్":9476,"फ़्":9477,"गर्‍यो,":9478,"టేసింది.":9479,"फुट":9480,"టైగర్).":9481,"बडी":9482,"गर्‍यो।":9483,"టైటిల్":9484,"बद":9485,"बल":9486,"టైటిళ్ళ":9487,"बह":9488,"టైటిళ్ళు":9489,"गाधनी":9490,"बंगाल":9491,"ట్కా":9492,"बढ़ने":9493,"ట్నం":9494,"गान्ध":9495,"बढ़ा":9496,"ట్టారు.":9497,"बनने":9498,"गामी":9499,"ట్టుకు":9500,"बने।":9501,"ట్టెల":9502,"बहुमूल्य":9503,"गाधनीहरू":9504,"ట్టారు.ప్రస్తుతము":9505,"बां":9506,"ట్టుకున్నాయి.":9507,"बियों":9508,"गान्धी":9509,"ట్యం,":9510,"बैठक":9511,"गुप्":9512,"ట్రాఫ":9513,"भरी":9514,"भो":9515,"ట్రాఫిక్":9516,"गुप्ताहरूको":9517,"भागीदारी":9518,"ట్రోపాల":9519,"भारती":9520,"ట్రోలి":9521,"गोद":9522,"ట్రోపాలి":9523,"भारतीयों":9524,"मना":9525,"गोदाव":9526,"ట్రోపాలిటన్":9527,"ట్రోలియ":9528,"मले":9529,"ట్రోలియం,":9530,"मध्यम":9531,"मनमोहन":9532,"ట్లలో":9533,"मही":9534,"ట్‌బ":9535,"मालदीव":9536,"गोदावरी":9537,"ట్‌బాల":9538,"ట్‌బాల్‌":9539,"मिश":9540,"मिश्र":9541,"ఠీ;":9542,"मी.":9543,"డబు":9544,"मीणा":9545,"డాల":9546,"मील":9547,"गोदावरी,":9548,"డించింది.":9549,"मुद":9550,"డైన":9551,"मोदी":9552,"డ్ర":9553,"मोर्":9554,"డ్ల":9555,"ग्गाधनीहरू":9556,"यद्यपि":9557,"డ్‌":9558,"यें":9559,"డబుల్":9560,"रखा":9561,"డబుల్స్":9562,"रत्":9563,"ग्दछन्,":9564,"డాలర్":9565,"राजभाषा":9566,"राजस्थान":9567,"డాలర్లు.":9568,"ग्दै":9569,"राजनीति":9570,"డిగించుకోవచ్చని":9571,"रुप":9572,"డిపోయింది.":9573,"रेखा":9574,"డిస్కవరీ":9575,"ग्दै,":9576,"लु":9577,"డుతుంది.":9578,"लू":9579,"డుస్త":9580,"ग्रन्":9581,"लगातार":9582,"డుస్తాయి.":9583,"लाल":9584,"ग्रन्थ":9585,"డ్జెట్":9586,"लिख":9587,"డ్మ":9588,"लोकसभा":9589,"ग्रन्थहरू":9590,"డ్మిం":9591,"लोकतांत्रिक":9592,"డ్మింటన్‌":9593,"वृद्ध":9594,"ग्रीष्":9595,"డ్రై":9596,"वर्णन":9597,"ग्रीहरू":9598,"డ్రైవరు":9599,"वर्षा":9600,"డ్‌గేజి":9601,"वाम":9602,"ఢవి":9603,"वास्तविक":9604,"विज्ञान":9605,"ఢవిల్ల":9606,"ग्रीकहरूले":9607,"वित":9608,"ఢవిల్లాయి.":9609,"विमान":9610,"ఢాకా-ఢిల్లీ-లాహోర్":9611,"विकासशील":9612,"ఢిల్లీ,పా":9613,"ग्रीष्म":9614,"विरोध":9615,"ఢిల్లీ,పాండిచ్చేరి,":9616,"विशाल":9617,"ణంతో":9618,"वृद्धि":9619,"ణాలు":9620,"श्रे":9621,"ग्रीष्मकालीन":9622,"ణించ":9623,"शामिल":9624,"ణిక":9625,"घेरिएको,":9626,"शास्त्र":9627,"ణుల":9628,"शैली":9629,"ణే":9630,"ष्ट":9631,"ణాది":9632,"ष्ट्र":9633,"ङ्का":9634,"ణాన్ని":9635,"सदी":9636,"ణాళ":9637,"सभी":9638,"ङ्कुशता":9639,"ణాదికి":9640,"सर्":9641,"सशस्त्र":9642,"ణాళికలు":9643,"ङ्खला।":9644,"सारी":9645,"ణిపు":9646,"चक":9647,"सों":9648,"ణించలేదు":9649,"सौहार":9650,"ణించలేదు.":9651,"चान":9652,"सकता":9653,"ణికుల":9654,"सकते":9655,"ణిపురి":9656,"चोल":9657,"सतपुड़ा":9658,"ణిపురి.":9659,"समझौ":9660,"चलाउँछ।":9661,"తక్కువే.":9662,"सम्पूर्ण":9663,"తగ్గిపోయింది.":9664,"सरकारों":9665,"తదు":9666,"साक्षरता":9667,"తదేశపు":9668,"साह":9669,"తనా":9670,"साथ,":9671,"తమ్య":9672,"साम्राज्यों":9673,"తలం":9674,"साहित":9675,"चानलाई":9676,"తాన":9677,"साहित्य":9678,"सूचना":9679,"తాయ":9680,"सेनाओं":9681,"తార":9682,"चालित,":9683,"सेवाओं":9684,"తాలతో":9685,"सैनिक":9686,"తీ,":9687,"चालुक्यहरूले":9688,"सौहार्द":9689,"తక్కువ.":9690,"स्टाफ":9691,"తత్వానికి":9692,"चिएका":9693,"स्ति":9694,"తదుపరి":9695,"स्थल":9696,"चिनिन्":9697,"తనలో":9698,"स्थानीय":9699,"తనాట్యం,":9700,"स्थापित":9701,"తమిళం,":9702,"हत्या":9703,"తమిళం.":9704,"हारी":9705,"चिनिन्छ।":9706,"हिस्सा":9707,"తమిళం;":9708,"हुआ,":9709,"తమిళనా":9710,"होने":9711,"తమిళనాడుకు":9712,"चिसो":9713,"होंने":9714,"తమ్యాలు":9715,"ालय":9716,"चिह":9717,"తమ్యాలున్నాయి.":9718,"ूत":9719,"తరతరాలు":9720,"ेरल":9721,"चिनिन्छन्,":9722,"తరతరాలుగా":9723,"ेशि":9724,"తరువాత,":9725,"्म":9726,"తర్వాతి":9727,"्यों":9728,"चिह्न":9729,"తలల":9730,"१,":9731,"తలంపు":9732,"१९४७":9733,"१९८४":9734,"తలంపుతో":9735,"१९९१":9736,"తాజ్‌మహల్":9737,"चिह्नित":9738,"२६":9739,"తాక,":9740,"२०१४":9741,"चीन,":9742,"తానులు,":9743,"५२":9744,"తాయని":9745,"चुनावमा":9746,"९.":9747,"తారతమ్యాలున్నాయి.":9748,"(3":9749,"తిరి":9750,"चुनावी":9751,"(b":9752,"(एन":9753,"తిశ్ర":9754,"(कुल":9755,"चोलहरूले":9756,"తిక,":9757,"(फ़":9758,"(हिन्दी":9759,"తిరిగే":9760,")।":9761,"चौकीहरू":9762,"తిశ్రద్ధ":9763,"-आ":9764,"-गंगा":9765,"తిశ్రద్ధలతో,":9766,"-चीन":9767,"चौथ":9768,"-चीफ":9769,"తురు":9770,"-फ़":9771,"चौथो":9772,"తురుష్":9773,"-समय":9774,"-आकृ":9775,"తురుష్కుల":9776,"/वर्ष":9777,"छा":9778,"తులు;":9779,"1,200":9780,"తులున్నాయి.":9782,"छु":9783,"తూర్పున":9785,"छै":9788,"తెప్ప":9789,"36.":9791,"తెలి":9792,"s)":9793,"छाप":9794,"తెప్పించుకో":9795,"ंकि":9796,"ंच":9797,"తెప్పించుకోవడ":9798,"छाप्न":9799,"ंजी":9800,"ंत":9801,"తెప్పించుకోవడానికి":9802,"ंतर":9803,"छुट":9804,"తెప్పించుకోవడానికి,":9805,"ंतीस":9806,"ंपर":9807,"తెలిసింది.":9808,"ंबर":9809,"छुट्या":9810,"తెలుగు;":9811,"ंसक":9812,"ंकड":9813,"తేది":9814,"छुट्याएको":9815,"ंगलों":9816,"ंगी":9817,"తేల":9818,"ंगो":9819,"छैट":9820,"తేలిక":9821,"ंगीण":9822,"ंचों":9823,"తేలికే":9824,"ंचों,":9825,"छैटौँ":9826,"ंतिम":9827,"తేలికేన":9828,"ंध्या":9829,"తేలికేననీ":9830,"ंध्याचल":9831,"जग":9832,"తోష్ణ":9833,"ंपरिक":9834,"जग्गाधनीहरू":9835,"ंसावादी":9836,"త్తరాలు":9837,"अंतिम":9838,"త్తల":9839,"अग्र":9840,"जटि":9841,"త్తాక,":9842,"अथ":9843,"अनिव":9844,"త్యజిత్":9845,"जता":9846,"अशांति":9847,"असं":9848,"త్ర,":9849,"असफल":9850,"जम्":9851,"త్రివర్ణ":9852,"असैनिक":9853,"अंग्रेजों":9854,"త్వం":9855,"अक्षु":9856,"जित":9857,"త్వంలో":9858,"अक्षुण्":9859,"अक्षुण्ण":9860,"త్వర":9861,"ज्व":9862,"अग्रणी":9863,"త్వాలు":9864,"अथवा":9865,"अधिराज्य":9866,"ज।":9867,"త్వరలో":9868,"अधिकारी":9869,"अनिवार":9870,"త్వరలోనే":9871,"जटिल":9872,"अनिवार्य":9873,"త్వాన్ని,":9874,"अनुसूची":9875,"థమ":9876,"अनुसार,":9877,"जतातत":9878,"अभियानों":9879,"థాత":9880,"अमेरिकी":9881,"जताततै":9882,"अमेरिका,":9883,"థాన":9884,"अर्ध":9885,"థార్":9886,"अलावा,":9887,"जनपद":9888,"థి":9889,"अल्पा":9890,"अल्पाइन":9891,"థాతథ":9892,"जनिक":9893,"अवसा":9894,"अवसाद":9895,"థానే":9896,"अहिंसावादी":9897,"जनपदहरू":9898,"థిలి":9899,"आए":9900,"आठ":9901,"థిక్":9902,"आदर्":9903,"जनाउँछ।":9904,"आने":9905,"థిలి;":9906,"आपात":9907,"దం,":9908,"जन्म":9909,"आम":9910,"దండయాత్రలతో,":9911,"आर":9912,"जम्मा":9913,"దక్కను":9914,"आक्र":9915,"आक्रम":9916,"దక్షణాసియాలో":9917,"आक्रमण":9918,"जलोढ":9919,"आठवीं":9920,"దగ్గరలో":9921,"आदर्श":9922,"దశ":9923,"जाँदा,":9924,"आपके":9925,"आपातकाल":9926,"దస":9927,"आपूर्तिक":9928,"जाको":9929,"आपूर्तिकर्":9930,"దాన":9931,"आपूर्तिकर्ता":9932,"దారు":9933,"आयात":9934,"जाड":9935,"आयातक":9936,"దీన":9937,"आवंट":9938,"आवश":9939,"దీర్":9940,"जातन्त्र":9941,"आवश्य":9942,"దులు":9943,"इजरा":9944,"जाब":9945,"इण्ड":9946,"దృ":9947,"इत्या":9948,"దైన":9949,"इलावा":9950,"जाडो":9951,"इस्त":9952,"దక్షిణాదికి":9953,"इंडोन":9954,"इंडोनेश":9955,"దక్షిణది":9956,"जातीय":9957,"దక్షిణదిగ్భాగే,":9958,"इंडोनेशिया":9959,"इजराय":9960,"जीवनको":9961,"దక్షిణాన,":9962,"इजरायल":9963,"इण्डिया":9964,"దరిక":9965,"जोड":9966,"इत्यादि":9967,"దరికం,":9968,"इन-चीफ":9969,"इनका":9970,"దర్శకుడైన":9971,"ज्ञा":9972,"इसने":9973,"దర్శించే":9974,"इस्ते":9975,"ज्ञात":9976,"దశలో":9977,"इस्तेमाल":9978,"ईसाई":9979,"దసరా":9980,"ज्ञाना":9981,"उड़ी":9982,"దసరా.":9983,"उन्":9984,"उभरी":9985,"దాటిన":9986,"ज्ञानात्मक":9987,"उल":9988,"उठा":9989,"దాటేసింది.":9990,"उठाया":9991,"ज्ञानात्मक,":9992,"దాదాపుగా":9993,"उड़ीसा":9994,"उत्तर-पश्चिम":9995,"దానంతో":9996,"उत्तरदाय":9997,"ज्वा":9998,"उत्पादन":9999}