{"మ్రాజ్య": 3932, "▁[भारत](https://hi.wikipedia.org/wiki/भारत": 7489, "▁increased": 6089, "▁ल": 1027, "్రమ": 3648, "वा": 1173, "दी_": 8773, "ssoc": 4351, "arly": 3788, "yan": 3506, "▁(c": 5564, "119": 3987, "ద్ర": 2382, "ices": 7589, "_Island": 3567, "▁\"U": 6348, "49": 1330, "पाकिस्तान": 1914, "](https://te.wikipedia.org/wiki/జమ్మూ": 6934, "समूह": 6885, "93": 3710, "-कार": 7642, "▁नेतृत": 4941, "ुस्तान": 8215, ".jpg/120px-": 2720, "fied": 7831, "S.XLS": 8860, "▁स्": 1504, "ese": 2700, "peration": 2865, "▁అనే": 5369, "▁खास": 9602, "▁[v](https://te.wikipedia.org/wiki/మూస:": 8022, "▁पुरा": 4388, "▁[Ar": 6532, "](https://hi.wikipedia.org/wiki/भारत#cite_ref-pib": 6239, "तेल": 2380, "ɾ": 118, "▁सह": 5563, "253": 4706, "▁हरियर": 9961, "](https://en": 337, "_भाषा": 1844, "978-0-19-5": 4352, "_सभा": 8300, "▁రాజవంశ": 9662, "▁\"नेपाल\")": 9928, "-largest": 4623, "▁c": 415, "▁\"భారతదేశ": 2999, "द्वीप": 3111, "–17": 8219, "त्त": 929, "▁(2006),": 9896, "•": 289, "leavy": 7799, "ilt": 8554, "W00C-01%20": 8880, "_Arab": 9464, "▁tril": 8784, "िवेश": 7498, "phy": 4213, "s.[[": 3110, "▁इस": 1561, "▁शहर": 5791, "ist": 467, "ournal": 4654, "ंग": 581, "rief-on-jana": 8868, "▁ప్రతి": 5998, "ఛ": 231, "▁వర్": 5970, "ోర్చు": 8012, "2,": 3839, "▁movement": 4899, "irelease.aspx?rel": 9564, "omo": 6688, "ica": 6520, "_Re": 8628, "దక్షి": 1461, "▁पर्यटन": 7476, "Ö": 97, "ऍथनोल": 7034, "▁గల": 4212, "▁లో": 2141, "ట్": 1525, "_की_स": 1609, "ి": 259, "युक्त": 1871, "▁language": 1194, "▁[Ludden": 7619, "▁कर्ज": 7437, "la": 1706, "▁7": 1607, "▁minister": 4177, "२.": 7702, "hel": 1639, "230-345": 7332, "▁republic": 7363, "▁संसदीय": 9826, "श्मीरी": 4956, "G": 39, "more": 7680, "▁हैं,": 3760, "_of_India": 767, "ీర్": 4456, "](https://en.wikipedia.org/wiki/Pakistan": 9557, "economic": 4104, "ec": 1014, "▁[चीन": 7430, "▁—": 5004, "▁H": 664, "\")[[": 4059, "pecial:": 644, "चीन": 1811, "1200": 5235, ".gov.": 8162, "igveda": 9973, "our": 513, "_Bank": 8633, "▁चार": 6039, "Ch": 2833, "▁February": 3704, "report": 7435, "ons": 511, "భాష": 1180, "ंचनजं": 9867, "ंपनी": 9716, "▁निर": 9419, "ीन": 1681, "-an": 4744, "o-d": 6243, "\")*": 1809, "timesofindia.indiatimes.com/": 4802, "▁found": 4333, "britannica.com/place": 8396, "yd": 6584, "ప్రత్యేక:EditPage/మూస:": 4601, "ईद": 6588, "शासित": 2655, "Z": 58, "ఆంధ": 5885, "▁लगभग": 7001, "2005": 1779, "›": 293, "ద్య": 4447, "▁एक": 1235, "ీకరణ": 6996, "ority": 2087, "ervice": 8645, "Wolpert": 4423, "्यूरो": 6699, "▁जहाँ": 9382, "rganization": 4740, "ंगोल": 9405, "audi": 8459, "urvey": 6116, "72": 3530, "-8": 713, "_&": 6325, "arendra": 5100, "क्षेत्र": 2235, "र्ट": 6204, "▁eastern": 5124, "udden": 2538, "▁[W": 2224, "భూ": 2383, "▁An": 2131, "▁India](https://en.wikipedia.org/wiki/P": 8522, "nown": 3148, "rest": 6357, "▁2007.": 6529, "ir": 602, "यास": 9335, "▁social": 4172, "mill": 6580, "▁[महाराष्ट्र": 6799, "can": 3866, "▁गुफाएं": 9910, "▁\"साँच": 6673, "▁on": 716, "▁(nominal)": 7786, "दून": 9075, "orea": 7293, "`": 64, "tence": 8165, "Dyson2018),": 6074, "tic": 534, "▁[GDP": 7492, "▁Act,": 4038, "hilippines": 8737, "▁CITEREFStein1998": 6270, "వే": 1793, "-4020": 5468, ".j": 570, "▁\"South": 2293, "ergy": 7778, "फाएं": 6988, "స్థ": 1029, "come": 3068, "▁*[": 1151, "ेस": 3209, "10.": 1590, "ैक": 2859, "](File:": 1632, "▁*A": 8302, "रो": 3040, "rab": 2324, "pura": 3833, "](https://mai.wikipedia.org/wiki/": 691, "క్నాల": 4503, "eh": 3173, "QBAJ": 1271, "गणतन्त्र": 9641, "Sharma2007": 6978, "▁urban": 5095, "6)": 1874, "▁general": 3376, "▁\"E": 1201, "ేఘాలయ": 6650, "▁Emergency": 9430, "identifier": 540, "ఖండ్": 4846, "](https://en.wikipedia.org/wiki/India#CITEREFM": 7267, "▁[↑](https://en.wikipedia.org/wiki/India#cite_ref-FOOTNOTE": 979, "▁दो": 3913, "▁technology": 5398, "tern": 1058, "‌మహల్": 7037, "थियार": 6179, "ad-": 7815, "టెక్నాలజీ": 4603, "uddhism": 4540, "978-0-521-80": 3558, "to": 1534, "ronom": 7334, "रक्ष": 2550, "-j": 5846, "▁11.": 8929, "mas": 7679, "006": 8931, "*](https://": 6548, "amaj": 9309, "్రాన్": 9442, "sher": 1213, "ेय": 8217, "all": 1015, "▁2019.": 3803, "▁ప్రజ": 5372, "amily": 7980, "▁वर्ग": 4389, "ters": 3314, "ी_भाषा": 2227, "o": 79, "unjab": 2595, ".htm)": 6093, "C)": 6514, "30": 741, "ీన": 3891, "omin": 3361, "▁West": 7611, "▁वर्तमान": 8346, "\\_with": 2462, "age/": 1823, "▁द्वार": 3214, "1965": 8642, "_के": 867, "राष्ट्र": 938, "WEO.IN": 3836, "or": 306, "▁చర్చ:": 7873, "▁अर्थ": 4383, "▁23": 3043, "हुमूल्य": 9649, "Dikshit": 3860, "man": 1598, "ountry": 1574, "_of_India.svg": 7072, "encies": 2765, "reat": 3791, "▁[↑](https://en.wikipedia.org/wiki/India#cite_ref-FOOTNOTECraven1997": 8609, "_వ్యవస్థ": 9798, "▁(India)": 7214, "▁అధికారిక": 6090, "IJ": 4828, "o-": 942, "_के_आ": 2436, "▁मिल": 5772, "_के_आधार_पर_भारत": 2567, "ेज": 9101, "etnam": 8528, "_V": 3724, "▁పండు": 6729, "▁సముద్ర": 6768, "mpl": 846, "▁मई": 5771, "▁\"Category:": 4521, "\"](http://www.": 8172, "oast": 2660, "reek": 4353, "▁పెద్ద": 5332, "rahm": 5940, "▁(ed.).": 6361, "vi": 1406, "च्चे": 9690, "](https://en.wikipedia.org/wiki/India": 378, "erv": 1895, "स्क": 1425, "र्सिट": 4589, "▁పో": 9341, "ౌద్ధ": 4154, "978-0-19-88": 3699, "▁January": 3020, "iris": 9420, "pecial:Book": 681, "_on": 5171, "](https://en.wikipedia.org/wiki/O": 3435, "▁Pradesh\")": 6905, "International": 3560, "*),": 8428, "నాభా": 2779, "](https://hi.wikipedia.org/wiki/विशेष:पुस्तक_स्रोत/978-1": 4301, "ade": 2846, "ొయ": 7738, "ూర్": 2864, "▁bas": 9343, "▁[28": 8229, "దక్షిణ_ఆసియా": 5494, "](https://hi": 350, "▁प्रा": 1993, "of\\_": 5831, "ब": 171, "ा_वार्ता:": 6872, "ay": 623, "▁education": 7743, "िज": 3083, "1_": 1956, "Library": 4245, "123": 5205, "▁(సా.శ.16": 6792, "▁\"महाराष्ट्र\")": 7046, "_of_B": 5955, "6-0)": 3573, "चें": 6177, "ticle": 3751, ".శ.)": 9389, "▁or": 760, "d/": 6573, "ind": 606, "पीय": 6603, "-90": 4113, "▁\"Central": 7274, "ोगरी": 6031, "▁Indian": 872, "టాక్": 6954, "▁rit": 9172, "्टॉक": 6760, "-language\\_": 3986, "ాలకు": 9301, "▁history": 4264, "▁[జ": 2672, "▁birth": 9348, "map": 2291, "aries": 4760, "అ": 214, "▁సామాను": 9976, "acred": 7224, "_మతము": 4223, "▁Buddhist": 6085, "▁अमेर": 6214, "▁territories": 3079, "▁China": 4295, "place": 7623, "](https://hi.wikipedia.org/wiki/मध्य": 6251, "_इ": 4247, "▁who": 3814, "-s": 1666, "▁రూపా": 9522, "▁[F": 2160, "ం\")": 1547, "310": 8177, "ia": 304, "728": 8980, "▁[लोक": 7750, "cord": 3347, "Ludden2014": 8043, "ann": 3094, "_New": 3810, "▁Des": 9410, "tification": 7064, "21.": 7447, "▁ద్వీ": 9179, "చ్చ": 1692, "ansk": 1640, "▁[v](Template:": 7338, "▁हैं": 1091, "▁राजवंश": 5062, "ेली": 5057, "ించిన": 9640, "Uttar": 3199, "Y": 57, "▁వ": 598, "Tarlo1996-26": 8112, "▁కే": 6744, "▁class": 2497, "fe": 1449, "af": 4674, "▁क्षेत्रों": 5397, "asing": 4693, "▁\"का": 9210, "▁\"ह": 3994, "hek": 7829, "spect": 8145, "▁Art": 8028, "జా": 874, "ం,": 4144, "▁se": 1729, "▁अप्र": 4066, "न्नड़": 6050, "irth": 5972, "थाईल": 6790, "బా": 2671, "▁मन्दिर": 6700, "s\")": 1638, "▁है": 552, "](https://en.wikipedia.org/wiki/B": 1110, "File:": 1583, "auth": 2806, "यत": 5267, "eserve": 5462, "_11": 3414, "గా,": 9549, "ilk": 7242, "నియన్": 9415, "▁ट": 3394, "ocial": 2311, "పూర్": 6807, "Indones": 3935, "pecial:EditPage/Template:": 4233, "वन": 1979, "_స": 1790, "tou": 7183, ")\"),": 6547, "_से": 6228, "-re": 2525, "archive.org/details/": 5539, "dministrative": 8462, "apita": 4359, "▁జనాభా": 4209, "కుడు": 6005, "act": 2290, "▁even": 7852, "°": 95, "50": 697, "र्वत": 3598, "्राष्ट्र": 6025, "\\_link": 7807, "▁*[The": 3934, "▁అత్య": 4190, "శ": 254, "▁పాకిస్తాన్": 6928, "युक्त_अ": 9665, "avid": 2804, "షన్": 3117, "iteracy": 7133, "మె": 2384, "दल": 6599, "▁divis": 7240, "డియా": 7959, "arli": 5040, "▁प्रत्य": 9401, "▁his": 4872, "ashmiri": 5434, "ర్ష": 7823, "aph": 6809, "pub": 8470, "ke": 1133, "▁ప్రస్తు": 5999, "-107-02649": 7373, "్యా": 1725, "▁V": 1291, "mation": 7178, "ingdom": 3904, "857": 7077, "▁2006](https://en.wikipedia.org/wiki/India#CITEREFAsherTalbot2006),": 9778, "▁व्य": 5049, "▁ఇండో": 9560, "-e": 5600, "](https://hi.wikipedia.org/wiki/भारतीय": 3592, "=": 30, "Ministry_of_Home_Affairs_1960": 8744, "▁\"B": 1039, "-c": 2455, "ॉल": 5039, "▁CITEREFSingh2009": 6271, "Collingham": 6560, "Wiki": 1997, "▁जिसमें": 4567, "-30": 4385, "▁river": 6895, "హదార": 3642, "श्रीनगर": 7519, "my": 4134, "978-0": 674, "नत": 7418, "▁से](http://www.": 4507, "जनपद": 9588, "दिभ्स": 6973, "rans": 2579, "cyclopedia": 5148, "▁16": 2473, "ठार": 9069, "▁ब्रिटिश": 7120, "*": 11, "टना": 5747, "_कोर": 9387, "Robb2011": 8687, "णिपुर": 9768, "విజ": 9532, "###": 1788, "▁near": 5839, "गत": 5029, "▁[International": 7753, "ce": 490, "reed": 5102, "–4": 9161, "_1960": 8045, "ार्वभौम": 8134, "▁तुलना": 8422, "▁cap": 8530, "ాలా": 4886, "ువు": 7730, "▁ప్రపంచంలో": 8049, "government": 7675, "▁\"United": 4014, "times": 1627, "ెట్రో": 6648, "▁World": 2170, "ns": 6144, "cise": 5615, "censusindia": 9636, "Ministry_of_": 5611, "▁మ": 643, "urned": 9357, "▁1998](https://hi.wikipedia.org/wiki/भारत#CITEREFStein1998),": 6301, "మిజోరా": 6998, "▁31": 8635, "पु": 712, "ंडमान": 6825, "▁రహదార": 4927, "▁[Sri": 8588, "▁है।\n": 2169, "59": 1789, "B": 34, "▁శ": 1587, "तुल्य": 7026, "_map_en": 8415, "Curry": 8989, "ాలయ": 2876, "▁यह": 2369, "▁arts": 9493, "Report": 4246, "ator": 6207, "emi": 8603, "ूल": 1254, "map_of_India": 8839, "▁लग": 5056, "साई": 5193, "2-10": 7648, "National_": 2631, "_G": 1294, "_केन्द्र": 9497, "▁कश्मीर": 4467, "▁अभी": 8273, "ayan": 2505, "oth": 3063, "▁[978-1": 1733, "49-2": 6035, "bbc": 5213, "▁inte": 6701, "ash": 3095, "▁2011.": 4652, "गढ़": 2273, "](https://te.wikipedia.org/wiki/ముంబై": 9268, "▁Policy": 7069, "aury": 4831, "A4%": 1710, "86": 3171, "46": 1245, "▁2011": 1337, "వాతంత్ర": 3464, "mplates": 6804, "ीत": 2835, "కీయ": 3882, "ौर्य": 9823, "▁[Government": 5409, "pedia/": 960, "इप्रस": 6979, "▁दृष्टि": 8097, "▁out": 3993, ")[[3": 7282, "had": 5622, "▁राजनीतिक": 6985, "थी": 7415, "▁నే": 5400, "▁భారతదేశ": 3645, "_Indian_subcontinent": 8647, "▁మూ": 5977, "िये": 3925, "▁मो": 4472, "स्व": 5752, "▁सेना": 2886, "s](https://en.wikipedia.org/wiki/": 9042, "▁అను": 7891, "onstitution_of_India": 6425, "▁people": 3940, "countries_and_dependencies_by_population": 8095, "స్సా": 3271, "▁zone": 7369, "▁J": 774, "_Times": 7302, "ht": 1095, "▁క్రీడ": 3964, "▁rel": 6784, "om": 363, "ఖండ": 4443, "limate": 3815, "शत": 6611, "ni_M": 9400, "▁served": 7803, "wal": 3629, "▁\"మూస:": 6677, "](https://en.wikipedia.org/wiki/Routledge": 7307, "ategory": 665, "▁2009": 2890, "▁ve": 7741, "ymbols": 4974, "▁[2](https://te.wikipedia.org/wiki/భారతదేశం#cite_ref-": 9603, "▁many": 3910, "*,": 3081, "▁industry": 3967, "sites/default": 8110, "▁Hind": 1263, "▁vill": 6428, "▁original": 1044, "inguis": 3270, "ṣ": 274, "528": 7398, "▁वि": 869, "▁गया": 2012, "enn": 3646, "▁द्वीपसमूह": 9849, "detail": 4607, "मेर": 4089, "–సా.శ.1947)": 7890, "भिन्न": 7490, "▁gre": 4913, "▁अछि": 4895, "ం](https://te.wikipedia.org/wiki/": 1258, "▁subcontinent": 2627, "ौपदी": 5884, "▁जिसके": 7509, "▁[↑](https://hi.wikipedia.org/wiki/भारत#cite_ref-10": 6916, "▁[Re": 9621, "etcalf": 736, "elated": 7872, "गाल": 5746, "धन": 4437, "_अ": 2476, "ताजमहल": 9938, "భ": 247, "टक": 3038, "commons": 950, "ealth": 3712, "्रिस": 7107, "fn\\_no-t": 1943, "▁feat": 9334, "ख्": 7690, "613": 7650, "▁గణ": 7974, "▁[\"C": 3721, "-21": 3142, "tates": 2754, "ఘాలయ": 6624, "Page/": 1925, "ోళ": 6653, "ameez": 6861, "నాట": 7878, "త్వం": 5990, "mporary": 8560, "-203": 8661, "til": 9227, "▁March": 3188, "▁Category:": 1100, "भग": 5750, "ances": 4686, "DR": 7655, "▁them": 5103, "rime": 5650, "हीं": 3736, "ఆగ": 4844, "ion": 632, "▁of": 369, "](https://te.wikipedia.org/wiki/భారతదేశంలో_": 6084, "▁R.": 4238, ".org": 4756, "▁policy": 8264, "▁./": 811, "\"\n": 1619, "2024": 2837, "▁हिस्": 7982, "bd": 8189, "मालय": 4258, "](https://en.wikipedia.org/wiki/Sri": 9501, "▁संस्कृत": 8318, "ford": 1300, "▁domestic": 7241, "160": 4816, "RI": 1359, "िपुरम": 9100, "ango": 6372, "▁[Routledge](https://en.wikipedia.org/wiki/Routledge": 7384, "▁औ": 5756, "▁क्रांति": 9238, "%2C_India": 6492, "श्रेणी": 823, "6.\n": 7160, "▁Hinduism": 5440, "विज्ञान": 3126, "▁*India": 6765, "ogue.bnf.fr/ark:/12148/cb": 8697, "ला": 571, "ographic": 2939, "▁[पु": 3122, "▁Le": 9496, "हरी": 4260, "ethnologue": 5870, "▁पा": 2429, "History": 1961, "▁कंपन": 9237, "▁स्थापित": 9895, "लावा": 7449, "▁भाषा": 935, "pect": 3178, "▁\"Indian": 1708, "ेशिया": 4773, ".ed": 7057, "नाडु": 3749, "tex": 3743, "मिल": 1644, "ेशन": 4772, "](https://hi.wikipedia.org/wiki/भारत#CITEREFStein1998),": 6273, "द्ध": 1468, "े": 192, "enous": 7198, "1997": 3374, "▁[పాకిస్తాన్": 7751, "संख्या": 2820, "▁–సా.శ.": 6662, "▁1980": 8159, "](https://hi.wikipedia.org/wiki/ज": 6197, "▁Punjab": 5657, "a_Empire": 6015, "ellion": 9456, "निक": 2989, "जी": 1771, ".aspx?": 4414, "▁Act": 2662, "lob": 2921, "%3": 6459, "▁ద్": 9173, "rown": 4412, "▁विज्ञान": 6805, "ంబే": 9582, "uff": 9046, "a\")": 1304, "▁गा": 4073, "-45": 7465, "గర్": 5889, "tal": 2580, "troduction": 6296, "vel": 4487, "day": 5824, "6": 23, "uc": 932, "ober": 2245, ".in)\n": 7879, "▁६": 9166, "ester": 6358, "\\_par": 7594, "-17feb": 9758, "5–": 3500, "rove": 7236, "ef": 1776, "▁m": 492, "tu": 649, "110": 3823, "son2014-p": 8011, "▁కాల": 2327, "कृति": 8197, "40.": 8591, "न्तर": 4947, "viol": 4543, "▁ए": 788, "une": 1900, "Ἰ": 276, "▁India\"](https://": 8256, "ार्कटिका": 7051, "](https://en.wikipedia.org/wiki/Mugh": 6014, "భు": 3887, "▁మార్": 3128, "▁द्वीप": 4067, "▁Ge": 4909, "eries": 4688, "](https://te.wikipedia.org/wiki/పా": 9264, "त्तरी": 4078, ":EditPage/": 4416, "▁11": 4896, "▁areas": 6841, "వాద": 6819, "00–": 7834, "ant": 1712, "late": 6331, "▁largest": 4340, "s:": 6336, "/A-2_Data_": 8844, "▁वाला": 9444, "रबै": 7966, ".aspx": 3528, "▁त": 715, "▁साम्राज्य\")": 5199, "al_": 651, "itchi": 8516, "▁fol": 6725, "\\_identifiers": 5327, "gory": 663, "దేశం": 5945, ".svg.png)](File:": 8695, "िन्धु-गंगा": 8403, "త్తరా": 4572, "▁0.": 3311, "_con": 8455, "avy": 3807, "▁Science": 4612, "▁प्रस": 5346, ".\"\n": 2054, "MetcalfMetcalf2012-": 8398, "▁consid": 7621, "▁legisl": 8724, "Template:": 2214, "0%": 1187, "nific": 8561, "▁क": 349, "▁न्यायालय": 3960, "रक्षित": 9728, "▁like": 6864, "▁प्रदेश": 1275, "les/00%20A": 8835, "key": 4033, "▁Am": 9320, "108": 8296, "118": 4072, "16": 850, "rist": 3727, "राठी": 6292, "▁खाना\")": 3481, "4,": 6460, "सभक": 6866, "OTNOT": 477, "క్ష": 1022, "▁b": 446, "विद्यालय": 7446, "▁मशीन": 5773, "లోన్": 9390, "టిలో": 9583, "కేంద్రపాలిత": 4147, "ity": 608, "13537545": 8963, "pp": 2693, "ishers": 7887, "▁\"भारतीय": 1299, "OV": 8448, "▁Report": 7598, ").svg": 8923, "కా": 1389, "యో": 4856, "▁మార్గాలు": 8033, "ZvaGuaJIJgo": 5158, "rchived": 1167, "nathura": 9036, "asia": 3044, "त्रुट": 9388, "▁19": 754, "6]](https://en.wikipedia.org/wiki/India#cite_note-vatsyayan-lord-4": 6446, "_स्रोत/": 2434, "▁\"History": 4323, "state": 3909, "स्तक": 1516, "bi": 3308, "▁సంస్కృతి": 3136, "भौ": 7697, "▁early": 7853, "ingle": 9305, "aus": 3844, "AS": 6166, "P": 48, "शीन": 3735, "▁माध्यम": 8371, "ండర్": 4910, "किम": 3759, "culture": 8766, "ళ్": 4452, "2nd": 7086, "ments": 3658, "▁మత": 3664, "న్నాయ": 2326, "sia": 616, "ృష్": 7732, "pen": 7194, "▁साम": 8808, "M50th": 5857, "▁న": 1154, "tile": 6679, "ुवैत": 6126, "est_B": 9474, "Library_of_Congress": 7356, "jayan": 8465, "-B": 3389, "osphere": 6008, "▁మార్గాలు\n": 9794, "▁రంగ": 6011, "▁వి": 1394, "books.google.com/books": 884, "विशेष": 1264, "FO": 473, "▁జా": 7742, "క్షరాస్య": 6826, "ड़िया": 5192, "ार्": 2554, "_A": 745, "గతి": 7708, "M": 45, "25": 572, "ctober": 2403, "ట్ర": 4851, "2/": 2924, "▁[N": 1377, "▁स्थापना": 9894, "▁[East": 9613, "anipur": 5194, "▁अभिगमन": 1462, ".or": 318, "al_Population_T": 5718, "वरी": 2104, "/c": 1714, "▁\"सहायता:": 9572, "▁पब्ल": 9288, "](https://te.wikipedia.org/wiki/భారతదేశ_": 9269, "isa": 8507, "britannica": 4426, "▁Press": 1086, "వ](https://te.wikipedia.org/wiki/List_of_": 4982, "ूह": 4057, "▁బెంగాల్": 8092, "ప్రిల్": 6814, "▁ప్రా": 1393, "▁मंदिर": 2617, "ध्यम": 7503, "ंत्र": 1290, "▁पर्वत": 4475, "▁भूमि": 9860, "ahar": 3625, "याधीश": 4989, "_University_Press": 2712, "▁बा": 3593, "ణాసియా": 3684, "▁२०११": 8073, "▁కల్": 9394, "onstitutional": 5586, "sites/default/files/": 8135, "](https://catal": 8226, "▁University": 1142, "till": 7773, "▁str": 7290, "ie": 4677, "-8\").\n": 7875, "3.": 1439, "censusindia.gov.in/2011census/C-01/DDW00C-01%20": 8890, "ఖ": 227, "స్వాతంత్ర్య": 6723, "po": 4631, "द्यनाथ": 9607, "▁they": 4270, "](https://en.wikipedia.org/wiki/India#CITEREF": 743, "४.": 7429, "▁नि": 1859, "పు": 1145, "▁D.": 4655, "▁प्रशास": 7848, "andy": 9250, "fgh": 4130, "▁after": 2882, "ులు\"),": 4515, "▁millen": 7323, "ataraja": 8717, "](https://doi.org/10.": 3211, "▁number": 2955, "▁शांति": 8384, "%E0%": 1563, "]](https://hi.wikipedia.org/wiki/भारत#cite_note-Combined": 8322, "▁ఉపఖండ": 6983, "▁different": 6434, "](https://hi.wikipedia.org/wiki/आ": 4060, "pecial:EditPage/": 4182, "▁लिए": 3343, "▁when": 5701, "ది.": 4150, "▁రాజు": 9661, "▁धर्म\")": 5067, "xim": 7688, "पांड": 8328, "డా": 2136, "रान": 8258, "రువా": 4931, "క్క": 2884, "_number": 8957, "ह": 182, "'s": 897, "_v": 5543, "](Special:BookSources/978-0-19-9": 8614, "▁ड": 3120, "▁[ఉత్తర": 9196, "▁Asher": 6718, "Congress": 4397, "](https://www.": 1216, "ा:": 1731, "Tarlo1996": 7032, "978-0-5": 1567, "ihar": 4248, "/0": 2349, "eval": 4629, "ेक": 4842, "the": 357, "Intelligence": 9226, "హింద": 1630, "तेलुगू": 5482, "ాన": 1161, "opulation_en": 8815, "india.gov": 1347, "▁(1,": 3793, "int": 2161, "_क्षेत्र": 2651, "rish": 2797, "गोलशा": 9772, "▁[हिन्दू": 8843, "▁David": 4616, "स्‍": 7467, "IM": 3082, "iN": 9025, "▁[హిందీ": 9193, "పతి": 2248, "▁[ISBN](https://hi.wikipedia.org/wiki/ISBN_(identifier)": 2435, "▁ter": 8478, "ంగ్రె": 3917, "s.": 1440, "ंश": 6587, "म्न": 9494, "▁growth": 5983, "â": 99, "{": 91, "\\_country": 5775, "India)": 2531, "208": 4761, "लिस": 5033, "▁pur": 7805, "▁सूची\")": 1983, "ెంగ": 5907, "▁ఉన్నాయి.\n": 8025, "▁Affairs": 4700, "agle": 9324, "wi": 301, "\\_c": 8266, ">": 31, "▁\"वि": 8234, "▁[బ": 2318, "ర్నేషనల్": 9354, "▁Press](https://en.wikipedia.org/wiki/Oxford_University_Press": 4587, "▁సర్వ": 7860, "▁ఇండియా": 6838, "05": 1783, "ames": 1647, "▁[మధ్య": 7972, "▁राज": 1471, "62": 2027, "▁errors\"))\n": 1878, "▁sub": 1835, "▁Research": 5664, "ofker": 6687, "వం": 1414, "లక్షద్వీప్": 6994, "▁जनवरी": 4942, "थ": 164, "-19": 2666, "tle": 7580, "ship": 4955, "ovement": 2969, "C&pg=PA": 2040, "rick": 2903, "▁కనుమ": 9396, "yth": 7189, "forcement": 7364, "countries_and_depend": 6070, "▁ఆఫ్": 5381, "▁या": 3742, "edieval": 4662, "](https://mai.wikipedia.org/wiki/म": 3455, "ల్లో": 9427, "▁[महाराष्ट्र](https://hi.wikipedia.org/wiki/महाराष्ट्र": 7045, "4-3": 7571, "](https://te.wikipedia.org/wiki/నేపాల్": 9275, "▁అభి": 6797, "lima": 6377, "timesofindia": 4787, "anies": 8624, "▁सद": 3266, "\\_देशमे": 5471, "राष्ट्रीय_उद्यान": 9965, "gramme": 3955, "Uni": 654, "com": 461, "▁lists": 9422, "ప్రధాన": 2686, "33-7": 6873, "%E0%A4%A": 5588, "కోబార్": 6933, "▁(identifier)\")": 780, "▁\"Special:BookSources/978-0-": 3677, "्वत": 2202, ".gov/": 3673, "धुनिक": 5200, "▁[ख": 8228, "▁Age": 8922, "](https://books.google.com/books?id=kZVuDwAAQBAJ&pg=PA": 9516, ";": 28, "_उत्पाद": 7545, "arn": 3545, "फिल": 7694, "be": 3532, "ాలు\")": 2204, "artition": 6355, "ide": 2323, "ालैंड": 6217, "alakrishnan": 8505, "▁control": 5699, "లేషియా": 6969, "ార్టీ": 2914, "क्ति": 2094, "▁अमेरिका": 8407, "▁SAARC": 4332, "fn_": 1934, "ేర": 5908, "సియా": 1395, "ram": 4474, "26)": 3595, "▁తేదీ:": 3021, "ेड": 5754, "▁हु": 1608, "tate": 7184, "Indian_": 5640, "ourts": 6388, "_and_Sfn_template_errors?action=edit&redlink=1": 2216, "-3": 688, "म्": 855, "lymp": 7256, "68": 3494, "త్తీస్": 6909, "▁has": 1510, "roject": 9847, "▁ఉన్నాయి.": 3965, "▁[तमिल": 5557, "_2007": 9013, "నేషియా": 6848, "▁[p": 4877, "▁men": 7113, "णिपुरी": 4968, "64": 3709, "क्षण": 6774, "lémentin-Ojha": 8747, "harat": 3097, "ow": 1001, "లె": 7718, "india/": 2344, "▁\"ఉత్తర": 9216, "\").\n": 1230, "ederal": 6359, "\"](http://": 6458, "](https://en.wikipedia.org/wiki/Economic": 8627, "dia": 305, "tecture": 3565, "k": 75, "▁by": 810, "ధు": 9121, "त्तरा": 3462, "ధ": 242, "ఆర్": 3879, "48/cb": 4936, "▁2008": 3596, "▁1,": 3186, "tember": 2299, "▁[978-0-19-9": 8494, "्त": 418, "▁In": 824, "▁\"మూస": 7760, "ల": 251, "erves": 6430, "టెక్నాల": 4565, "\"](https://web.archive.org/web/20160": 3854, "▁सक": 5041, "▁तीन": 9458, "eat": 5867, ".html).": 5714, "▁ఉత్తరా": 9519, "ledge": 2238, "▁अभि": 1457, "Jha": 7060, "rotected": 8550, "▁Ar": 2977, "▁दिवस": 8790, "▁రాజ": 1838, "▁India*](https://books.google.com/books?id=": 4271, "%20": 1034, "▁\"BRICS": 8618, "_10": 7577, "ncbi.nlm": 6161, "loth": 5655, "FrontView": 8086, "▁ఘ": 7740, "opland": 6528, "ఢ్": 4149, "ैंक": 5271, "▁है।": 853, "२०१": 9110, ";\n": 5210, "]": 61, "ओआई": 9057, "FOOTNOT": 478, "mi": 2378, "eptember": 2301, "▁range": 6420, "20": 343, "मरीका": 9934, "ominion": 6951, "▁आप": 8303, "మన్": 3888, "olon": 4901, "▁రవాణా": 6012, "aver": 8188, "DS": 8178, "maint:": 7825, "-78074-108": 4594, "dition": 1774, "त्तीस": 4079, "धिकारिक": 3692, "▁2017": 3147, "books": 584, "्रोत": 1472, "ज्ञ": 1686, "NA": 5085, "ैंड": 3580, "_Act": 5786, "ock": 4531, "120px-": 2453, "ందిన": 9408, "▁April": 2118, "stan": 1365, "argest": 2418, "▁रहल": 6077, "▁Day": 7071, "XLS": 8760, "▁विभाग": 7481, "_Goa": 6845, "india.com/": 6396, "▁election\"),": 8674, "InfosysHQFrontView": 8136, "▁जनजाति": 5802, "urk": 6731, "▁L.": 8596, "▁\"హిందూ": 7761, "▁ने": 1234, "ilg": 3549, "ail": 2002, "ving": 5174, "नी": 1363, "ब्बत": 5495, "\\_पृष्ठसभ": 4595, "ल्तनत": 7563, "thme": 8916, "द्वित": 8335, "on": 333, "akar": 9466, "द्वार": 5748, "मुख": 2193, "▁फ": 3042, "ల్": 624, "▁[पुरालेखित](https://web.archive.org/web/201": 4307, "–": 282, "](https://hi.wikipedia.org/wiki/उ": 2232, "ిక": 831, "▁Pakistan": 3801, "garh": 5548, "తాన": 5984, "▁ఎన్నో": 5423, "చు": 3884, "](https://en.wikipedia.org/wiki/Central_": 7911, "_1.1.": 9989, "](https://en.wikipedia.org/wiki/Doi_(identifier)": 3471, "मान्य": 7132, "\\_n": 7806, "_న": 4425, "-5196": 7612, "ynth": 6060, "abha": 4914, "▁स्थाप": 4800, "▁उत्तर": 3012, "US": 9001, "ज्": 1411, "▁(India)\")": 4739, ":/121": 4876, "gad": 9021, "hanghai": 8705, "amp": 3029, "▁Press](https://en.wikipedia.org/wiki/Cambridge_University_Press": 6454, "ాయి.": 5405, "Sanchi2": 8121, "▁T": 521, ".[[4": 5667, "్రిటి": 3484, "రోపా": 8036, "ildlife": 5077, "2-4": 5848, "ीर": 8213, "omm": 1101, "ii": 4131, "ids": 9284, "थाईलैंड": 9974, "ish": 751, "22)": 4617, "978-1": 875, "]](https://te.wikipedia.org/wiki/భారతదేశం#cite_note-india.gov.in": 7985, "chol": 8154, "](https://te.wikipedia.org/wiki/సి": 4885, "ö": 106, "నేషనల్": 6034, "ng": 916, "आर": 7689, "ल": 176, "et": 405, "కాలు": 5887, "िकेश": 9350, ".\n": 469, "ुम्बई": 4987, "uring": 1780, "geohack": 7566, "ोम": 3739, "▁(సా.శ.14": 5993, "overe": 4188, "outh": 676, "श्चिम": 2228, ".wiki": 321, "267": 5527, "▁London": 8597, "▁Schedule": 8535, "ुख्य": 3475, "ార్లమె": 5386, "olitical": 3135, "_43": 5544, "28)": 4112, "ens": 876, "వంశం": 2912, "देश": 706, "](https://hi.wikipedia.org/wiki/भारत#cite_ref-langoff_128": 6311, "_Games": 8631, "కళ": 4845, "ability": 5988, "EX": 5738, "Ins": 3264, "rie": 1023, "aos": 6570, "umar": 6378, "otals_Paper_1_of_2011_India": 5731, "हरा": 3992, "13": 792, "▁economic": 4023, "ार्वभौ": 8087, "]](https://en.wikipedia.org/wiki/India#cite_note-1": 7839, "338": 8899, "/we": 7395, "▁देखा": 9790, "▁modern": 3548, "ujarat": 3386, "▁with": 1078, "Flag": 7575, "ध": 166, "लाओ": 5965, ",_India": 8430, "र्त": 6205, "_द": 5021, "rig": 4888, "षा": 635, "](https://te.wikipedia.org/wiki/జ": 2770, "भूट": 6938, "िलि": 7896, "కుపచ్చ": 7906, "▁భారత్": 5448, "_relations": 8653, "ो": 196, "ल्": 3041, "oria": 8485, "_C": 889, "देवनाग": 9783, "tro": 3576, "ముఖ్య": 9460, "గు": 1306, "▁\"पाकिस्तान": 4464, "▁[श": 6666, "ंदोल": 6843, "माजिक": 7530, "▁ag": 2195, "](https://te.wikipedia.org/wiki/భారతదేశం#CITEREF": 7907, "िकास": 9351, "ana-498576.": 8884, "Pakistan": 6168, "lo": 447, "\").[[": 2255, "yer": 6585, "-asia": 7568, "रि": 5269, "▁अपना": 8367, "▁le": 1875, "vidence": 9850, "बेट": 5264, "3]](https://en.wikipedia.org/wiki/India#cite_note-FOOTNOTE": 4119, "▁थी।": 8375, "–సా.శ.14": 7889, "▁On": 7610, "lar": 7677, "▁2016.\n": 7518, "1961)": 9644, "्म": 5179, "धाकृष्ण": 9907, "urity": 5569, "▁कु": 4762, "उप": 3990, "ation,": 7225, "Yumthang": 8122, "engal_": 9591, "red": 485, "election": 4129, "▁2010](https://en.wikipedia.org/wiki/India#CITEREFStein2010),": 4582, "చ": 230, "BRICS": 8987, "‹": 292, "39)": 8942, "_Reg": 9584, "ము": 723, "tain": 6338, "▁ఎ": 1564, "▁संघर्ष": 9689, "New": 5018, "▁(identifier)\"):[10.10": 6440, "తీ": 5283, "r": 82, "tt": 307, ".bnf.fr/ark:/12148/cb": 4994, "674": 5608, "षाण": 4776, "కూ": 7704, "65": 2065, "▁Ap": 1929, "ang": 439, "▁2009](https://hi.wikipedia.org/wiki/भारत#CITEREFSingh2009),": 6289, "ొ": 267, "stani": 6385, "World": 1751, "000": 1495, "्वतंत्रता": 3061, ".jpg)\n": 1554, "pecially": 5974, "च": 153, "s_in_India": 7182, "Raj": 8181, "▁प्रेस": 5047, "▁సామ్రాజ్యం": 1459, "B0%": 5239, "ृष्ण": 6286, "नि": 2223, "/article": 4094, "inistry_of_": 3689, "ingham": 4114, "▁G": 677, "](https://en.wikipedia.org/wiki/H": 3000, "▁third": 6786, "AAQBAJ": 1328, "मान": 1421, "56": 1492, "स्कृत": 1931, "▁రైల్వే": 6904, "ేంద్ర": 1694, "దక్షిణాసియా": 4210, "▁summit\")": 3365, "ta": 2371, "anathan": 9544, "हें": 6613, "▁adopted": 8723, "/auth": 3227, "▁[...]": 9205, "ర్చ": 4175, "/profile": 8167, "घा": 9063, "తో": 2046, "alayalam": 6429, "\");": 3357, "978-0-521": 1841, "▁[Fisher": 7328, "les": 1247, "55": 3858, "▁రాజ్యం](https://te.wikipedia.org/wiki/": 6041, "pg": 564, "ani": 1169, "ne": 2520, "ాలు\")\n": 7846, "_Co-operation": 9507, "ోత్స": 4870, "1990": 3615, "शहरा": 9094, "▁८": 9167, "ాష్ట్ర": 4864, "ss": 1256, "ption": 5827, "▁rupee": 7947, "मु": 5032, "ర్య": 2386, "ji": 7676, "4–": 2940, "▁गेल": 7886, "पदण्ड": 5481, "id": 390, "opal": 7603, "▁\"గ": 7756, "▁ఈ": 2194, "-107-0": 6023, "నిస్తాన్": 3008, "▁आ॔": 7863, "▁పా": 2678, "బాదు": 9742, "▁divisions": 8722, "एल": 5745, "dependence": 5713, "flu": 4727, "▁Vedic": 7301, "▁\"पूर्वी": 7968, "नाइटेड": 7151, "-national-language": 7017, "d=20": 9019, "ధిక": 1392, "1-3": 5820, "emocracy": 4731, "wart": 2944, "వో": 9133, "ain": 858, "ी](https://hi.wikipedia.org/wiki/": 954, "▁2005": 4028, "ajasthan": 7291, "▁औसत": 9935, "▁[ISBN](https://en.wikipedia.org/wiki/ISBN_(identifier)": 1032, "त्यमेव": 6285, "raw": 7218, "▁pri": 2975, "▁Asia\")": 2178, "]](https://hi.wikipedia.org/wiki/भारत#cite_note-langoff-1": 6241, "▁आर्थिक": 4908, "gra": 2221, "_నది": 9865, "\"": 3, "ర్జె": 9353, "ministered": 8380, "▁अधिकार": 4489, "▁Congress": 2976, "/articleshow/": 3693, "Yum": 7664, "गो": 2854, "ानक": 9297, "चल": 1990, "Taj": 4312, "issile": 5583, "-gana-m": 8831, "struc": 5716, "▁किया।": 8352, "*](https://www.": 8967, "▁expectancy": 7614, "brary": 2241, "▁\"ప": 2391, "ction": 1350, "oci": 3152, "▁numbers": 7339, "క్తి": 7851, "6/": 3840, "ाई": 9098, "ांग्ला": 2439, "दा": 2103, "7-1": 2296, "_L": 2077, "uclear": 2360, "maputra": 4726, "ear": 1118, "li": 448, "న్మ": 9359, "जराय": 6051, "akistan": 1775, "वायु": 4088, "cience": 2523, "9.": 1231, "7-0)": 3778, "्रह": 6199, "▁(S": 6200, "▁ధ": 9168, "▁Fe": 3409, "▁మొత్తం": 5456, ")\")": 1420, "Pakistani": 6456, "▁दिसम्बर": 3493, "▁Public": 5046, "ैदान": 3478, "ఖ్": 5279, "राजनी": 7448, "▁2021.": 3947, "హిమాచల్": 4954, "Island": 8992, "▁[E": 1435, "ker": 5625, "ublishing": 3524, "iscover": 9901, "](https://en.wikipedia.org/wiki/K": 1814, "▁Publishing": 4808, "_of_the_": 9770, "ages/": 4648, "library": 8928, "తాక": 7876, "నాల": 4151, "ष्": 1605, "umbai": 2665, "▁[[": 2740, "ū": 113, "డే": 4446, "outh_Asian_": 3557, "orthographic_projection": 6545, "▁Barb": 8793, "స్తాన్": 1288, "_and_Development": 7273, "254": 4070, "istic": 8509, "ed.).": 3165, "2]](https://te.wikipedia.org/wiki/భారతదేశం#cite_note-india.gov.in": 8973, "▁ar": 847, ".india": 3025, "ories": 2049, "ఞాన": 7710, "▁2025.\n": 7348, "lé": 8466, "_in_S": 3375, "▁జన్మ": 9598, "క": 226, "_50": 7403, "ाबा": 7701, "Political_map_of_India": 8876, "lad": 2753, "▁tex": 4935, "ऋ": 141, "_26": 5863, "former": 8934, "-81": 2602, "censusindia.gov.in/2011": 3062, "ayback": 4343, "▁Minorities,": 6543, "एसियाक": 6109, "uran": 6732, "-107-02649-0": 7390, "▁[अंग्रेज़ी](https://hi.wikipedia.org/wiki/अंग्रेज़ी_भाषा": 5497, "పాలిత": 2019, "](https://en.wikipedia.org/wiki/Sanskrit": 9502, "▁middle": 7832, "మూస:": 2516, "क्": 5255, "जल": 8199, "ారు.": 3479, "tte": 5634, "▁(a)": 7065, "fun": 7405, "_R": 1277, "▁Stu": 6524, "269,": 6394, "](https://mai.wikipedia.org/wiki/सं": 7869, "▁[e](https://te.wikipedia.org/wiki/ప్రత్యేక:EditPage/మూస:": 8021, "7,": 3495, "▁Language": 3672, "%28": 2375, "▁स्थान": 5064, "▁पै": 5185, "म्रा": 2057, "IT": 600, "ारी": 5312, "linkid=20": 9365, "](https://en.wikipedia.org/wiki/N": 1454, "फ़्रीका": 9642, "ोष": 3633, "▁सर्व": 9255, "▁Prospect": 8840, "2004": 1582, "▁[India](https://en.wikipedia.org/wiki/India": 6439, "▁lite": 6424, "▁Sikh": 8925, "▁exp": 6029, "_Commission": 7030, "గే": 7706, "ికి": 4924, "Spear": 4010, "A5%": 6167, "é": 103, "†": 288, "ulke": 1822, "वरण": 9093, "ollege": 9827, "undament": 5385, "हिमाचल": 4798, "▁New": 2189, "rigonom": 8071, "యి.": 9131, "ति": 583, "పార": 9123, "formation": 8383, "▁హిందూ": 5303, "...": 3855, "ూర్పు": 3486, "IAF": 7347, "ountain": 6795, "]](https://en.wikipedia.org/wiki/India#cite_note-": 526, "గం": 4444, "यु": 1064, "▁mathematic": 9950, "_30": 8183, "_और_संघ_क्षेत्र": 7550, "▁प्राचीन": 5066, "▁[ओ": 3583, "ంధు": 4544, "300": 4605, "ियम": 9508, "▁आधार": 2148, "atis": 5059, "ults": 6216, "ञ्": 6595, "▁rock": 6950, "ंडोन": 5388, "▁है,": 2504, "ढ": 161, "_सा": 3215, "/authorities/": 7344, "ल्पा": 9774, "वर्": 2298, "-39": 7602, "జనపద": 9676, "ैकमिलन": 9763, "ssembly": 2824, "rature": 4382, "_1_of_2011_India": 5730, "▁[संयुक्त": 5806, "▁अलावा": 9364, "_Indian_general_election": 5157, "छत्तीस": 4435, "इन": 3989, "pib": 2612, "V": 54, "म्प्र": 6486, "स्लाम": 6975, "ties/": 6352, "_(orthographic_projection).svg": 8965, "50th": 5671, "ेट": 2812, "ीपी)": 8390, "బాద్": 5461, "▁addition": 5534, "శీ": 5903, "▁వచ్చింది.": 4583, "1st": 8433, "ountries": 1242, "▁work": 6386, "m": 77, "ప్ర": 925, "▁ब": 576, "itor": 8515, "ince": 2414, "adwe": 5331, "ool": 2606, "one": 2541, "-40": 3237, "▁John": 7606, "ల్వే": 5973, "▁India\")\n": 3009, "▁క్యాలె": 9397, "etail": 3366, "न\")": 1577, "_projection": 6544, "ంటారు.": 9551, "2)": 1667, "ood": 1746, "బియా": 6893, "▁Indus": 5232, "▁Hindu": 1888, "Wikipedia:": 8035, "▁./Category:": 2207, "▁भारत": 578, "independ": 9424, "ural": 2593, "ైనిక": 6651, "తి": 730, "ration": 1515, "anguage": 707, "तेलुगु": 9838, "▁పర": 6728, "mer": 1580, "నంద": 6636, "Intern": 2187, "2_22": 8652, "ీహార్": 4866, "्वतन्त्रता": 6314, "ంస్కృ": 6621, "57": 2110, "▁सन्": 7108, "क": 148, "oa": 3405, "तिहास": 2108, "्रे": 619, "పో": 7714, "म्बर": 2907, "/national-symbols": 7031, "ha": 839, "-st": 7640, "a_": 1008, "2016": 3002, "ूची": 1020, "జి": 1831, "▁cons": 2282, "फोर्ड": 5262, "_సామ్రాజ్యం": 3701, "भाषा": 666, "ssamese": 7615, "నా": 725, "_March_": 6830, "▁जबकि": 7556, "२६": 6620, "▁rights": 7999, "▁Hindi": 3098, "మ్య": 7716, "_ప్రా": 3482, "9,": 4369, "ंटर": 9820, "semb": 2272, "▁1971": 8160, "ॉक": 4755, "ra": 392, "achine": 4940, "▁[U": 5218, "िनेमा": 5036, "మాలయ": 4449, "4.": 1253, "▁न": 601, "Hinduism": 3562, "1967": 6876, "ఆగష్టు": 6993, "tionary": 3313, "▁notation": 7513, "ritish": 1612, "▁पर": 826, "▁राष्ट्र": 3328, "▁सरकार": 1684, ".world": 4624, "▁eng": 6342, "_व": 4424, "र्जिया": 9828, "▁उच्च": 9481, "राज": 548, "▁[पाकिस्तान": 4461, "विश्व": 2901, "▁तिथि": 1384, "Special:": 8996, "ంపిక్": 8093, "ystem": 2076, "▁ప్రదేశ్": 2406, "रालेख": 1588, "oin": 6332, "▁తన": 7933, "_GDP": 5408, "▁set": 7802, "▁Raj": 4239, "play": 9738, "हिन्द": 1063, "_monsoon": 9015, "తా": 720, "▁main": 6863, "_Paper": 5675, "धर्": 8201, ".php?": 5538, "जपुरी": 6593, "efficient": 7986, "कल_घ": 8376, "page": 6334, ":[": 2832, "ద్ధి": 4551, "▁[\"National": 9477, "ç": 101, "्रु": 6474, "ered": 3230, "▁शासित": 5449, "योग": 3244, "▁నికోబార్": 9697, "▁Br": 7119, "_Modi": 7925, "లోక్‌సభ": 4903, "ypr": 8475, "aran": 4641, "▁[ग": 5306, "kZVu": 5172, "▁reach": 9459, "హక": 7726, "▁ప్రదేశ్](https://te.wikipedia.org/wiki/": 6910, "िंधु": 5491, "▁8.": 8482, "▁ईसा": 6291, "▁संग": 3745, "iddle": 2722, "00–సా.శ.పూ.": 5340, "१८५७": 7428, "త్వా": 6789, "Tab": 8758, "ేక": 3892, "ేంద్రపాలిత": 2023, "▁orig": 1017, "known": 4372, "िस": 986, "web.": 798, "िव": 1558, "▁India\".": 9280, "ehru": 3703, "▁Muslim": 6222, "BI": 8440, "-level": 7340, "శి": 9142, "/files/": 5016, "dira": 7922, "ig": 575, "osa": 7278, "F": 38, "▁शिक्षा": 4781, "▁विश्व": 2185, "నిక": 3914, "-2](Special:BookSources/978-1": 8607, "ecutive": 8079, "-135": 4889, "Tables/00%20A%202-India.pdf)": 8893, "Aryan": 4737, "▁सैन्य": 5081, "▁tw": 3067, "▁known": 7331, "ుల్తాన": 6112, "▁[J": 2317, "‌మహ": 6655, "45": 1221, "▁\"I": 2870, "▁[पंजाब](https://hi.wikipedia.org/wiki/पंजाब": 6986, "रोहर": 6290, "-107-11162-2": 4042, "pl": 2611, "▁article:": 4362, "Indus": 3381, "_of_2011": 5659, "ld": 650, "लेबन": 7901, "15)": 8317, "▁भारतक": 7849, "▁leg": 7324, "ः": 134, "uttaph": 9817, "पूर्ण": 7693, "\\_मा": 5325, "]](https://en.wikipedia.org/wiki/India#cite_note-FOOTNOTEB": 5994, "▁very": 9183, "▁\"य": 5181, "osys": 7912, "ष्ट": 765, "reen": 7208, "ut": 947, "ూప": 5294, "omes": 4469, "▁target:": 1952, "శ్మీ": 2515, "भो": 4053, "ublic": 1447, "_music": 9694, "berg": 2829, "नाग": 2679, "तिरु": 9406, "ాల్దీవ": 4552, "▁[t](https://hi.wikipedia.org/wiki/साँचा_वार्ता:": 7514, "▁India,": 2166, "]](https://en.wikipedia.org/wiki/India#cite_note-Dyson2018": 9384, "](https://hi.wikipedia.org/wiki/गुजरात": 8246, "▁अगस्त": 3488, "ंध्र": 5403, "ోల్‌కాతా": 7054, "లాదేశ్": 3472, "▁[భారతదేశం": 5307, "orest": 4321, "▁./श्रेणी:जान": 5436, "urch": 4703, "road": 4491, "क\\_पृष्ठसभ": 5256, "స్లాం": 9873, "al_Pradesh": 8677, "news18": 8822, "ద్యుత్": 9985, "ed/": 3609, "Stein1998),": 6268, "హ్": 3118, "▁Society": 6212, "▁ap": 8558, "▁original](https://www.": 3930, "8": 25, "లలో": 4450, "tives": 8915, "▁contrib": 5143, "_territ": 3105, "▁स": 365, "mplate_": 1665, "gration": 8192, "▁[In": 6667, "R": 50, "▁సంబంధ": 9436, "▁सुरक्षा": 6948, "▁घरेलू": 6878, "ell": 9455, "_(": 587, "ί": 124, "▁$": 3176, "▁1962": 6404, "ped": 2739, "▁शा": 3924, "unleavy": 7836, "_and_Sfn_template_errors": 1954, "_d": 1824, "रीक्षण": 7469, "ాన్": 1795, "lim": 2132, "ffairs": 2794, "▁'": 3259, "▁cont": 1801, "olitics": 3290, "=`": 7087, "ndaman": 3132, "▁చెయ్యబడ": 3305, "ॉंग्रेस": 5272, "म्बन्ध": 8823, "21)": 4614, "हारजिस्ट्रार": 7049, "rieved": 1093, "नेमा": 2559, "झारखंड": 5488, "▁[ఇండో": 9735, "%2": 1040, "▁हुई": 3221, "▁(P": 1319, "దరంగ": 6634, "ंपन": 6913, "లియా": 6853, "रेन्द्र": 5589, "हिमालय": 6801, "18": 747, "List": 805, "ियाँ": 2091, "▁आर": 5576, "](https://en.wikipedia.org/wiki/T": 1429, "▁ed.).": 4804, "र्भर": 4302, "emocratic": 6941, "O": 47, "ild": 3849, "వత్స": 7721, "Wright2010": 7378, "orities/": 7327, "▁अब": 9362, "▁original](http://": 8619, "लोक": 2645, "View": 5071, "▁प्रयास": 9402, "▁hist": 5911, "ారిగా": 7994, "▁चुनाव": 4305, "▁(సా.శ.పూ.3": 9630, "Dyson2018": 2413, "▁लि": 2437, "ukesh": 6892, "Official": 6561, "anada": 7771, "ీం": 9150, "ీ": 260, "_यु": 8184, "\\_parameters#": 7636, "▁employed": 7005, "టక": 3422, "▁Kashmir": 4077, "ది": 1501, "vid": 4106, "anskrit": 1671, "ों_की_सूची?action=edit&redlink=1": 6272, "ile": 1123, "▁దేశ": 1206, "ట్లు": 7962, "atel": 9295, "▁[Delhi": 7955, "णे": 9071, "▁area": 4205, "త్": 755, "ast": 748, "ola": 3912, "ఘ": 229, "?action=edit&redlink=1#": 8283, "▁हुए": 4092, "ved": 668, "▁forest": 5371, "](https://te.wikipedia.org/wiki/భారతీయ": 2872, "Sharma": 4421, "14.": 7482, "hag": 8464, "AAJ": 6002, "[![](https://upload.wikimedia.org/wikipedia/commons/thumb/7/": 9672, "थान": 1652, "्व": 562, "రికత": 4502, "▁Environment": 3772, "‘": 284, "▁భారతదేశానికి": 8038, "▁SCO": 9330, "రిత్ర": 1030, "ళి": 6643, "fier": 539, "](http": 314, "▁[O": 3356, "'": 8, "ional": 7858, "▁constitution": 9310, "नाथ": 2966, "ంలో": 1286, "వాతావరణ": 9527, "▁(2003": 9262, "పం": 7713, "upload.wikimedia.org/wikipedia/": 963, "nergy": 6445, "▁\"En": 7938, "▁./श्रेणी:Harv": 2208, "िक्": 3443, "▁(సా.శ.15": 5366, "దక్షిణ": 1764, "ari": 2029, "-on-": 4995, "ud": 822, "ople": 2168, "_భాషలు": 9700, "▁घ": 1703, "जाब": 1847, "▁,": 6191, "india.gov.in": 2474, "ational_": 1532, "akh": 3720, "షియా": 3971, "DD": 4419, "चेरी": 9761, "▁१९९": 7506, "▁వాతావరణ": 4962, "ctor": 2039, "▁ప్రాంతం": 6038, "_re": 2269, "ोर्ड": 3695, ".[[406]](https://en.wikipedia.org/wiki/India#cite_note-vatsyayan-lord-4": 8701, "](https://web.": 802, "ोढ़": 9105, "etary_Fund": 9846, "▁Singh": 8532, "▁29": 3508, "▁महारजिस्ट्रार": 9278, "yle": 4136, "▁two": 3302, "सर": 8208, "33": 1641, "▁Himalay": 4814, "▁అని": 9484, "▁popular": 8710, "ంగ్లీ": 4216, "/artic": 2034, "▁लेख:": 4799, "İ": 110, "](https://hi.wikipedia.org/wiki/सं": 3586, "▁original](https://": 3929, "_of_L": 9367, "▁[Craven": 7910, "rynus": 9454, "](https://hi.wikipedia.org/wiki/पु": 9240, "ise": 2030, "षय": 5035, "▁[S": 762, "యన్": 2862, "▁6": 2176, "nclm.nic.in/shared/linkimages/NCL": 6110, "al_P": 3550, "పుర": 6834, "▁Archived": 2447, "ama": 3145, "త్త": 2404, "▁70": 8913, "?action=edit&redlink=1": 531, "▁[శ్రీలంక": 9202, "ikshit": 3080, "श्रील": 3700, "atpura": 9319, "हास": 1433, "షా": 4860, "0.": 1903, "▁बंगाल": 6225, "ोल": 1103, "Indonesia": 4977, "रक्षा": 5458, "▁\"ఇరా": 9721, "icial": 1398, "ंटार्कटिका": 9821, "ven": 1381, "lop": 1372, "మ": 248, "errit": 3618, "ough": 3183, "ूर्वी": 4541, "ingapore": 7041, "वासी": 7540, "▁కలిగి": 8065, "note": 426, "▁\"క": 1695, "त्ता": 8323, "वादी": 5807, "mplate_talk:": 7385, "▁°": 5550, "ఆసియా": 2381, "▁re": 721, "ongress": 2130, "▁ముఖ్యమైన": 9906, "ింది.": 1550, "rative": 3902, "▁Indians": 7904, "धान": 1126, "arna": 3789, "జు": 7709, "▁[Archived": 1518, "క్": 582, "▁India](https://en.wikipedia.org/wiki/D": 8917, "▁సరిహద్దు": 5975, "▁देव": 6220, "\").": 732, "▁युग": 5457, "त्प": 2411, "ummer": 4930, "रुणाचल": 6307, "_प्रदेश": 2267, "▁दिसंबर": 6304, "akhand": 4619, "ल्त": 7419, "सी": 2459, "▁Centre": 4890, "गा": 3393, "ूच": 1752, "](https://te.wikipedia.org/wiki/భారతదేశంలో": 3013, "▁[G": 1298, "ర్": 452, "ataraj": 6955, "▁[↑](https://hi.wikipedia.org/wiki/भारत#cite_ref-FOOTNOTEStein1998": 8370, "▁जन": 1334, "▁[19": 4403, "In": 334, "▁h": 661, "](https://en.wikipedia.org/wiki/History": 4325, "▁Ne": 7601, "వరణ": 3641, "re": 345, "-india-": 8948, "](https://hi.wikipedia.org/wiki/म": 1203, "▁सदस": 6947, "రాజ": 2596, "–29": 8910, "crimin": 8663, "▁became": 3238, "9]](https://en.wikipedia.org/wiki/India#cite_note-": 6320, "▁వే": 5349, "▁no": 1111, "ture": 1076, "ominal": 4326, "ustralia": 4225, "▁बने": 6751, "▁हि": 1685, "ternal": 4933, "▁families": 9943, "y": 89, "ధి": 5284, "th": 336, "▁1": 463, "ajya": 9542, "ులు,": 5995, "▁BCE": 3190, "lands": 9548, "489": 7295, "2007": 1669, "्रांति": 6949, "▁more": 2772, "-on-jana": 8859, "rofile": 4971, "▁सहयोग": 7551, "rough": 4720, "langoff-1": 5233, "▁गान": 7885, "raven": 2676, "ंची": 9049, "athe": 6569, "ियों": 2060, "▁\"G": 1261, "ibli": 8630, ".svg/40px-": 8685, "▁था": 2197, "नाइटे": 7117, "▁मेला\")": 4090, "Main": 3624, "प्रा": 4003, "▁अपने": 6915, "ast_Asia_Summit": 4044, "978-0-": 752, "2%": 6138, "ounci": 4813, "_సా": 2750, "▁spread": 9871, "▁Mana": 7840, "equality": 5871, "Hindust": 3762, "IMFWEO.IN": 3837, "﻿": 300, "lood": 5247, "▁but": 2716, "217": 4384, "ट": 158, "▁इतिहास\")": 8378, "business/": 6968, "ouse": 3362, "▁ful": 8927, "](https://en.wikipedia.org/wiki/Economy": 3383, "lect": 4109, "▁shar": 9291, "▁Cambridge": 2727, "सभ\\_सहितक\\_पृष्ठसभ#": 6046, "K:": 8444, ".jpg)](https://te.wikipedia.org/wiki/దస్త్రం:": 2333, "▁History*](https://books.google.com/books?id=": 8827, "थि": 1313, "_In": 5861, "तः": 9072, "▁\"श": 8233, "lin": 464, "▁డాల": 9830, "cog": 5545, "▁ही": 4274, "style": 9369, "▁cul": 7809, "AAMAAJ": 7898, "ारा": 9235, "HA": 5520, "▁Ved": 6844, "harmaceu": 6448, "-10": 1124, "Singh2009": 1920, "▁Minorities": 5076, "](https://mai.wikipedia.org/wiki/भारतीय_": 8013, "नगर": 3324, "ternational": 5137, "శ్రీ": 3256, "िका": 1506, "▁their": 2395, "_by_Indian_": 9657, "dic": 7673, "▁\"జ": 2587, "onstitu": 1255, "ంచ": 885, "79": 2659, "मे": 1513, "60": 1150, "जाति": 3465, "मत": 6608, "ager": 6369, "हा": 1062, "▁Chand": 6254, "icobar": 5500, "as,": 4643, ".gov.in": 5055, "le": 385, "కోవ": 6932, "ूबर": 6616, "avi": 5134, "ारम्भ": 6196, "నల్": 5286, "▁[अंग्रेज़": 4536, "लग": 4438, "▁ఏ": 3260, "ue": 1143, "ont": 1243, "శ్రమ": 7723, "▁\"Cambridge": 6408, "uled": 5336, "ు": 261, "form": 3851, "▁[1](https://en.wikipedia.org/wiki/India#cite_ref-": 3193, "-26": 3101, "_Fund": 6888, "arch_": 5229, "ɦ": 116, "](Special:BookSources/978-1": 2210, "▁जुलाई": 2629, "censusindia.gov.in/": 2938, "%202-": 8811, "al_in_March_": 6990, "णी": 753, "overnment_of_India": 5138, "ties": 1436, "ल्ड": 8206, "पति": 2339, "ura": 3351, "▁2,": 5011, "▁\"ప్రధానమంత్రి": 9220, "2-7": 8435, "ादरा": 7472, "गणराज्य": 4298, "▁\"భారతీయ": 1970, "नागालैंड": 6287, "ोटे": 9107, "*](https://web.archive.org/web/200": 8429, "నెగ": 9941, "▁used": 4242, "ी](https://hi.wikipedia.org/wiki/स": 7487, "class": 6421, "ौर": 3740, "%2F": 2805, "माख्या": 9463, "ate": 398, "6]](https://en.wikipedia.org/wiki/India#cite_note-": 4121, "amil_Nadu": 5142, "no": 387, "▁Al": 4272, "undarbans": 7382, "कर": 1769, "ayana": 7255, "लाका": 7845, "2013": 7587, "ultanate": 4588, "eccan": 6017, "▁ద": 5299, "ere": 1099, "▁nation": 8314, "िवास": 8347, "▁from": 783, "pecial:BookSources/": 682, "oss": 6414, "▁Aug": 2448, "▁support": 9806, "national": 2120, "श्चिमी": 4299, "▁ancient": 7298, "](https://en.wikipedia.org/wiki/U": 7774, "▁हिन्दी": 3602, "नत्व": 5879, "▁कुल": 3995, "230-34549-2": 7388, "545": 3988, "Wright": 7165, "ember": 2685, "National_Informatics_Centre2005": 3571, "వర్గం:": 1482, "▁ఆర్థ": 9679, "▁2015": 3654, "हित": 2928, "వె": 3640, "thnic": 4882, "YS": 7402, "o-ope": 4926, "స్థాన్": 3014, "ానికి": 4454, "res": 554, "_Islands": 4734, "వర్గ": 1460, "▁[\"P": 5991, "](https://hi.wikipedia.org/wiki/च": 4468, "-28": 3499, "▁De": 1479, "ght": 1965, "బార్": 6638, "](https://hi.wikipedia.org/wiki/भारत_के": 5328, "mall": 7179, "osi": 3926, "cyc": 3031, "హారాష్ట్ర": 4959, "pedia": 320, "▁[↑](https://hi.wikipedia.org/wiki/भारत#cite_ref-": 1132, "lopedia": 5117, "merg": 5696, "▁सैन": 4470, "▁వాణిజ్య": 9745, "_Nations": 7303, "Oxford_University_Press": 4556, "temporary": 9206, "न्दा": 6482, "श्रेणी:Harv": 1077, "](https://mai.wikipedia.org/wiki/उ": 9451, "](https://te.wikipedia.org/wiki/భారతదేశ": 6694, "िरपेक्ष": 4098, "for": 692, "▁संविधान": 3217, "endra": 4410, "जरायल": 8405, "](https://en.wikipedia.org/wiki/India#cite_": 399, "cis": 4832, "](https://te.wikipedia.org/wiki/ప్రధానమంత్రి": 9273, "వలస": 9138, "Stein2010),": 4560, "▁రో": 6010, "ible": 8629, "arath": 5005, "6]](https://en.wikipedia.org/wiki/India#cite_note-FOOTNOTE": 6557, "హి": 2048, "ew": 703, "’": 285, "▁south": 3795, "ेश्वर": 2502, "▁2021.\n": 3688, "ub": 734, "▁[Archived](https://web.archive.org/web/20190": 9737, "▁सूच": 6689, "-S": 5540, "search": 7073, "calf": 727, ".wikimedia": 949, "▁[ह": 4160, "▁नद": 4280, "_मेला?action=edit&redlink=1": 4574, "ibetan": 7361, "ोज": 9104, "_द्वीप": 8187, "ino-Indian": 9968, "-w": 6549, "anta": 5430, "0)": 5604, "rol": 3802, "ेत्र": 835, "▁अलग": 6215, "▁article": 4192, "MetcalfMetcalf": 1358, "▁శతాబ్ద": 4945, "agar": 3124, "riya": 6710, "▁plate": 8648, "Chennai": 6936, "_तथा": 7558, "books.google.com/books?id=": 888, "ంచిన": 6004, "▁[↑": 483, "ultur": 8641, "▁(199": 7211, "rar": 3535, "acter": 9303, "resid": 2621, "▁all": 2815, "▁traditional": 8675, "▁./వర్గం:Harv\\_and\\_Sfn\\_no-target\\_errors\n": 7984, "thehind": 5315, "cogni": 7146, "-108": 3679, "rom": 684, "arh": 2769, "260": 5573, "KulkeRothermund2004),": 7627, "▁र": 904, "ोला": 5755, "uin": 7687, "▁[राजस्थान": 8231, "▁उद्य": 4287, "ంగీతం": 3299, ".nih": 6159, "राबाद": 4063, "_ध": 8761, "▁cultural": 9312, "▁\"प्र": 7431, "thehindu": 7009, "▁राष्ट्रीय": 2487, "▁పే": 1616, "age": 560, "ाने": 4064, "nder": 9512, "ङ्ला": 8772, "స్ట": 6722, "पिय": 8774, "alls": 7920, "_Agency": 7882, "mage": 9032, "ach": 1233, "ताजमह": 5810, "▁क्षेत्रीय": 4784, "▁[T": 1535, "▁\"साँचा": 7038, "▁निर्माण": 5480, "▁India\n": 7795, "nd": 910, "▁–": 1375, "▁occup": 6977, "▁పొ": 7817, "▁మన": 5976, "3/": 4997, "ద్ధం_": 9878, "▁ch": 2116, "umm": 990, "ట": 234, "NG": 6461, "▁[अ": 1177, "_राजवंश": 6999, "general_": 5141, "भिय": 5178, "pring": 4390, "▁अनुस": 8816, "artial": 8620, "eration": 3065, "▁December": 2983, "पुरी": 3161, "किर्ग": 7924, "▁\"Routledge": 7306, "KI": 7088, "KulkeRothermund2004": 3561, "life": 2978, "ation": 411, "▁\"World": 6349, "-16": 4480, "र": 175, "▁Bengali": 8290, "-50": 5014, "▁देशों": 2689, "_and_B": 9561, "▁whose": 7990, "क्षद्वीप": 6775, "aving": 7128, "్యవస్థ": 2095, "mrits": 5249, "Search": 8997, "adav": 9339, "-विज्ञान": 4415, "న్": 458, "▁पहु": 6477, "माणु": 3483, "content": 5574, "त्तराखण्ड": 4795, "▁Movement": 8157, "▁estim": 4303, "inistry": 1995, "▁దక్షిణాన": 9918, "aten": 7220, "▁This": 5662, "▁[v": 2800, "e/": 4315, "c=": 3172, "నుమ": 6006, "-a": 4118, "-of": 3776, "-a-brief-on-jana": 8873, "▁p.": 820, "_के_आधार_पर_भारत_के_राज्य": 2630, "లీ": 1199, "▁వంటి": 9417, "ఋ": 219, "▁अनु": 4535, "hra": 5214, "imf": 3597, "ugh": 2175, "▁కొ": 3657, "▁Civil": 5653, "గుర్": 6033, "▁[BRICS": 8617, "▁\"Official": 8017, "ibrary": 2577, "ü": 107, "Kulke": 2186, "▁Asia": 913, "धिक": 1324, "▁wh": 1816, ",": 13, "▁establish": 8223, "_and_N": 7296, "imachal": 7143, "\\_सहितक\\_पृष्ठसभ#": 5514, "istrib": 8153, "janta": 6579, "▁46": 6192, "డఖ్": 6629, "▁any": 7940, "arget\\_errors": 1945, "लों": 5270, "रे": 2135, "](https://en.wikipedia.org/wiki/": 338, "िल": 834, "▁contin": 6536, "▁[च": 4266, "పా": 1174, "▁well": 8676, "ries/": 6709, "▁co": 4645, "il": 508, "▁ad": 1825, "▁యుగం": 9869, "history": 2513, "▁her": 4184, "arrow": 7780, "▁सं": 825, "\\_प": 4174, "रालेखित": 1625, "Union": 2117, "ఫ": 245, "erry": 4465, "omas": 3511, "aith": 6249, "▁am": 3539, "▁త": 1176, "-symbols": 6874, "-t": 1280, ".[[3": 4025, "ased": 3096, "▁\"ओ": 3584, "भाग": 2819, "▁हथियार": 6720, "ank": 1181, "ఔ": 225, "▁[मूल": 1994, "▁उप": 2013, "▁पू": 9286, "वत": 6610, "ection": 5227, "ారస్వ": 6698, "θ": 127, "Template": 1781, "chnolog": 2557, "ंग्रेज़": 1624, "भिज्ञापक": 5507, "](https://en.wikipedia.org/wiki/M": 1000, "▁భాష": 1660, "లా": 1339, "‌": 279, "ినల్": 2893, "भाज": 4775, "नोल": 6601, "](https://hi.wikipedia.org/wiki/ब": 1675, "▁विवाद": 7480, "తము\")": 9659, "चे": 2855, "_18": 7166, "ारो": 6195, "neworld": 7958, "▁Civilisation": 9930, ".sv": 1819, "](https://en.wikipedia.org/wiki/ISBN_(identifier)": 1028, "ో": 268, "▁కు": 3279, "बू": 6605, "ina\")": 7201, "మంత": 9128, "istered": 7586, "▁[य": 5180, "South": 4102, "రాజ్యం": 7838, "▁[![](https://upload.wikimedia.org/wikipedia/commons/thumb/": 2789, "▁\"नेपाल": 5561, "▁L": 865, "▁ప్రాచీన": 9977, "खंड": 3730, "ww": 472, "▁संख्या": 7475, "iron": 2240, "ढ़": 1412, "▁\"The": 1683, "677": 6319, "each": 5868, "100": 2162, "hief": 4609, "hatt": 5673, "▁77.208": 8824, "▁United": 5554, "%2C_A": 8820, "asthan": 6697, "wa": 7582, "▁su": 7801, "ान": 400, "400": 6554, "▁తరువా": 6027, "ES": 5737, "](https://en.wikipedia.org/wiki/List_of_countries_by_GDP_(": 9891, "▁lead": 4725, "▁century": 2830, "▁ईस्ट": 7529, "दक्षिण": 1604, "प्त": 1959, "▁Per": 3800, "▁Cather": 7810, "▁Comp": 6366, "▁టై": 9184, "_के_आधार_पर": 2564, "▁high": 3895, "▁2015.": 8930, "log": 953, "_proj": 6252, "▁Journal": 8589, "▁ext": 5404, "▁सितंबर": 7555, "df": 1285, "▁\"India": 4013, "▁into": 2358, "▁బహు": 6044, "दाख": 6894, "med.": 8768, "ameters": 7616, "hip": 9230, "▁में,": 5778, "▁संबंध": 4074, "▁sup": 3546, "▁करना": 6836, "▁All": 3905, "chool": 3444, "न्ध": 5956, "▁[Ch": 2787, "▁ఆర్": 2016, "catal": 5536, "ʊ": 119, "वनवर्ल्ड": 9675, "harkhand": 6409, "పద": 4854, "ple": 5251, "थाली": 7416, "National_Informatics_Centre": 3563, "म्ब": 1446, "▁नागर": 9967, "con": 639, "▁upper": 7345, "▁రోడ్": 8090, "2),": 6510, "खन": 5257, "▁trade": 7820, "overnment": 1156, "▁time": 3312, "▁B": 563, "ूर्": 3116, "_ప్రాంత": 4585, "ing_": 4019, "▁regional": 8657, "iosphere": 9027, "▁[\"India": 3921, "](https://te": 373, "▁9.": 7105, "AsherTalbot2006),": 9673, "%),": 8966, "raj": 5567, "▁wi": 2584, "ser": 4402, "▁ప్రాచ": 6855, "▁India\").[[": 8568, "ప్రత్యేక": 4527, "▁२००": 9650, "▁other": 2917, "▁మతము": 3665, "ome": 1737, "1-1": 4626, "_di": 9011, "లుపు": 9376, "](https://hi.wikipedia.org/wiki/पंजाब": 6265, "तुल": 6178, "▁only": 5837, "వా": 994, "ocument": 3809, "▁\"पु": 8235, "upt": 6771, "NOT": 476, "मूल": 8203, "87": 2420, "▁India\")*.": 8569, "Spear1990": 4231, "_O": 2971, "onal": 8498, "▁pp.": 976, "-pro": 4661, "धिराज्य": 4580, "ina": 2041, "▁[धर्म": 9191, "ళ": 252, "rdu": 4036, "आईएस": 5446, "ata_": 4482, "comm": 5954, "▁N.": 6777, "▁...": 4187, "_for": 3781, "॔": 199, "य": 174, "▁western": 5120, "ाली": 1992, "aw": 2043, "ron": 2578, "fter": 2079, "▁d": 506, "](https://en.wikipedia.org/wiki/Indian_": 1910, "ష్ణ": 4219, "also": 2347, "velopment": 1649, "comp": 7828, "%2C_S": 9573, "urmu": 8785, "html": 1646, "సై": 9144, "_17": 4803, "arv": 7779, "hap": 5373, "_of_": 475, "KulkeRothermund200": 6276, "▁మాత్రం": 9982, "एम": 8196, "▁स्तर": 6305, "న్న": 1061, "भारत)\")": 6475, "▁Ex": 4812, "एस": 1968, "▁f": 437, "క్‌సభ": 4577, "▁[↑](https://en.wikipedia.org/wiki/India#cite_ref-4": 7257, "](https://hi.wikipedia.org/wiki/बांग्ला": 9643, "–సా.శ.15": 5996, "ंपानेर-": 9717, "Hindi": 2179, "▁[Archived](https://web.archive.org/web/20210": 6912, "▁2014.\n": 2608, "ficient": 7239, "▁before": 6410, "▁pre": 5111, "బడ్డీ": 7020, "mentin-": 8557, "▁[ब्रिटिश": 6036, "▁एवं": 2731, "ड़ी": 2781, "awaharl": 5511, "van": 2354, "if": 3349, "धार_पर": 2561, "८५": 4442, "▁subcontinent\")": 6925, "▁mathematics": 7308, "](https://te.wikipedia.org/wiki/శ్రీలంక": 9274, "▁[హిందూ": 7749, "ताजिकिस्तान": 8039, "ravi": 5108, "_न्यायालय": 9954, "▁diversity": 8667, "-20": 2691, "▁Olymp": 8600, "▁ఆధార": 9853, "जयपुर": 7517, "▁[China](https://en.wikipedia.org/wiki/Ch": 7336, "▁పద్ధ": 7818, "\\_contain": 5505, "ret": 5645, "_Summit": 4026, "DwAAQBAJ&pg=PA": 2157, "ప్రదేశ్": 2409, "ecu": 5387, "▁ప్రాంత": 2022, "▁వారసత్వ": 8088, "fn": 970, "ogue": 5136, "ఢ": 237, "హార్": 4862, "▁See": 6211, "▁(1):": 8151, "En": 3403, "/thumb/": 972, "ī": 109, "_और_संघ": 5451, "ంజాబ్": 4972, "▁India.[[": 7796, "▁Kum": 9513, "ुस": 1530, "minist": 3608, "▁languages": 1802, ". ": 8970, "▁व्यापार": 6506, "9": 26, "्री": 1333, "oogle.com/books": 883, "ఓ": 224, "atna": 6367, "\\_": 408, "ṅ": 271, "ाद्वीप": 2784, "Harv\\_and\\_Sfn\\_no-target\\_errors\n": 7279, "తాజ్": 6783, "Vijayan": 8668, "Bangalore": 8441, "odi": 2450, "itation": 6691, "otel": 9707, "/national": 6550, "1.\n": 7156, "▁मौ": 5320, "_20": 5862, "▁प्रण": 7450, "▁వచ్చిన": 9792, "▁संघ": 2151, "दीव": 3765, "▁ఒ": 1659, "धानमंत्र": 3466, "బి": 2047, "▁2024.": 5535, "शिया": 1584, "▁Agency": 7229, "▁\"हिन्दी\")": 4006, "శో": 4859, "23)": 3755, "]](https://en.wikipedia.org/wiki/India#cite_note-FOOTNOTEMetcalfMetcalf2006": 4920, "26": 593, "▁ఆ": 957, "स्तान": 1074, "IND": 8825, "▁Minister": 6526, "फगान": 7099, "▁భారతదేశంలో": 4215, "भाजपा": 5499, "▁fl": 8536, "U": 53, "](https://en.wikipedia.org/wiki/A": 1236, "▁local": 8075, "▁రాజ్య": 3461, "ंका": 4050, "iley": 5399, "बल": 5749, "▁बाद": 2147, "ample": 8673, "త్రిపుర": 6901, "▁शक्तिपीठ": 7544, "caste": 6572, "▁milk": 7321, "▁సౌక": 6770, "▁[मध्य": 5789, "ड़ा": 2368, "3,": 6553, "▁Jan": 2782, "Taj_Mah": 6976, "య": 249, "▁News": 6063, "Fisher2018": 3100, "▁P": 459, "▁28.": 8027, "ी](https://mai.wikipedia.org/wiki/": 6614, "ముంబ": 2891, "asian": 8521, "p?": 2942, "Zealand": 8703, "వాణా": 4200, "▁z": 5630, "గ్ర": 7707, "S": 51, "ముఖ": 5986, "ticles": 3071, "-4\").\n": 7264, "ధాన": 1832, "▁तक": 1810, "దాద్రా": 9686, "▁[ISBN": 887, "olkata": 6087, "_East_Asia_Summit": 4722, "▁24": 2288, "री\")": 7468, "qual": 4354, "_భాష": 2310, "థారిటీ": 9120, "reedom": 6452, "▁India](https://en.wikipedia.org/wiki/C": 5938, "▁2.": 4157, "2-22)": 9732, "▁\"D": 1250, "ीक": 8212, "-49857": 8798, "arch": 1777, "ేన": 7735, "pu": 1740, "స్తా": 1210, "IBSYS": 9886, "%20A": 6019, "▁player": 8686, "▁hum": 5668, "▁बनाने": 9858, "▁\"ISO": 8779, "भा": 543, "ించ": 1658, "▁కాశ్మీ": 3945, "▁Reg": 3236, "ublishers": 7934, "ब्ब": 4563, "](https://hi.wikipedia.org/wiki/सा": 9241, "▁Valley": 4620, "▁(identifier)\"):[": 3011, "्यों": 5042, "▁Present": 8786, "▁हिल": 8269, "गू": 4633, "wana": 6341, "rates": 6890, "ison": 8508, "uthority": 5598, "▁\"Indo-": 4015, "Craven1997": 3569, "478": 8976, "ड": 160, "-in": 2073, "](https://mai.wikipedia.org/wiki/इ": 9450, "Tables/00%20A": 8879, "ైన": 1614, "Industrial": 8941, "▁2018](https://en.wikipedia.org/wiki/India#CITEREFDyson2018),": 6094, "రుపు": 7918, "▁deb": 7936, "\"[[": 4395, "Dyson": 2285, "क्त": 1089, "226": 6511, "\")*.": 2372, "▁Wikidata": 5596, ".org/": 319, "cha": 7830, "io": 9026, "▁[*India": 3379, "_का_खाना": 7538, "ujar": 2793, "umeration": 6379, "▁तो": 8307, "roban": 9371, "2014-p": 7998, "ries": 1152, "2008": 1964, "alli": 5644, "न्न": 1772, "ooking": 9283, "olnar": 7029, "*](https://web.archive.org/web/201": 7393, "▁विस्तृत": 8400, "_in_South_Asia": 4039, "](https://www": 7195, "gi": 9020, "alay": 1778, "▁राजधानी": 8865, "_m": 2230, "318": 5237, "b": 66, "-0\").\n": 7221, "und": 995, "विधान": 2500, "-India": 5601, "ncient": 5627, "▁Th": 2533, "2017": 4017, "in-": 6350, "▁st": 1060, "ोस": 3507, "च्": 5259, "](https://en.wikipedia.org/wiki/India#cite_ref-vatsyayan-lord_43": 7247, "मिलन": 9637, "▁Ludden": 8805, "▁sever": 7318, "▁\"तमिल": 4640, "▁Council": 8920, "▁sfn": 2036, "▁सागर": 5382, "Asia": 2941, "४०": 9111, "▁तीस": 8309, "లు](https://te.wikipedia.org/wiki/": 6737, "sites/": 6944, "▁[↑](https://hi.wikipedia.org/wiki/भारत#cite_ref-1": 3139, "_ర": 7667, "orig": 7106, "▁1997](https://en.wikipedia.org/wiki/India#CITEREFCraven1997),": 8746, "पर": 1127, "గువ": 7953, "lear": 2289, "▁ఇది": 4938, "▁territory": 4116, "119–120": 9843, "_Temple": 4673, "▁దేశంలో": 4537, "11": 689, "▁und": 3509, "](https://web.archive.org/web/20": 2001, "ెన్నై": 7036, "_చ": 1542, "9)": 2173, "▁states": 3032, "ెన్న": 6647, "▁की": 603, "s-": 1745, "](https://mai.wikipedia.org/wiki/ब": 3666, "▁పేజీని": 3024, "▁dec": 3234, "▁\"श्रेणी:Harv": 2198, "template_errors": 1951, "Robb201": 9863, "▁దేశాలలో": 9802, "వాల్": 9137, "ress": 711, ";[[": 6165, "Informatics": 3140, "ș": 114, "▁change": 6896, "ali": 1581, "▁include": 8034, "మ్": 1865, "▁York:": 9892, "వేద": 4950, "rocod": 7238, "▁be": 878, "▁కాలం": 9704, "dian": 4158, "_by": 1782, "ethnologue.com/": 6125, "L": 44, "దేశ": 433, "ణే": 6630, "union_territ": 4226, "मर": 4753, "▁(సా.శ.10": 9479, "](https://te.wikipedia.org/wiki/మూస": 7788, "▁भाषा\")": 1405, "▁con": 2572, "▁\"Chola": 9747, "టె": 2006, "▁सम": 1595, "2022": 8241, "ेन्द्र": 6186, "01": 4310, "▁ना": 6660, "](https://id.": 8713, "▁**[": 2126, "sembly": 2656, "C).": 3501, "_(union_territory": 8563, "రుగు": 7919, "▁[v](https://hi.wikipedia.org/wiki/साँचा:": 7523, "AARC_summit": 4724, "▁మొ": 2506, "తు": 2247, "lectricity": 8718, "120]](https://hi.wikipedia.org/wiki/भारत#cite_note-langoff-128)": 6313, "103": 5572, "तन्त्र": 4436, ".[[35": 8574, "▁पूर्वी": 8366, "ం?action=edit&redlink=1": 2669, "గుజరా": 3937, "భారతదేశ_రాష్ట్రాలు,_కేంద్రపాలిత_ప్రాంత": 6962, "-l": 2100, "2019": 2974, "\\_सहितक\\_पृष्ठसभ": 5493, "▁Islands\")": 5704, "15.": 8803, "सभ\n": 9623, "angra": 9336, "ప్రపంచ": 3133, "రుణాచల్": 4991, "▁ఎక్కువ": 5422, "▁[గ": 7745, "▁\"आ": 2998, "▁[t](https://en.wikipedia.org/wiki/Te": 7329, "రాష్ట్రాలు,_కేంద్రపాలిత": 6113, "▁చే": 3456, "कट": 4051, "▁1997": 7987, "^": 62, "ెహ": 7733, "▁Islands": 4037, "▁[दिल्ली](https://hi.wikipedia.org/wiki/": 8232, "ces": 1642, "territ": 1497, "▁అభివృద్ధి": 8107, "ोडिया": 7427, "ओ": 146, "_en": 4125, "ated": 1494, "न्त्र": 3055, "ंट": 3729, "s,": 1005, "ద్రా": 4853, "317": 8975, "&pg": 1049, "పంచ": 1907, "క్కు": 2599, "urg": 8539, "प": 169, "Insurance": 9980, "duc": 1699, "get": 3174, "▁दृश्य": 6295, "ale": 3143, "▁నడిపించ": 8108, "ष": 180, "evanagari": 7674, "ohenj": 7979, "8–": 4368, "लोकसभा": 5460, "ount": 803, "press": 3504, "▁target": 1942, "अतुल्य": 9053, "మంత్రి": 3638, "ారస": 5319, "acts": 8782, "िहार": 4261, "्वतंत्र": 2734, "arb": 3028, "▁during": 2401, "▁2007\n": 6889, "anorama": 8067, "etraglia": 4796, "3-": 8176, "e": 69, "post": 8143, "ार": 346, "2015": 4328, "▁Retrieved": 1094, "▁(2010": 9261, "sc": 8144, "aksh": 3459, "eneral": 2115, "a_1": 6821, "ConinghamYoung": 9884, "voy": 7407, "▁economy": 4905, "210": 2416, "top": 7686, "స్కరణ": 9660, "▁लाख": 8402, "ुरु": 3737, ".jpg": 740, "राष्ट्रीय_": 6487, "_राज्यक्षेत्र": 7546, "rchitecture": 7292, "achin": 9576, "_(अभिज्ञापक": 9407, "▁Gandhi": 4512, "ారిటీ": 6055, "▁the": 370, "ho": 4316, "▁Fund": 4714, "elhi": 1601, "egh": 7404, "es": 348, "emoc": 3191, "_River": 6842, "▁\"हैदराबाद": 9845, "_n": 3780, "kZVuDwAAQBAJ&pg=PA": 5814, "▁దేశానికి": 9570, "ext": 5688, "▁[K": 1621, "uis": 2353, "inent": 1736, "htt": 310, "icon": 5647, "ज्ञान": 2370, "ociety": 4413, "▁commun": 6538, "చ్": 6625, "%,": 8427, "uler": 8544, "3.\n": 7158, "atch": 7596, "orpor": 7193, "▁जनता": 5801, "▁classical": 3698, "Internet": 9691, "▁ज़": 6741, "al_in": 4710, "ఠ": 235, "ref-": 441, "▁ins": 4695, "दाबाद": 9685, "thema": 5927, "क्सफोर्ड": 5455, "▁సామ్రాజ్యం](https://te.wikipedia.org/wiki/": 3474, "▁था,": 6900, "लक": 7699, "cient": 2271, "▁[భారతదేశ": 3897, "స్తారు": 9617, "फ़": 1674, "రాజ్య": 3445, "Wolpert2003": 4598, "cted": 7174, ".html)": 4791, "cri": 2697, "oli": 1369, "Singh": 1848, "Census": 5519, "issing": 6030, "▁सभ्यता": 5074, "వార్": 9136, "ी_": 992, "न्तर्राष्ट्र": 6505, "]](https://hi.wikipedia.org/wiki/भारत#cite_note-FOOTNOTE": 1885, "बा": 4257, "ली": 2423, "బడిన": 6061, ".worldbank.org/": 7141, "](https://en.wikipedia.org/wiki/Re": 5694, "usic": 1688, "▁term": 4265, "ी](https://hi.wikipedia.org/wiki/न": 8326, "।": 200, "▁तुल": 8308, "timesofindia.indiatimes.com/india/": 8691, "NGDP": 3863, "ें": 419, "*](http://": 6315, "ుకు": 6646, "va": 3175, "States": 7164, "▁independence": 7217, "परमाणु": 5058, "▁होती": 6299, "results": 8288, "own": 3852, "í": 104, "▁growing": 9457, "ఏ": 221, "\"](https://web.archive.org/web/201": 1579, "कालीन": 5591, "నీ": 3425, "htm": 1276, "ఆఫ్ఘనిస్తాన్": 4979, "▁./श्रेणी:Harv\\_and\\_Sfn\\_no-target\\_errors\n": 2217, "▁బెంగ": 6045, "ile:": 1557, "▁వంశ": 4906, "▁గాంధీ\")": 9919, "atsyayan": 3559, "ule": 2755, "▁millennium": 7386, "](https://hi.wikipedia.org/wiki/विशेष:पुस्तक_स्रोत/978-0-521-80904-7": 9714, "ward": 4836, "म\")": 5266, "_in": 696, "ాయి": 3682, "omason": 5475, "▁సాధించ": 6013, "_of_N": 8548, "▁బ": 1502, "▁Force": 6937, "न्य": 9080, "6)\n": 6556, "िन्धु": 5590, ".as": 2848, "\\_of\\_": 5833, "0000": 5525, "▁वार्षिक": 8385, "is": 354, "ś": 112, "▁\"భూటాన్": 9215, "als": 1205, "్రా": 658, "▁E": 630, ".com/news/": 3663, "▁\"గణతంత్ర": 9221, "▁GDP": 3805, "తే": 6632, "निर्भर": 8004, "educ": 5006, "chi": 553, "m.nic.in/": 3502, "ेर": 2367, "▁sector": 5587, "orary": 8487, "lang": 2809, "▁(2019).": 8946, "chnology": 2710, "ङ": 152, "ంది.\n": 4504, "▁मु": 2494, "ib": 1283, "▁India](https://en.wikipedia.org/wiki/Government_of_India": 7365, "wat": 7188, "7": 24, "▁वृद्ध": 6773, "er": 341, "Republic": 7576, "74-108": 4561, "edary": 9248, "त्तर": 1611, "మైనది.": 9720, "_सु": 8298, "జ్": 2990, "▁won": 9380, "५०": 6190, "▁[స": 2319, "ैल": 3579, "▁करोड़": 4534, "UN": 3391, "▁Government": 5127, "▁छ": 2963, "_b": 1248, "site": 3229, "गोल": 3037, "▁माना": 9277, "▁घोष": 6495, "first": 7367, "▁[H": 2614, "ब्ल": 5263, "दु": 7417, "etry": 6708, "b)": 5865, "ict": 3611, "िज़": 3419, "▁ex": 1211, "oy": 3627, "shi": 2066, "-language\\_text": 7354, "India_Goa": 7776, "_Comm": 6411, ")": 10, "_from": 6293, "ni": 569, "](https://books.google.com/books?id=ZvaGuaJIJgoC&pg=PA": 9515, "జీ": 1693, "▁రాష్ట్రాలు,": 4221, "▁जलवायु": 6964, "ot:": 9535, "खाना": 3323, "ित": 648, "/S": 3708, "▁सु": 3332, "cyclop": 5202, "epal": 4517, "▁18": 1797, "asp?": 7441, "िवार": 9627, "onkani": 7634, "గణ": 2761, "40": 797, "outh_Asia": 1679, "ृ": 191, "ions": 1380, "/C-0": 8751, "2-1": 8753, "िबंध": 6184, "_2011": 7169, "▁రై": 2332, "ైద": 7736, "ुंबई": 3738, "▁flow": 9333, "ountries/": 6796, "▁2018": 2650, "anchi": 6351, "▁\"राजस्थान": 8239, "డమ్": 6628, "▁win": 9734, "హ్వాల్": 9776, "yste": 1966, "▁मुस्लिम": 8845, "hang": 5872, "वंश": 3053, "](https://te.wikipedia.org/wiki/భారతదేశం#cite_": 1092, "tandard": 6339, "aur": 8458, "orship": 6343, "no-t": 1939, "हर": 1477, "▁emerged": 8716, "घाट": 9064, "ex": 1315, "↑": 296, "घर": 6175, "तिक": 2960, "िवस": 5421, "Petraglia": 6324, "%2C_": 3287, "′": 290, "एन": 5176, "▁जाना": 9381, "▁t": 444, "athura": 5415, "डीओआई": 9762, "mp": 568, "ennai": 5719, "view": 2732, "डु": 3205, "](https://en.wikipedia.org/wiki/L": 2051, "](https://hi.wikipedia.org/wiki/": 351, "वल": 5034, "राक़": 9929, "▁బాం": 9951, "_అ": 7665, "_p": 1387, "▁सँ": 5930, "violence": 6107, "▁తే": 2688, "▁**జాతీయ": 3911, "▁उद्यान\")": 7542, "▁అ": 809, "31": 2985, "](https://hi.wikipedia.org/wiki/क": 1364, "▁peoples": 9638, "▁lo": 5094, "ూచి": 6960, "▁[ఢిల్లీ": 5308, "fir": 5339, "enti": 516, "](https://books.google.com/books?id=3TRtDwAAQBAJ&pg=PA": 6813, "▁విభ": 6856, "▁[National": 4719, "▁जु": 2501, "978-81": 2877, "▁कार्यालय": 8856, "▁Europe*](https://books.google.com/books?id=": 8696, "-se": 4667, "α": 125, "▁[1](https://te.wikipedia.org/wiki/భారతదేశం#cite_ref-": 9611, "itt": 4400, "Front": 5853, "_చర్చ:": 7965, "ligence": 4201, "WEO": 3346, "▁remain": 8579, "डो": 5261, "▁భా": 4156, "▁[Central": 6812, "़तर": 9097, ".org/10.": 2836, "an-": 8148, "era": 8502, "ling": 4750, "ె": 264, "न्": 498, "type": 7076, "razil": 7010, "మి": 1160, "Insur": 6946, "article": 5228, "illion": 3372, "Wikipedia": 3385, "ren": 6582, "▁[చ": 2867, "▁festi": 7814, "ibet": 4539, "इल": 3321, "▁दक्षिण": 2432, "ummary": 8612, "सभक_सूची": 9624, "▁[India](https://en.wikipedia.org/wiki/India)": 8098, "ాలు](https://te.wikipedia.org/wiki/": 2205, "esti": 5313, "-0)\n": 5526, "%20%20%20%20%20%20%20%20": 8052, "-p": 1400, "▁reg": 1742, "ड़ीसा": 8373, "ता": 589, "ph": 1599, "iation": 2918, "-n": 4821, "ver,": 5335, "आई.": 8360, "డుకు": 6847, "X": 56, "angetic": 7310, "racy": 2571, "▁[గణతంత్ర": 9201, "▁Portal": 7827, "▁ob": 7191, "▁रु": 8321, "arathi": 8861, "▁मार": 3438, "▁కి": 5962, "यपालिका": 8204, "▁40": 7062, "र्दू": 3344, "▁Press](https://en.wikipedia.org/wiki/": 3554, "vatsyayan-lord": 3706, "CS1": 3469, "▁१३": 9563, "vention": 6423, "▁\"రాష్ట్ర": 7758, "J": 42, "▁R": 536, "uggle": 9647, "nc": 5523, "▁ఏర్": 5469, "atar": 3441, "▁Gu": 5355, "Zva": 5086, "!": 2, "_power": 9605, "DwAAQBAJ": 6881, "ick": 7215, "▁C": 416, "ods": 9468, "पद": 3874, "ద్దు": 4925, "ल](https://hi.wikipedia.org/wiki/": 6181, "▁कई": 4466, "రిహద్దు": 4983, "hyan": 9759, "2-0": 7647, "\\_कड़ियाँ": 8406, "గణతంత్ర": 3963, "](https://hi.wikipedia.org/wiki/भारत#CITEREFSingh2009),": 6274, "▁[उर्दू](https://hi.wikipedia.org/wiki/उर्दू": 8424, "ves": 2312, "▁सूचना-विज्ञान": 8397, "omain": 8513, "దీవ": 3137, "▁land": 4024, "▁use": 5842, "-2": 968, "28.": 5575, "इव": 5876, "ड़ियाँ": 5363, "List_of_": 1296, "stre": 8276, "-7mar2011": 6312, "▁यूनिवर्सिटी": 5818, "umer": 7824, "1947": 2280, "David": 7656, "ogri": 6829, "▁नगर": 8297, "▁(identifier)\"):[10.": 3487, "▁caus": 5652, "▁ind": 2949, "ल\")": 2699, "▁\"अंग्रेज़ी": 5402, "-1\").\n": 6522, "leg": 5106, "mund": 1799, "andemic": 9252, "beral": 7259, "2001": 2951, "త్ర": 567, "Har": 785, "/an": 8971, "▁\"Indus": 7765, "▁కుటుంబ": 9791, "నాగరికత": 4573, "ational": 843, "aedia": 8849, "ीकरण": 8214, "ban": 2539, "Craven": 3531, "▁**": 509, "नाम": 1697, "▁capita": 6716, "▁2006](https://en.wikipedia.org/wiki/India#CITEREFMetcalfMetcalf2006),": 4360, "mber": 1249, "ों_और": 9375, "ched": 3187, "▁CITEREF": 1974, "ंब": 1881, "_1": 1475, "ility": 4179, "://": 312, "usiness": 3222, "ablish": 7126, "_ప": 2078, "Allchin": 6449, "mme": 3868, "phere": 5697, "ds": 5546, "वं": 1445, "eg": 1551, "]](https://hi.wikipedia.org/wiki/भारत#cite_note-": 909, "▁युद्ध": 3959, "ఇ": 216, "_Act,_": 9937, "kar": 4834, "ूस": 7425, "_శ": 9007, "इतिहास": 9054, "ourc": 637, "▁Wiki": 4290, "indicator": 7600, "gency": 2690, "_in_the": 7871, "″": 291, "▁widely": 7015, "ुवै": 5883, "▁./వర్గం:Wikipedia\\_articles": 5431, "▁[*M": 8163, "రాష్ట్రాలు,_కేంద్రపాలిత_ప్రాంత": 6134, "Pages\\_using\\_infobox": 7632, "मन्त": 6018, "/D": 4625, "ispu": 8781, "धता": 9077, "ంగ్లీష్": 9855, "0": 17, "OT": 386, "FOOTNOTENational_Informatics_Centre2005": 5338, "▁[గో": 6670, "ండో": 2889, "ंत": 4751, "▁డామన్": 9185, "anisation": 2947, "urr": 2619, "EF": 614, "gu": 6575, "कु": 9059, "▁जीवन": 9893, "▁[3": 2798, "Fisher2018),": 7342, "aul": 5613, "रुणा": 5803, "र्व": 945, "ऍ": 142, "_महासागर": 5790, "न्द": 647, "दर्श": 6469, "▁\"Ethnic": 9567, "1%20": 7396, "▁Food": 9475, "पुर\")": 6494, "▁పీఠ": 9342, "सैन": 7423, "▁\"ప్రత్యేక:EditPage/మూస:": 7767, "LA": 3411, "quality": 4735, "कटिबंधीय": 8387, "▁[C": 919, "ोंकणी": 4900, "ance": 997, "▁India*.": 5937, "[[": 434, "वेशद्वार": 9956, "Mumbai": 6515, "](https://hi.wikipedia.org/wiki/भारतीय_": 1836, "_संघ": 3954, "bhasha": 6171, "जिस्ट": 6594, "121": 2158, "gan": 3534, "tion": 355, "ubl": 1178, "्ता:": 3440, "](https://te.wikipedia.org/wiki/క": 1867, ".in/": 952, "▁Monetary": 7360, "_मु": 8804, "1b": 8752, "1):": 7075, "▁पु": 1262, "-logo": 7154, ".jpg/": 1117, "ంగ్లీషు": 6102, "p.": 948, "ष्ण": 5426, "▁Mani": 8791, "▁at": 1620, "▁[నేపాల్": 9203, "▁Chinese": 6493, "touch": 7379, "▁(अभिज्ञापक": 9913, "బ": 246, "ై": 266, "_War": 8019, "యన్మార్": 4966, "ducation": 4555, "cia": 7672, "▁[![The": 6850, "zer": 6586, "ंबई": 3342, "ksai": 7630, "ం](https://te.wikipedia.org/wiki/క": 7944, "▁F": 773, "▁later": 3661, "visions": 4819, "_संविधान": 8838, "200853": 8262, "qu": 1691, "▁|": 347, "▁రాజకీయ": 4952, "▁\"Special:BookSources/": 1031, "▁1994": 5698, "धानमन्त": 6490, "dire": 8330, "▁2010": 2107, "oorkee": 8010, "▁12.": 8275, "▁(సా.శ.13": 5365, "s\n": 5091, "Pe": 8179, "_and_": 1184, "edicine": 8953, "్చ": 1309, "Schwartzberg": 3864, "द्य": 1401, "జాబితా": 2795, "▁Linguistic": 4817, "रब": 1545, "-2\").": 7914, "▁ति": 1260, "_राज्य": 5023, "स्ता": 7462, "▁election](https://en.wikipedia.org/wiki/": 9775, "गमन": 1388, "ష్ట్ర": 1116, "नु": 4139, "▁British": 3829, "▁जिन्": 8281, "S$": 6562, "uduch": 5129, "ర్లు": 5333, "ines": 1314, "Rothermund": 2163, "eport": 3030, "volution": 5151, "నేపాల్": 3973, "िर": 1153, "media": 906, "▁E.": 8571, "▁rep": 4711, "5": 22, "▁right": 5230, "दान": 6600, "▁(PDF)": 2335, "](https://en.wikipedia.org/wiki/List_of_SAARC_summits": 5509, "चेन्नई": 5464, "టం": 7711, "ण": 162, "राष्ट्रपति": 2623, "▁दि": 4494, "भारतीय": 5182, "_Indian_general_": 5144, "▁India\")": 612, "▁speakers": 8031, "hist": 1600, "▁total": 4180, "/articles/": 7620, "allalli": 9534, "IBR": 9885, "ito": 8514, "ोर्ट": 5805, "teen": 3329, "AsherTalbot20221": 9953, "▁(201": 1734, "शील": 7421, "](https://hi.wikipedia.org/wiki/श्रेणी:Harv": 2199, "-le": 3034, "▁[t](https://te.wikipedia.org/wiki/మూస": 8008, "ोत": 1222, "▁ఉంట": 6815, "6–": 4120, "tw": 5252, "emographic": 5674, "ंमार": 9051, "वर्ल्ड": 8363, "▁स्वतंत्रता": 5318, "भरत": 7698, "_President_of_India": 8938, "ూ": 262, "▁According": 8044, "▁Afric": 4022, "వ](https://te.wikipedia.org/wiki/List_of_countries_by": 8074, "](https://en.wikipedia.org/wiki/List_of_": 1489, "oi_(identifier)": 3467, "▁Economy": 7122, "▁Machine": 6742, "तेलु": 3957, "तुर्क": 6500, "▁Law": 7902, "▁ब्यूरो": 9404, "_मेला": 2560, "ppines": 8662, "5]](https://en.wikipedia.org/wiki/India#cite_note-FOOTNOTE": 6318, "s-d": 8830, "phi": 2074, "▁[2](https://en.wikipedia.org/wiki/India#cite_ref-": 3192, "-report": 8952, "▁సంగీతం\")": 9874, "chin": 3848, "Ministry_of_Home_Affairs": 8702, "తం\")": 5374, "Te": 1122, "▁అధిక": 2405, "▁\"National": 4206, "entr": 4696, "द्यान": 7493, "▁[c": 4683, "duction": 3621, "ouncil": 6306, "ball": 4675, "ळ": 177, "▁Cynthia": 8740, "ogamy": 9539, "▁B.;": 5964, "नीताल": 9600, "▁జాబితా\")\n": 8048, "हार": 1546, "ables": 9461, "ूरोपीय": 7536, "▁पुरालेखित": 2061, "क्र": 8771, "ँच": 1410, "▁(India": 4471, "▁शताब्": 4004, "ౌక": 5297, "um": 453, ".ph": 3398, "](https://hi.wikipedia.org/wiki/उर्दू": 8362, "-06": 5007, "opul": 1070, "ెట్": 7734, "▁13": 3158, "▁ago": 6064, "▁राजनीति": 9876, "69": 1996, "_म": 838, "Oxford": 1750, "▁काल": 5764, "्र": 352, "्रय": 5767, "▁अमीरात": 9363, "▁earliest": 9413, "](https://te.wikipedia.org/wiki/": 374, "భారతదేశ": 538, "casting": 5617, "▁[*The": 3620, "▁2022.\n": 7626, "ట్ట": 1629, "6_": 4825, "▁Talbot,": 7341, "ffice": 4081, "▁stu": 8525, "यर": 5268, "वि": 503, "help": 1843, "Co": 8988, "जन": 1305, "Rowland1970": 4986, "▁[मराठ": 9486, "ants": 5638, "f/": 3107, "on-": 2000, "ప్పటిక": 6965, "▁महासागर": 3588, "▁similar": 8420, "जंता": 9916, "eb": 4048, "vers": 722, "▁సామా": 6818, "hoti": 9861, "enguin": 9592, "▁r": 1259, "▁\"పా": 6672, "▁house": 5669, "roup": 1744, "▁art": 3806, "lesh": 3203, "algh": 9233, "ెలవుదిన": 7024, "ust": 819, "](https://hi.wikipedia.org/wiki/उत्तर_प्रदेश": 9998, "at": 420, "vin": 8474, "uman": 2219, "](https://mai.wikipedia.org/wiki/भारत#cite_": 9724, "_వ": 3413, "▁(PPP": 9589, "नुसार_देश": 5489, "ంక": 1754, "36": 1057, "mar": 2159, "▁बड़े": 6226, "](https://upload.wikimedia.org/wikipedia/commons": 975, "దినోత్స": 4964, "limate_": 7375, "▁प्रति": 3754, "ial": 484, "utra": 3927, "el": 705, "-of-india": 6539, "अरब": 5254, "वेब": 3057, "]](https://hi.wikipedia.org/wiki/भारत#cite_": 799, "వరి": 2991, "నాగాలా": 6917, "artic": 1292, "AsherTalbot2008),": 8169, "end": 1379, "ott": 5628, "▁[पश्चिम": 9645, "▁मान्यता": 6497, "Harle": 2783, "epart": 4240, "्रिटिश": 1919, "-india": 1902, "వృద్ధి": 7722, "abad": 3283, "▁समा": 8249, "pecial": 631, "र्थ": 1573, ".[[23": 5353, "▁करते": 9559, "#CITEREF": 662, "▁साथ": 2171, "gions": 9022, "15/": 7474, "91": 4668, "ूर": 1753, "▁Dyson": 7250, "adrasah": 9944, "34)": 5518, "_in_T": 8576, "%)": 7152, "्वर": 2145, "िस्ट": 4083, "ilar": 8279, "ndl": 8806, "▁सेवा": 6229, "तम": 5030, "వర్ష": 9575, "र्भ": 2838, "▁a": 561, "▁ती": 8306, "▁2023.": 8655, "ame": 1444, "▁आय": 7464, "याल": 2052, "uropean": 2362, "ry": 699, "ost": 1603, "▁Catherine": 8126, "undarb": 7283, "\\_articles": 4330, "▁Tim": 7245, "र्श": 5568, "ynagogue": 9683, "संबर": 6236, "_Mah": 6417, ".wikidata": 8490, "_-": 6564, "_और": 2363, "दक्षिण_एशिया": 7145, "़": 184, "యి": 3889, "▁చూసిన": 3019, "alcutt": 8506, "ఆర్ధిక": 6096, "-85": 6403, "CA/A-2_Data_": 8875, "▁employ": 5125, "Infosys": 8114, "▁*B": 7461, "गध": 6592, "उपमहाद्वीप": 9844, "-प": 3820, "▁Indo-": 7335, "▁(union": 8517, "द्": 1139, "▁developed": 8730, "_14": 7089, "ad": 440, "क्स": 2478, "▁सर्वोच्च": 9257, "▁प्राप्त": 3527, "les/": 2119, "▁Nations": 3521, "టన్": 7712, "](https://hi.wikipedia.org/wiki/भारत": 430, "ైథి": 9158, "lass": 2113, "_38": 5823, "▁परि": 6235, "▁१९७": 9682, "్రి": 2256, "978-0-19-882905": 4043, "▁\"O": 2673, "भाष": 5783, "विशेष:पुस्तक": 1519, "मो": 4636, "▁साल": 5316, "748": 8983, "ligions": 5679, "fl": 2470, "मंत्र": 3113, "నాగ": 2510, "html).": 5428, "-language": 2568, "भी": 2422, "▁\"Special:BookSources/978-0": 4349, "inan": 7770, "हितक\\_पृष्ठसभ": 5466, "త్యేక": 3941, "బెంగాల్": 6080, "albot": 1470, "\"](https://www.": 1889, "1999": 8572, "ణంగా": 6631, "ंत्रिक": 9587, "1962": 6875, "థి": 5891, "ర్ణా": 4893, "ted.": 9473, "harma": 2785, "onwealth": 3179, "82": 4746, "ेश": 524, "▁जिनमें": 9962, "ac": 407, "-405": 7870, "▁ठ": 9164, "▁[↑](https://en.wikipedia.org/wiki/India#cite_ref-Combined": 8570, "pear": 2996, "5/": 5238, "es,": 5830, "▁కొరియా": 9815, "gh": 789, "▁Pradesh\")\n": 9706, "_india": 8454, "▁[Mughal": 8613, "law": 5429, "116": 8305, "247": 9425, "ru": 1935, "rial": 5027, "urt": 3652, "▁డ": 3893, "ross": 3050, "ंतर": 6173, "_पार्टी": 7561, "/countries/": 8826, "▁trib": 8538, "ीगढ़": 4754, "సి": 749, "▁సం": 1417, "▁2013": 3517, "ug": 1711, "-27": 7641, "▁bec": 2803, "ou": 375, "▁[सिक्किम": 9579, "ారు": 1834, "▁[उत्तर": 6496, "▁2000": 8935, "▁also": 2472, "्ट": 599, "▁सि": 2200, "\")": 330, "oot": 4171, "లమె": 5292, "124": 3239, "1/": 2101, "ard": 1182, "emographics": 9932, "▁based": 7233, "బడ్డ": 5895, "indoor": 9423, "पे": 3112, "▁[दक्षिण": 4162, "ritten": 8265, "note-1": 2398, "▁दे": 3278, "▁---": 737, ".jp": 1081, "_H": 2469, "ced": 3845, "ిక,": 7895, "pi": 8469, "over": 795, "eghalaya": 8871, "आ": 136, "_Asia": 1343, "▁से": 613, "▁వ్యా": 3660, "▁दर्": 9385, "jpg": 6464, "jab": 2442, "Hindu": 2264, "▁k": 2355, "▁Official": 4194, "aria": 4690, "web/": 806, "48": 1138, "महाद्वीप": 3056, "▁రాజవంశం": 3946, "etary": 3997, "▁\"Y": 9208, "andoor": 9251, "▁చెంద": 3950, "▁Ste": 8924, "ालदीव": 4770, "▁కలి": 4498, "ographical": 6906, "ैदराबाद": 4093, "Stein2010": 1872, "భర": 5896, "▁·": 5298, "तंत्र": 6597, "language": 1172, "ight": 4339, "▁off": 2306, "భారత": 427, "usiness/": 9669, "ఒ": 223, "▁गठबंधन": 7557, "▁\"मुंबई": 8327, "adi": 3185, "వ](https://te.wikipedia.org/wiki/": 4453, "गुजरा": 2266, ":/12148/cb": 4988, "దాయ": 3252, "▁[Indus": 9194, "▁[t": 2270, "air": 1998, "फगानिस्तान": 7149, "Singh2009),": 6269, "मी": 1107, "యునై": 4217, "mbol": 3162, "కీ": 5886, "ైనా": 2583, "back": 3201, "जा": 1007, "▁(2017).": 7319, "▁[\"M": 8590, "-5": 1025, "हात्मा": 6131, "▁77.20833": 8886, "▁गया।[[": 8357, "▁सिनेमा\"),": 6298, "ृष्ठसभ": 4593, "ttar": 2919, "rat": 5648, "▁(2011": 7212, "_N": 1301, "▁groups": 5472, "oreign": 5396, "▁डॉलर": 7567, "▁1994](https://en.wikipedia.org/wiki/India#CITEREFHarle1994),": 8725, "जं": 5260, "▁రే": 7915, "▁ప్రదేశ్\")": 4958, "జన": 2004, "हाराष्ट्र": 2563, "Articles\\_contain": 5721, "904": 2746, "मार": 2857, "ki": 302, "హిమాలయ": 4566, "శోకుడు": 8070, "బెంగ": 2792, "QAAQBAJ&pg=PA": 4998, "▁spe": 3157, "iance": 6152, "fication": 4793, "oard": 5250, "Vietnam": 8669, "షనల్": 5904, "▁समूह": 7502, "cat": 3202, "టెడ్": 3690, "alace": 7206, "omen": 2674, "_of_Congress": 6383, "जरा": 1830, "way": 3505, "cyclopædia": 9915, "arget\\_errors\n": 1953, "▁[s": 3430, "स": 181, "iz": 4833, "_of_the": 3004, " ": 278, "▁सश": 8248, "చ్చే": 4554, "▁1.": 3146, "▁पुरालेखित।.": 2628, "हिमा": 4075, "chae": 9368, "runei": 7033, "▁[Asher": 4076, "్య": 417, "▁ప్రపంచ": 3922, "ichael": 4742, "▁census": 7228, ".svg.png": 4117, "ीस": 2811, "▁[ए": 8227, "క్టో": 5968, "▁Increase": 5728, "▁అతి": 4922, "ंति": 5253, "ल-": 9087, "19": 384, ".n": 3170, "kee": 7929, "[[15": 8926, "▁\"Delhi": 7299, "cip": 4692, "▁पाकिस्तान": 6282, "पावा": 9530, "ईरा": 4434, "em": 900, "-05": 7592, "्षिक": 8278, "▁es": 2844, "sh": 693, "थल": 6598, "దార": 3424, "▁ల": 2387, "anda": 5929, "राजस्थान": 3449, "IUCN": 5856, "urchasing": 9890, "స్లా": 4485, "tical_": 4237, "▁to": 555, "▁relations": 4712, "▁": 299, "115": 5785, "Harle1994": 3818, "ఈ": 217, "](https://en.wikipedia.org/wiki/D": 1302, "▁common": 8670, "जवा": 9065, "▁2004](https://hi.wikipedia.org/wiki/भारत#CITEREF": 7533, "pee": 4012, "\\_cont": 5326, "mergency": 6870, "नजं": 9081, "▁మా": 3454, "_Assembly": 9465, "](https://hi.wikipedia.org/wiki/भारत_क": 2008, "o-operation": 5727, "వ": 253, "▁\"पंजाब": 4549, "▁2012.": 5779, "alore": 3790, "Q": 49, "]](https://te.wikipedia.org/wiki/భారతదేశం#cite_": 1690, "▁రైలు": 3696, "▁विदेश": 5376, "ాయ": 1224, "-6": 1170, "खा": 2479, "▁Wiley": 7909, "\"](https://books.google.com/books?id=": 3981, "सैनिक": 7564, "aves": 5380, "ेंद्र": 2007, "nium": 5123, "dis": 6574, "olpert": 3387, "/s": 8173, "rib": 2067, "72.": 8982, "904-7": 3566, "▁వంట": 6759, "rof": 3243, "णि": 2926, "▁res": 3177, "श्मीर": 2733, "▁[\"G": 6485, "▁\"ख": 9209, "▁साक्षरता": 9523, "}}": 8770, "चार": 8198, "▁status": 4409, "▁[Harle": 8493, "పూ": 902, "–11": 8476, "బై": 9126, "ेरल": 5452, " ": 277, "ustrial": 6233, "news18.com/news/india/national-an": 8885, ")[[": 983, "ోర్": 2486, "నాథ": 6785, "वर्त": 6281, "isak": 8510, "▁\"गुजरात": 8237, "ंगाना": 5347, "▁ख": 1371, "oung": 6231, "ారం": 2771, "డు": 1307, "▁M.": 5663, "anc": 4684, "world": 1701, "साँचा:": 2438, "2004).": 7501, "ly,": 4709, "abin": 8311, "▁భారతీయ": 6663, "india.gov.in/india-glance/profile": 8866, "▁दृष्ट": 6294, "-ve": 8969, "\"):": 2741, "▁बौद्ध": 8292, "_సంగీతం": 7988, "శ్రీలంక": 3970, "_Lank": 5702, "icob": 5104, "స్వ": 4484, "\\_errors": 1842, ".uk": 5734, "ఖో": 6623, "हरिया": 5416, "ities": 4608, "arl": 4689, "▁తి": 9171, "ummit": 1125, "▁[बांग्ला": 9596, "▁[M": 993, "▁pro": 1538, "▁2011.\n": 2968, "-th": 7639, "d/d": 7176, "amese": 6426, "-k": 5733, "atak": 3798, "▁size": 8707, "ortality": 8659, "hat": 5621, "978-0-19-9": 3555, "బడ": 2138, "vanagari": 5145, "సభ": 3427, "▁fam": 5949, "mple": 2262, "er-": 7205, "book": 559, "_36": 6170, "efence": 8947, "బె": 1833, "business/business-": 9984, "ंबर": 7504, "PO": 6141, "ous": 1528, "vil": 6340, "bank.org/": 6303, "\"](https://web.archive.org/web/20": 7391, "▁H.": 5528, "aci": 7171, "▁\"उत्तर": 6498, "హాస": 7997, "ates": 1072, "▁స్థానంలో": 9837, "inated": 7202, "कल_घरेलू_उत्पाद": 8426, "C-01%20": 8863, "ప్రధానమంత్రి](https://te.wikipedia.org/wiki/ప్రధానమంత్రి": 9839, "/cb": 4355, "▁10": 2234, "परेशन": 6833, "acmill": 6711, "ashmir": 2099, "amil": 1633, "x": 88, "माण": 2129, "भ": 172, "ambridge_University_Press": 6427, "](https://te.wikipedia.org/wiki/స": 2590, "bert": 6527, "ंडोनेशिया": 7549, "ेशिया\")": 8282, "2012),": 9818, "_he": 8763, "y-": 5875, "dhy": 9018, "శకు": 9143, "them-of-india-a-brief-on-jana": 8892, "▁दिस": 3448, "oriz": 8650, "▁north": 4408, "idy": 5939, "ముంబై": 3300, "▁[doi": 3432, "్యవ": 1868, "▁[British": 5678, "पार": 5177, "_and_union_territ": 6839, "तिब्बत": 6755, "pib.nic.in/newsite/hindirelease.aspx?rel": 9999, "▁దేశాలు\")": 9569, "astronom": 7883, "hut": 5825, "loped": 6525, "_map": 8185, "_and": 840, "▁[e](Special:EditPage/Template:": 7337, "▁विक": 2507, "tel": 3433, "ाट": 3115, "DikshitSchwartzberg2023),": 9842, "కై": 3250, "దేశాల": 5946, "మల": 9127, "▁union": 3812, "ई": 138, "▁सङ्": 9256, "▁rate": 3541, "[": 59, "ayashi": 7855, "▁\"V": 3898, "▁\"T": 1357, "डी": 2856, "value": 9670, "_Force": 6054, "▁నగర": 5401, "▁Emi": 9429, "नुसार": 4374, "census": 1643, "च्च": 2164, "▁पार्टी": 6943, "▁last": 7253, "▁ఉంది.": 3675, "_and_union_territories": 7048, "ure": 2287, "2006": 1106, "FOOTNOTENational_Informatics_Centre2005_1": 9920, "▁year": 2356, "ime": 5026, "టై": 6626, "▁religious": 5580, "ed\\_": 8150, "wing": 2635, "▁आयुक्त": 9440, "aland": 5643, "▁li": 1487, "▁అర": 9483, "](https://hi.wikipedia.org/wiki/भारत#cite_ref-": 908, "5-3": 7159, "▁[राष्ट्रीय": 8230, "](https://en.wikipedia.org/wiki/British": 6022, "▁parties": 9703, "▁वर्ण": 8345, "अ": 135, "establish": 7605, "ty": 1544, "%2C5": 7939, "_Nadu": 5139, "▁3,287,263": 8870, "_24": 5212, "220": 7059, "Con": 4670, "ष्ट्र": 796, "ీఠ": 7729, "main": 5952, "issions": 7941, "angladesh": 3023, "bruary": 3463, "E﻿": 7400, "oastrian": 8660, "▁डॉल": 7526, "](https://hi.wikipedia.org/wiki/भारत_में_": 2172, "▁చి": 4513, "▁సంఖ్య": 9609, "▁[కు": 7746, "ండా": 6780, "svg": 6534, "let": 8257, "doi.org/10.": 2841, "्वीप": 1496, "▁सित": 5768, "్రీడ": 9590, "index": 5350, "BC": 3711, "ort": 964, "▁[హ": 4879, "▁\"Ministry": 7280, "ర్కొ": 9352, "_Economic": 7313, "▁(in": 7210, "కారం": 5278, "Gum": 7657, "fghanistan": 4363, "ठा": 9068, "▁दर": 3750, "▁highest": 8683, "जयनगर": 6918, "-2\").\n": 8606, "▁[the": 1722, "-80": 2534, "हायक": 8379, "200": 397, "_श": 5740, "riculture": 4350, "ka": 6329, "425": 8977, "▁Office": 9503, "Col": 8904, "_World": 7668, "▁Sec": 4807, "str": 2839, "cid": 7784, "](https://en.wikipedia.org/wiki/India#cite_ref-FOOTNOTE": 1664, "University_Press": 2639, "ortal:": 6076, "_గాంధీ": 9014, "▁2003": 3667, "%7c": 5147, "▁अप": 2498, "IFTY": 8720, "197": 2257, "▁కంట": 9395, "ोर्नो": 8000, "ामित्व": 9809, "ripura": 5187, "▁Metcalf": 2620, ",4": 8138, "vanabel": 9709, "%29": 2575, "मन": 1026, "IA": 3319, "fob": 5000, "2": 19, "ik": 1368, "र्ज": 3827, "▁वर्ष": 2822, "](https://id": 6518, "▁अव": 4276, "lem": 5565, "384": 7613, "ంతం": 4843, "▁ऐ": 6472, "రే": 3253, ".nic.in/": 1767, "▁Park": 5953, "▁tradition": 3232, "▁2001](https://en.wikipedia.org/wiki/India#CITEREF": 9939, "cir": 7785, "वैद्यनाथ": 9750, "ध्य": 1653, "▁[": 326, "tered": 5219, "MC": 5609, "విక": 9135, "▁composed": 5708, "▁ఎన్నిక": 7970, "37545": 8945, "▁imp": 4639, "▁संस्कृति": 4191, "▁being": 7905, "34": 1976, "भारत)": 4381, "యం": 9129, "▁స్": 2316, "_t": 3026, "ऑक्सफोर्ड": 6590, "](https://hi.wikipedia.org/wiki/भारत#cite_": 556, "▁राजनी": 4545, "olice": 8556, "१९": 4143, "hind": 1986, "▁\"ప్రపంచ": 7763, "](https://mai.wikipedia.org/wiki/क": 4911, "](https://hi.wikipedia.org/wiki/वि": 8244, "▁మొదల": 6971, "▁మార్గ": 3303, "▁Press](https://en.wikipedia.org/wiki/C": 5681, "ेन्द्रीय": 9957, "an": 332, "▁gen": 6402, "बर": 2480, "ommaraj": 7926, "year": 2081, "ईसाई": 7409, "▁లే": 4571, "itchison": 8739, "vatsyayan": 3628, "ాలీ": 4173, "▁పాల": 4486, "ం\"),": 3246, "asht": 7067, "](https://te.wikipedia.org/wiki/జన": 7789, "html)": 6260, "anoram": 8690, "ోత్తర": 9159, "Oj": 8449, "దేశాలు": 5947, "Copland": 8990, "ణా": 1390, "ॊ": 195, "▁error:": 1950, "MAAJ": 7659, "ज्ञात\\_मापदण्ड": 6088, "▁భూ": 9175, "music": 7579, "](https://en.wikipedia.org/wiki/History_of_": 7358, "▁म": 381, "घ": 151, "▁however,": 9445, "\\_and": 1849, "cording": 5149, "_history": 8142, "ीं": 1883, "Stein": 1196, ".\")\n": 5602, "यालय": 3138, "%20%20": 2093, "link": 504, "-r": 6137, "ोलकाता": 5394, "▁\"महा": 9520, "దు": 1864, "ौद्योगिक": 3741, "rocodile": 9992, "त्य": 2644, "आईएसएस": 9926, "जान": 3872, "&red": 527, "](https://mai.wikipedia.org/wiki/भारतीय": 9725, "▁विकास": 3166, "olia": 8284, "ख्या": 1770, "500": 2959, "▁[↑](https://en.wikipedia.org/wiki/India#cite_ref-FOOTNOTEDikshitSchwartzberg2023": 9524, "a.": 3843, "▁కాలంలో": 6069, "▁పరంగా": 9971, "on,": 4805, "24": 609, "c/c": 5522, "ymbol": 3728, "the-": 6147, "](https://hi.wikipedia.org/wiki/महाराष्ट्र": 6840, "0/0": 7058, "aut": 5024, "टी": 2222, "▁సాం": 5383, "▁వై": 7854, "fferent": 5152, "▁\"विशेष:पुस्तक": 2424, "ंडीगढ़": 4782, "SE": 8995, "teri": 8496, "▁Cynth": 8531, "ads": 8537, "मस": 7100, "rang": 8472, "270": 7608, "▁कॉंग्रेस": 5765, "jol": 9028, "▁ప్రభుత్వం": 8051, "](https://te.wikipedia.org/wiki/ప": 2871, "▁India\"),": 2675, "-काराबा": 8117, "apit": 2895, "జ్ఞాన": 8029, "ॉग": 6619, "▁[ఒడి": 9197, "भारत_के_राज्य": 9247, "](Special:BookSources/978-81": 6820, "_एवं": 8386, "AARC": 1840, "pib.nic.in/": 6924, "ियां": 4277, "zation": 4137, "ao": 4371, "AsherTalbot": 1967, "7)": 1829, "cyclopaedia": 8867, "ences": 6347, ".g": 592, "हरियाणा": 7012, "▁ఉన్నాయ": 2898, "▁వ్యవస్థ": 2885, "owland": 3808, "cms": 3309, "cre": 2097, "▁7.": 7190, "▁al": 2737, "ID": 2987, "978-3": 6384, "▁\"Climate": 7275, "ound": 1870, "Ze": 5859, "▁25": 1999, "▁पार्ट": 3212, "ingh": 1279, "hism": 2546, "#P": 8748, "▁కంపెనీ": 7843, "िलों": 9491, "ఞ": 233, "_I": 2748, "2009": 1416, "▁September": 2544, "JPG": 4732, "वेबैक": 3603, "▁2022": 3281, "MID": 5610, "▁ర": 977, "ास्": 9448, "▁1960": 5008, "onstitution": 1578, "దా": 2137, "▁गए": 7470, "▁comm": 2931, "గి": 3635, "lothing": 7014, "20)": 4379, "/M": 7155, "▁\"Routledge\").": 7383, "ला\")": 7844, "▁ता": 8222, "DP": 1464, "ck": 2576, "▁./श्रेणी:जानकारीबौक्स": 5510, "▁2021": 1851, "था": 756, "irst": 1817, "data": 2112, "vatsyayan-lord-4": 6441, "34238": 7505, "_Affairs": 5361, "olle": 3804, "हारजिस्ट": 6868, "_प": 3200, "](https://hi.wikipedia.org/wiki/ग": 6681, "▁India": 383, "**": 393, "p": 80, "isl": 5220, "▁उद्यान": 7541, ".png": 3380, "vent": 6145, "ctive": 7175, "ిల్లీ": 1798, "మెరికా": 7013, "िंध": 4440, "dr": 4606, "aper": 2191, "्ड": 1499, "-Y": 8968, "ti": 335, "▁१२": 8817, "▁2002": 8800, "ing\\_": 2952, "https": 8225, "▁longer": 8684, "glia": 4747, "▁colle": 5943, "-107-1": 3680, "श्री": 2646, "▁पश्चिम": 5186, "Edit": 1923, "्ष": 502, "shared/": 4657, "▁./श्रेणी:जानकारीबौक्स\\_देशमे\\_अज्ञात\\_मापदण्ड": 6121, "▁th": 735, "11934238": 7537, "రాఠీ": 9945, "ote:": 6071, "▁स्त": 4764, "_BRICS_summit": 5477, "▁विस्त": 5375, "▁-": 361, "▁2001": 5836, "ित्व": 7463, "%E0%B0%": 7969, "టో": 5281, "▁which": 1438, "▁ప్ర": 827, "rincely": 8728, "▁become": 7276, "स्त्र": 3756, "romedary": 9449, "lurton199": 7002, "▁2009.": 8578, "▁2023](https://en.wikipedia.org/wiki/India#CITEREF": 8656, "न्नड": 6882, "meric": 4091, "ory": 489, "▁Ch": 1430, "स्ला": 4286, "िया](https://mai.wikipedia.org/wiki/": 4178, "ttac": 8489, "▁[Singh": 5838, "▁स्था": 4296, "▁हिल्स": 8421, "▁క్రీడలు": 9841, "ER": 611, "_f": 3412, "round": 6466, "▁के": 424, "▁लेख": 4263, "ొగలు": 6652, "puri": 8828, "ची": 744, "_6": 9004, "▁Summit\")": 4483, "ర్మే": 4894, "_के_अनुसार_देश": 7016, "▁W": 907, "/ark": 4824, "३": 204, "▁जो": 2881, "ography": 4723, "▁nuclear": 9472, "ets": 6202, "▁part": 2637, "▁play": 4356, "_21": 8453, ".jpg/330px-": 2536, "113": 8797, "AG": 5736, "on-Alig": 6153, "▁Empire": 2226, "▁परीक्षण": 9289, "ंपरा": 6914, "▁ఆధీనంలో": 9854, "▁Sh": 2524, "▁For": 2935, "aylor": 4907, "radesh": 1828, "21": 510, "ristian": 5234, "▁Plateau": 5594, "_sh": 9010, "▁मन": 5936, "छत्तीसगढ़": 5490, "▁[Archived](https://web.archive.org/web/20": 2419, "▁\"ल": 3899, "ene": 7755, "orbe": 9187, "▁Nadu": 4185, "त्रिपुरा": 5478, "िज़ोर": 6953, "cms).": 7082, "▁सूर": 7440, "▁[↑](https://en.wikipedia.org/wiki/India#cite_ref-FOOTNOTEMetcalfMetcalf2006": 5135, "▁30": 3262, "130": 4627, "_(orthographic_projection": 8932, "asi": 5934, "▁cent": 1648, "Environment": 7349, "▁దక్షిణ": 5302, "▁[हिन्दी](https://hi.wikipedia.org/wiki/हिन्दी": 5078, "_देश": 3415, "▁Cup": 9315, "▁[European": 9614, "నిమా": 4506, "](https://www.wikidata.org/wiki/Q": 8745, "▁ఆధ": 4198, "िया": 495, "द": 165, "▁Comm": 1928, "▁చెయ్య": 3296, "](https://en.wikipedia.org/wiki/India#CITEREFB": 4915, "_2008": 8457, "▁Registrar": 5717, "3TR": 4365, "](https://en.wikipedia.org/wiki/India#cite_ref-": 525, "▁tea": 7294, "](https://te.wikipedia.org/wiki/పాకిస్తాన్": 9266, "ashm": 1766, "4]](https://en.wikipedia.org/wiki/India#cite_note-FOOTNOTE": 8437, "5%": 4366, "मोर": 9085, "▁(2016).": 8644, "verse": 4345, "स](https://hi.wikipedia.org/wiki/": 4055, "otals": 4716, "ootball": 5485, "▁गणराज्य": 3773, "▁(2007": 7213, "జాత": 1329, "వర్": 1223, "हायता:": 5496, "न्स": 5341, "కిస్తాన్": 2153, "राम": 5321, "▁began": 4523, "▁14": 3614, "▁dire": 5119, "Tritsch": 9000, "▁[ड": 4878, "ref-10": 6370, "स्कृति": 3399, "_केंद्र": 8287, "_c": 1985, "ating": 6717, "mpire": 1540, "leph": 9281, "orthographic": 6535, "tent": 3099, "ేతి": 6649, "](Special:EditPage/Template:": 7281, "outheast": 5646, "p.org/": 7682, "९": 210, "బ్": 1718, "▁बहुमत": 8374, "▁है।[[": 4288, "](https://en.wikipedia.org/wiki/F": 2125, "emic": 5132, "▁श": 849, "erman": 5924, "ష్": 1794, "](https://books.google.com/books?id=": 923, "▁majority": 6970, "▁would": 6738, "▁[\"A": 5009, "](https://hi.wikipedia.org/wiki/चीन": 9243, "actbook": 4569, "గ్": 4847, "▁anim": 9574, "र्द": 2702, "भार": 358, "ताल": 6596, "ack": 1623, "ళ్ళ": 9868, "▁\"హిందీ": 9213, "ాలు\n": 3007, "oun": 652, "िसी": 9525, "िबंधीय": 6310, "val": 1926, "g/": 317, "eng": 1331, "क_": 9058, "raman": 7219, "ాలు,": 2146, "igved": 6748, "▁system": 2543, "▁झ": 8221, "▁3.": 9595, "template_": 1938, "▁Ag": 8921, "107": 7070, "rowing": 7237, "కాల": 5277, "▁as": 1037, "](https://hi.wikipedia.org/wiki/भारत_की_": 3948, "७": 208, "▁[↑](https://hi.wikipedia.org/wiki/भारत#cite_": 2499, "▁After": 7812, "350": 5517, "▁July": 2229, ".in": 729, "▁हालाँकि": 8410, "9).": 4396, "ा": 186, "](https://hi.wikipedia.org/wiki/भारत#cite_ref-langoff": 6240, "olden": 4622, "▁[Oxford": 4267, "egistrar": 6869, "▁Di": 4615, "ati": 1344, "▁గ": 1586, "▁కూడిన": 8002, "▁निभाई": 6886, "ym": 4681, "▁ఉంది.\n": 9518, "iterature": 8943, "ం": 212, "▁2019.\n": 4728, "▁केंद्र": 2817, "]](https://en.wikipedia.org/wiki/India#cite_note-Combined": 5959, "▁मंत्र": 8255, "ी\")": 1019, "osed": 3674, "![": 958, "ంస్కృతం": 8103, "riage": 8046, "](https://hi.wikipedia.org/wiki/भारत_के_": 2431, "▁\"ची": 7757, "GDP": 2834, "లస": 3890, "_में": 1610, "mand": 7678, "्मार": 9109, "్రామ": 6772, "▁ఉ": 940, "▁बि": 7454, "am": 414, "జాతీయ": 1396, "ీక": 4865, "▁నది": 7930, "లడఖ్": 6641, "▁Asher,": 7042, "\"))": 1131, "▁[Archived](https://web.archive.org/web/201": 2603, "निर्धन": 9692, "మాతర": 7916, "od": 759, "ering": 2768, "3": 20, "4/4": 6158, "తంత్ర": 1762, "▁three": 8580, "हासागर": 2625, "105": 5223, "భారతదేశ_": 3656, "ష్టు": 6016, "▁Tamil": 4809, "▁సూచ": 6769, "dom": 2286, "झ": 156, "par": 2457, "ynasty": 5722, "▁dances": 9379, "india-glance": 4392, "us": 413, "](https://te.wikipedia.org/wiki/భారత_": 3437, "asting": 4916, "](https://hi.wikipedia.org/wiki/भारत_का_": 3949, "94": 4122, "▁[రాష్ట్రపతి": 9199, "▁व्यक्ति": 9909, "Ag": 4669, "Ind": 1165, "▁Ret": 1087, "oi": 1197, "▁colleges": 8708, "me": 622, "47": 996, "ones": 2948, "ustry": 2092, "ment": 558, "▁[गुजरात": 6193, "▁वर्षा": 6867, "▁[Y": 6665, "_प्र": 1680, "PetragliaAllchin": 6457, "र्म": 1148, "ner": 4011, "▁\"क": 1225, "encies_by": 6079, "्ला": 2069, "▁तटीय": 6930, "14": 871, "▁बहुत": 5465, "पी.": 9795, "q": 81, "▁2012](https://en.wikipedia.org/wiki/India#CITEREF": 9779, "हात्": 6020, "सून": 4439, "407": 5128, "](https://en.wikipedia.org/wiki/Indo-": 4016, "ast_Asia": 3920, "మే": 2139, "▁[West": 9693, "▁देश": 1341, "पा": 1009, "rupee": 7995, "లోయ": 7841, "▁పరిశ్రమ": 9789, "▁\"संयुक्त": 6926, "▁విస్త": 4944, "9/": 6139, "▁सबसे": 2063, "\\_क": 6203, "%E0%A4%B8": 9793, "▁Budd": 3189, "ून": 1413, "▁धीरे": 8413, "tig": 3846, "ద్ధ": 1635, "](https://hi.wikipedia.org/wiki/प्र": 8245, ".;": 1852, "-f": 3089, "AJ": 1267, "_J": 4124, "imp": 3726, "Countries": 7161, "ుల": 4867, "ora": 8484, "▁November": 5356, "_": 63, "डिया": 2698, "▁[Tamil": 7311, "न": 167, "▁సామ్రాజ్యం\")": 3939, "K": 43, "ऩ": 168, "Sanchi": 7662, "राक": 5566, "▁जा": 1507, "मरी": 5751, "otals_Paper": 5726, "ीच": 4441, "▁घाट": 6262, "ics": 3184, "ार्श": 9731, "ा_": 1606, "ంత": 1128, "▁ऊर्जा": 7527, "lobe": 9767, "▁among": 3976, "_Ag": 8583, "▁तट": 2730, "clud": 2906, "eral": 1241, "▁भाषाएं": 8325, "–24": 5909, "ंग्रेज": 5393, "or\\_": 8778, "hai": 6407, "▁\"P": 1075, "▁పాక్": 9744, "ॉ": 194, "▁\"భారతదేశంలో": 3018, "▁दिया": 3334, "india": 621, "▁వ్యాసం:": 6115, "र्ष": 3998, "fric": 2752, "igarh": 5967, "ox": 5001, "మర": 5288, "](https://te.wikipedia.org/wiki/జమ్మూ_కాశ్మీరు": 9986, "▁2006": 2652, "8)": 2468, "newsite": 7495, "ights": 7139, "_Indian_": 2009, "ə": 115, "▁मानसून": 5441, "ze": 2852, "▁n": 764, "▁6.": 5217, "श्य": 4637, "ley": 2201, "▁Territory": 5121, "ondon": 5709, "्स": 1353, "షు": 2863, "లో](https://te.wikipedia.org/wiki/": 2597, "–సా.శ.పూ.3": 6891, "సా.శ.": 551, "7080": 8621, "states": 4490, "/http": 804, "थम": 5878, "International_": 5068, "▁En": 2345, "विशेष:EditPage/": 4293, "▁జంతువు": 9599, "ZvaGuaJIJgoC&pg=PA": 5502, "ssociation": 5723, "▁CE": 4020, "కత": 3249, "aranth": 7142, "ung": 3519, "▁music\")": 8666, "▁సార్": 9432, "\"](https://": 2284, "▁जल": 3748, "pe": 313, "▁\"हिन्द": 2588, "హోర్": 9147, "00)": 3518, "ఢిల్లీ": 1906, "▁([help](https://te.wikipedia.org/wiki/వర్గం:Harv_and_Sfn_template_errors": 8130, "os/": 8193, "गु": 1451, "74": 1880, "▁मुख्य": 4170, "ody": 6530, "inist": 1556, "archi": 701, "ode": 2980, "హన": 7727, "▁జరిగిన": 8072, "▁[म": 818, "्यता": 2649, "es/": 566, "▁[చైనా": 9764, "वास": 4141, "tices": 9386, "port": 1863, "ridget": 9887, "6-9": 8902, "ern": 1336, "errors": 931, "ృ": 263, "_BRICS": 3683, "▁Environmental": 7140, "riod": 3231, "▁నాగరికత": 5913, "▁भूम": 4304, "ol": 532, "-345": 6779, "put": 9039, "▁y": 9163, "పించ": 5894, "▁వా": 2680, "बेकिस्तान": 8123, "▁భారతదేశం": 1631, "ungabhad": 9804, "/https://www.": 1818, "icator": 7590, "978": 480, "నాయక": 7996, "न्दिर": 4510, "ls": 3310, "rance": 6335, "ల్లవ": 6935, "olitical_": 4621, "-गंगा": 7394, "ily": 7243, "75": 2711, "43": 1282, ".php": 8955, "1,": 2026, "ీర్ణ": 5492, "▁అధికార": 3485, "-7mar": 6246, "ियन": 6237, "ంపెనీ": 5463, "_Sh": 3830, "ంగాణ": 6851, "/articleshow/5": 7534, "▁में": 474, "h": 72, "▁sultanate": 8526, "zard": 9047, "▁Plate": 3315, "క్‌": 2774, "ानून": 8263, "▁పట్టణ": 6098, "arayan": 9232, "kim": 2845, "2011.": 7588, "978-0-19": 1316, "▁endangered": 9797, "](http://": 1069, "▁Pro": 2292, "\")*,": 4951, "orne": 8488, "▁four": 6724, "_BRICS_Games": 9816, "्रार": 6686, "ीय_": 1218, "adhya": 5809, "▁Ind": 2664, "annic": 2460, "▁inter": 7216, "ృష్ణా": 8124, "उ": 139, "-d": 1989, "action": 517, "_28": 8182, "▁१९८": 8359, "▁pl": 2090, "edi": 2142, "४": 205, "లాహోర్": 9594, "▁5": 1559, "డి": 1442, "▁अभिय": 8274, "▁\"ఇ": 2488, "त्र": 542, "ofindia": 2930, "5.pdf)": 8979, "भुट": 6607, "▁अन": 1163, "stan\")": 9601, "rested": 9392, "డో": 5890, "etween": 2566, "anglad": 3003, "ars": 5762, "▁mil": 1850, "▁Pe": 3233, "](https://en.wikipedia.org/wiki/List_of_countries_by": 4721, "](https://hi.wikipedia.org/wiki/भारत_स": 6209, "भाषी": 9936, "union_territory": 8058, "गान": 3732, "ainism": 4193, "M50thReport.pdf)": 6124, "▁[1947": 9190, "raditional": 8009, "baki": 6328, ".org/wiki/Q": 8491, "ाली](https://hi.wikipedia.org/wiki/": 8277, "slam": 3536, "resident_of_India": 7625, "-0)": 550, "-459": 6400, "▁[ब": 1348, "ore": 1109, "▁[ముంబై": 7752, "▁20": 717, "▁యు": 4458, "·**": 594, "▁[భూటాన్": 9195, "कणी": 4837, "id-": 6521, "▁Modi": 8285, "](https://en.wikipedia.org/wiki/V": 3900, "▁\"తమిళనాడు": 9219, "ద్ద": 2896, "दि": 4255, "▁India.": 3333, "cess": 4411, "▁[e": 2799, "▁(సా.శ.పూ.1200": 7973, "स\")": 3207, "ake": 4029, "▁करने": 4086, "▁women": 5343, "టి": 1273, "%20%20%20%20": 3952, "▁हुआ।": 7531, "cat.org/": 8032, "మూ": 1325, "प्राचीन": 5595, "ino-": 6678, "c": 67, "▁per": 2634, "న్‌ఫర్మే": 4980, "3)": 1491, "▁స్వాతంత్ర్య": 6068, "▁अन्त": 4087, "▁[1](https://hi.wikipedia.org/wiki/भारत#cite_ref-FOOTNOTE": 6860, "▁small": 8527, ".పూ.": 4823, "iland": 6387, "हिन्द_महासागर": 6489, "తము": 1792, "▁[m": 3896, "ండ్": 2601, "RICS": 1527, "दार": 3873, "lig": 1042, "DikshitSchwartzberg2023": 3980, "&pg=": 1051, "im_C": 9485, "ictionary": 3984, "స్య": 5905, "म्म": 3051, "war": 3537, "ork": 2059, "ंजन": 8194, "oll": 2663, "en,": 5559, "ς": 130, "▁end": 3354, "▁इ": 891, "पदी": 5881, "urban": 4337, "ite": 1522, "ITEREF": 620, "య్యూ": 6908, "▁built": 9963, "నేపాల": 3288, "ुख": 1529, "र्मू": 6026, "▁చరిత్ర](https://te.wikipedia.org/wiki/భారతదేశ": 9610, "▁times": 8483, "rishna": 6081, "ग": 150, "▁Press,": 4818, "](https://hi.wikipedia.org/wiki/संस्कृत": 7532, "మార్": 4448, "telligence": 4228, "सभ": 1524, "Navy": 8447, "2010": 1278, "2012": 3716, "ితి": 9148, "censusindia.gov.in/2011census/population_enumeration": 8891, "▁[ప": 2253, "▁(2007).": 7380, "▁such": 3650, "22": 733, "दिल्ली": 5201, "ishing": 2573, ".శ": 544, "hand": 1958, "▁\"विशेष:EditPage/साँचा:": 7432, "](https://te.wikipedia.org/wiki/భారతదేశం": 892, "▁York": 4729, "ప్ప": 3944, "harm": 4386, "ोक": 1537, "▁centre": 7314, "w": 87, "्रुनेई": 8100, "▁\"China\")": 8664, "ैम्ब": 9103, "▁वर्": 1539, "_A7C": 6788, "/": 16, "_యు": 7669, "▁parliament": 7330, ".jpeg": 8404, "▁[Metcalf": 2997, "_उ": 5020, "▁ప్రకారం": 6000, "articles": 3764, "▁చె": 2010, "-526": 9536, "शा": 4054, "धानिक": 9555, "%E0%A4%9": 8353, "రల్": 9132, "Vu": 5169, "వందే": 6040, "गणतंत्र": 8348, "countries_by": 3197, "well": 6733, "▁[978-0-": 3396, "ंड": 1018, "▁Sub": 7230, "▁[Indonesia": 9204, "▁सल्तनत": 8251, "क्षिण": 1212, "ril": 1747, "▁से](http://": 4282, "hell": 5337, "](https://te.wikipedia.org/wiki/తమిళనాడు": 9272, "19.": 7068, "గఢ్": 4849, "▁ह": 431, "Infor": 2542, "122": 4996, "▁बना": 3594, "▁Nehru": 5357, "▁[↑](https://en.wikipedia.org/wiki/India#cite_ref-FOOTNOTEB": 5676, "54": 4367, "city": 3265, "fic": 2850, "छि": 4838, "35": 1004, "▁विभाजन": 9499, "education": 5013, "▁\"జమ్మూ": 6923, "ources/": 667, "బీ": 9125, "▁शताब्दी": 4393, "మన": 5287, ".worldcat.org/": 9881, "ignific": 8562, "▁17": 2070, "pib.nic.in/newsite": 7560, "▁River": 4902, "▁[![": 1322, "ovember": 3686, "ffair": 2465, "onsoon": 4406, "oc": 1045, "बे": 7696, "दारी": 9829, "हाँ": 6247, "▁రహదారులు](https://te.wikipedia.org/wiki/": 9903, "213": 8788, "_మతం": 9699, "8/": 2111, "स्था": 2032, "धी": 2581, "ber": 671, "ि": 187, "▁ఎన్ను": 7971, ".bnf.fr/ark": 4992, "స్కృ": 2053, "28": 646, "ాంగ": 7728, "▁జాబితా": 3894, "▁200": 709, "జ": 232, "स्तान\")": 7129, "▁యుద్ధం": 9870, "▁घाटी": 6049, "ఢా": 9118, "▁far": 5330, ".org/wiki": 322, "वेश": 6182, "ver": 465, "▁[వి": 4161, "ate_": 1367, "▁2007": 1975, "1-9": 8972, "▁\"N": 1326, "श्": 1171, "నె": 5892, "▁भी": 1636, "oreign_": 9554, "ci": 356, "▁language\"),": 5683, "▁Sanskrit": 3514, "icy": 2875, "india-g": 4001, "▁\"East": 8625, "rim": 4697, "inister": 2425, "SN": 7660, "tl": 5215, "ical_": 3612, "_of_South_Asia": 6961, "డ": 236, "other": 1246, "बलिपुरम": 9933, "lock": 6375, "%7": 2984, "िया\")": 1980, "6).": 4101, "135": 7473, "&redlink=1": 530, "read": 3359, "ँची": 5744, "erved": 6354, "_and_Kashmir": 9562, "_రాజ": 7670, "arket": 4034, "▁महा": 7792, "force": 4912, "ians": 7950, "-D": 5159, "able": 2744, "Inf": 7204, "पाषाण": 9531, "ligion": 1749, "▁सा": 978, "▁\"International": 7200, "▁(సా.శ.పూ.": 1568, "px-": 982, "ानव": 4767, "▁2": 1861, "ैथिली": 8391, "ीब": 3877, "]](https://en.wikipedia.org/wiki/India#cite_note-FOOTNOTE": 784, "right": 3797, "▁Hindus": 7130, "▁Economic": 3850, "▁([help](https://te.wikipedia.org/wiki/వర్గం:Harv": 7993, "king": 2251, "order": 4718, "▁इंडिया": 5379, "▁N": 680, "▁Cooperation": 5944, "esearch": 3901, "84": 2692, "5.": 1366, "nclm.nic.in/shared/linkimages/": 4666, "म": 173, "▁कि": 2088, "[[14": 5044, "ద్వీప్": 6982, "▁[2](https://hi.wikipedia.org/wiki/भारत#cite_ref-FOOTNOTE": 6854, "वित": 4493, "her": 3626, "high": 3180, ":EditPage/మూస:": 4597, "त": 163, "](https://en.wikipedia.org/wiki/Russia": 8639, "▁appro": 7004, "-ex": 6509, "पालिका": 3767, "ute": 5874, "▁लिया": 6827, "హా": 2083, "ath": 1465, "ohan": 7978, "▁Press.": 2956, "lm": 5173, "దినోత్సవం": 6114, "–1": 2553, "▁S.": 5115, "29)": 7604, "▁its": 1713, "रा": 391, "तुर्कमेनि": 8101, "ी](https://hi.wikipedia.org/wiki/प": 7486, "MetcalfMetcalf2006),": 3811, "▁States": 3622, "▁X": 7583, "lackb": 8060, ".jpg)": 1102, "०१": 3420, "భారతదేశ_రాష్ట్రాలు,_కేంద్రపాలిత_ప్రాంతాలు": 8111, "▁[↑](https://en.wikipedia.org/wiki/India#cite_ref-FOOTNOTEStein2010": 6415, "ul": 466, "ఒలి": 7703, "_P": 903, "▁Bangladesh": 9399, "मेनि": 7961, "र्ना": 4065, "▁[దక్షిణ": 7748, "▁\"Template:": 5919, "bridge": 1654, "ाल": 499, "ysis": 8611, "▁Data*.": 8960, "▁[Ministry": 5384, "_h": 5243, "han": 3242, "agran": 9325, "▁|\n": 494, "▁Urdu": 6879, "लाओस": 9947, "▁लिये": 5799, "▁1970": 8587, "note-": 442, "▁p": 403, "_घ": 5244, "ire": 1191, "1970": 4329, "urton": 4230, "▁విస్తరి": 9904, "adakh": 7816, "▁१": 1186, "](": 308, "\\_te": 6712, "▁South": 1473, "भारत": 359, "conomist": 8598, "▁రె": 4530, "tein": 1006, "](https://en.wikipedia.org/wiki/Mughal_Empire": 8094, "GuaJIJ": 5154, "-15": 4611, "loy": 3369, "तिहासिक": 7137, "abel": 7881, "रु": 1716, "▁[మ": 1565, "rac": 3794, "ంతువు": 9556, "ईल": 6174, "ancy": 4404, "िश": 1434, "]](https://te.wikipedia.org/wiki/భారతదేశం#cite_note-imf": 9654, "▁प्रारम्भ": 7453, "క్రమ": 5888, "&ss": 6546, "▁మాత్ర": 6956, "ृषि": 7027, "arnataka": 6103, "▁there": 3671, "H": 40, "DF": 1419, "Informatics_Centre": 3304, "సింగ్": 9467, "ఫ్": 2315, "on-Aligned": 6162, "కైవు": 3490, "कार्यपालिका": 8331, "और": 586, "mon": 8467, "▁Time": 9383, "1.asp?": 9529, "7%": 4826, "india.gov.in/india-glance": 5197, "▁\"दिल्ल": 8236, "ν": 128, "1/DD": 8833, "जीवन": 9655, "हाय": 3338, "org": 5916, "uries": 7186, "urope": 1815, "_Day": 9540, "Zor": 8452, "National": 5542, "▁थी": 3223, "-100": 8268, "24)": 3662, "वीं": 3875, "orn": 5633, "▁కేవలం": 9972, "UNHDR": 8851, "](https://en.wikipedia.org/wiki/E": 1244, "▁rural": 7946, "nf": 4401, "▁Bharat": 8559, "–సా.శ.19": 9482, "्लेट": 6188, "▁km2": 5707, "▁oldest": 8085, "ij": 5624, "ेव": 2122, "▁(2014).": 6263, "చల్": 2861, "+": 12, "▁&": 1141, "ఒడి": 3881, "ब्": 1927, "hattis": 6123, "Pages": 4009, "](https://te.wikipedia.org/wiki/మధ్య": 7976, "Harv": 934, "स्थ": 4285, "▁heredit": 9852, "CCN": 7654, "▁उपमहाद्वीप": 3769, "](https://hi.wikipedia.org/wiki/ब्रिटिश": 8349, "▁परमाणु": 7477, "▁Ac": 3847, "हि": 829, "వేలీ": 6884, "ాల్లో": 6048, "ave": 1791, "▁\"Government": 5686, "-II": 7153, "KulkeRothermund": 2242, "ोट": 6187, "कि": 1065, "Hindustani": 7352, "ंप": 2477, "▁ప్రముఖ": 6001, "exis": 5532, "▁vers": 8912, "b/": 5866, "▁Intelligence": 9487, "ow/": 3218, "▁\"పాకిస్తాన్": 7762, "gypt": 5711, "▁[↑](https://te.wikipedia.org/wiki/భారతదేశం#cite_ref-": 2400, "▁పైగా": 7819, "gle": 841, "221": 6552, "मिर": 7101, "thnologue": 2517, "hol": 5623, "Paki": 6323, "▁राज्य\")": 4659, "▁Tw": 8156, "ID-19": 8672, "2020": 8240, "ropped": 8023, "नेपाल": 2407, "▁dis": 2415, "a,": 2667, "rg": 1890, "ండ్య": 6782, "ined": 1857, "ప్రధానమంత్రి": 3962, "▁ప్రస్తుతం": 8089, "र्स": 3590, "गोआ": 4579, "గుప్త": 8109, "akshadweep": 5512, "cember": 2704, "hl": 6577, "▁across": 8372, "rune": 6583, "▁खाना": 1982, "15": 794, "ఆ": 215, "ంధ్": 9616, "▁न्या": 2558, "time": 2394, "ఆఫ్": 3248, "▁भाषाएँ": 7484, "వ్": 7720, "త్రి": 2203, "▁I": 1068, "▁years": 2957, "Category:": 998, "CS": 1227, "▁\"బంగ్లాదేశ్": 9712, "6.": 1335, "पुत्र": 7874, "ap": 914, "▁low": 5631, "कार": 1041, "యె": 6639, "▁texts": 8694, "vert": 6381, "mplate": 1134, "2018": 1115, "1994": 2600, "A": 33, "ess": 2661, "▁[South": 3073, "िकिस्तान": 7821, "hutan": 6455, "yayan": 3538, "T": 52, "▁led": 6762, "▁Prin": 8542, "▁एशिया": 2653, "▁గా": 9174, "HQFrontView": 8120, "▁mathema": 6042, "ncl": 3503, "ज्ज": 5061, "తమిళ": 2483, "ंगला": 7850, "](https://en.wikipedia.org/wiki/G": 1427, "L.": 8994, "▁[Islam": 9727, "10": 585, "](https://en.wikipedia.org/wiki/List_of_SAARC_summit": 5419, "వలం": 9139, "Ś": 111, "](https://hi.wikipedia.org/wiki/भारत_का": 9678, "](https://hi.wikipedia.org/wiki/ISBN_(identifier)": 2426, "▁సంస్థ": 7956, "धोला": 9078, "duct": 4976, "▁\"British": 5389, "ణి": 2482, "▁where": 7989, "omic": 9254, "▁Island": 2212, "టుంబ": 5443, "గంగా": 5280, "upta": 4283, "action=edit": 523, "▁ఆకుపచ్చ": 7913, "▁లోని": 9688, "सद": 2340, "▁2014": 1562, "mu": 2796, "imalay": 3522, "▁[Robb": 9622, "నియా": 5969, "ounding": 9664, "ौद्ध": 3154, "](Special:BookSources/978-0-521": 7285, "rban": 7181, "▁Publications": 9908, "▁కేంద్ర": 7842, "W00": 8759, "▁शास": 2236, "రాష్ట్రాలు": 4948, "indhi": 6763, "▁[978-0-521": 6146, "99": 3307, "1)": 1360, "▁क्षेत्र,": 8333, "_Development": 3966, "▁These": 6919, "▁हव": 9328, "ats": 2182, "న్ని": 2259, "arliament": 3744, "भू": 2961, "▁*The": 3336, "००": 2314, "▁[Dikshit": 9604, "▁రైళ్": 9705, "ाना": 1209, "▁[e](https://hi.wikipedia.org/wiki/विशेष:EditPage/साँचा:": 7522, "్రిటిషు": 5474, "లతో": 5291, "మీ": 1719, "క్ర": 7705, "▁./వర్గం:": 1727, "▁Incre": 5130, "▁बल": 8291, "య్య": 2385, "_W": 2749, "mploy": 4338, "Language": 6322, "ikshi": 3076, "औ": 147, "adh": 3515, "ूनिव": 3938, "Sanskrit": 6516, "भोपाल": 9848, "pectancy": 5073, "andard": 3144, "▁वर्षों": 6288, "ety": 3996, "athak": 3685, "▁జరి": 4943, "న్ను": 7826, "lue": 5626, "_13": 3842, "▁केन्द्र": 4273, "▁[↑](https://en.wikipedia.org/wiki/India#cite_": 7235, "▁\"Sri": 9426, "तेलंगाना": 5453, "90": 1164, "▁[Indo-": 5096, "]](https://hi.wikipedia.org/wiki/भारत#cite_note-FOOTNOTESingh2009": 4789, "enced": 9207, ".asp?": 8847, "](https://te.wikipedia.org/wiki/మ": 1615, "▁रहा": 4289, "alit": 6356, "▁గుర్": 9181, "▁प्रदेश](https://hi.wikipedia.org/wiki/मध्य": 8340, "ంప": 2759, "-9": 894, "▁बीच": 4500, "▁अरब": 3049, "d": 68, "Forest": 7163, "ప్రదాయ": 4526, "623": 7572, "१": 202, "f/f": 6435, "3TRtDwAAQBAJ&pg=PA": 4801, "urrency": 9739, "cu": 7172, "8-0)": 3318, "▁Security": 9897, "▁Book": 7599, "డిన": 5282, "_य": 8762, "ंडिया": 3600, "Alig": 6140, "डा": 9070, "-language\\_sources\\_(": 6508, "ɪ": 117, "uch": 2174, "▁[t](https://en.wikipedia.org/wiki/Template_talk:": 7387, "amsar": 9883, "▁[हिन्दी](https://hi.wikipedia.org/wiki/": 4095, "hute": 9024, "lag": 3392, "[[18": 7597, "hdr": 6463, "_त": 6169, "-29": 5015, "నాడు": 3670, "_16": 8908, "▁Persian": 5479, "్రీ.పూ.": 5410, "▁[రాష్ట్ర": 6668, "and": 362, "zberg": 2945, "ండీగఢ్": 8106, "▁आया": 9439, "ks": 4749, "▁अनुसंधान": 8395, "▁[गुजरात](https://hi.wikipedia.org/wiki/गुजरात": 9958, "au": 1362, "](https://hi.wikipedia.org/wiki/अ": 1622, ".wikipedia.org/wiki/": 325, "isc": 4883, "▁पहले": 5075, "రాఠ": 5958, "త్మా": 4917, "▁election": 3072, "orce": 4874, "_सिनेमा": 7460, "),": 565, "ñ": 105, "▁सभा": 4062, "Home": 5854, "▁भारतीय": 1383, "▁ac": 2738, "▁U": 1720, "iv": 1318, "द्यालय": 6253, "\"),[": 9355, "JIJ": 5084, "⁡": 294, "हमदाबाद": 9940, "▁since": 4236, "ोग": 1257, "▁भारत\")": 4904, "▁Commissioner": 3316, "_T": 1295, "per": 955, "orical": 4682, "▁ఒకటి": 8026, "yn": 2080, "1162": 3617, "ने": 828, "-13": 7444, "▁होत": 4275, "ree": 1514, "▁मील": 7442, "infobox": 5815, "23": 577, "▁often": 7787, "▁Sfn": 1941, "▁Times": 3235, "1162-2": 4041, "AA": 845, "CO": 3035, "ingap": 6713, "▁ge": 6401, "India": 340, "्यांमार": 9505, "ంగ్డమ్": 9635, "యుగ": 9653, "▁शुरू": 7000, "aj": 1067, "भोजपुरी": 6966, "country": 2843, "▁जाता": 3054, "▁१९६": 9681, "2014": 2098, "ोन": 2647, "▁man": 5660, "वनेश्वर": 9674, "▁\"साँचा:": 6676, "గా": 1097, "ెద్ద": 3428, "▁దేశం": 4204, "\\_Sfn\\_no-t": 1947, "बाद": 2549, "▁संगीत": 8381, "radition": 2281, "▁mi)": 6450, "ట్టుపూర్వ": 9905, "[https": 9003, "పూ.": 1013, "▁సభ": 3918, "85": 1593, "](https://te.wikipedia.org/wiki/ఇ": 2589, "](https://hi.wikipedia.org/wiki/विशेष:पुस्तक": 2427, "int:": 4222, ".svg.png)": 4981, "jana": 8767, "▁ज": 519, "▁char": 8529, "వాతంత్ర్య": 3705, "ताज": 3659, "▁one": 3551, "ulture": 1760, "ండీ": 6781, "िकता": 8271, "పాల": 1198, "7.208": 8819, "urn": 4649, "▁state": 2936, "ంధీ": 2908, "idge": 1569, "▁incre": 3407, "Indian": 1135, "umb": 837, "KulkeRothermund2016": 8005, "మించ": 7932, "▁Britannica": 8792, "anch": 8497, "▁Factbook": 9476, "\n": 1, "F)": 5852, "▁dependencies": 6101, "ngineering": 6811, "లంక": 3254, "line": 2261, "](https://te.wikipedia.org/wiki/చ": 3267, "▁సి": 2778, "ంగ్": 1634, "▁-15": 9249, "శక": 9141, "industry": 4341, "archive.org/detail": 5529, "▁१९": 2033, "countries_and_dependencies_by": 6132, "रण": 2858, "▁have": 2329, "_industry": 6567, "मेव": 6259, "_National_Park": 8742, "7).": 5209, "▁comp": 2396, "nins": 9035, "](https://web.archive.org/web/": 808, "▁Quote:": 6122, "▁cre": 7227, "▁\"S": 610, "ations/": 7111, "_and_union_territories_of_India": 8113, "-m": 1901, "fr": 2713, "▁35": 8479, "even": 7091, "](https://te.wikipedia.org/wiki/చైనా": 9786, "▁[ర": 9189, "-9\").\n": 8602, "\"))\n": 1785, "Pages\\_us": 4736, "-0": 402, "0&s": 7645, "ుప్ర": 9152, "▁Exchange": 9899, "of_": 471, "ుతున్న": 9153, "▁occ": 4364, "](https://hi.wikipedia.org/wiki/साँचा:": 6685, "rop": 2826, "ulti": 4110, "▁East": 2922, ").": 428, "IMFWEO.IN-": 6540, "CN": 3103, "▁\"ड": 5560, "_of_S": 3653, "▁వ్యాస": 4973, "▁1997](https://en.wikipedia.org/wiki/India#CITEREFCraven1997": 8731, "53": 5207, "▁(2006).": 7631, "తావరణ": 3669, "41": 7397, "|": 92, "aldi": 4691, "](https://hi.wikipedia.org/wiki/भारत_सरकार": 9960, "andhi": 2743, "ोर्": 2123, "2000": 3046, "resident": 3060, "nclm.nic.in/shared/linkimages/NCLM50thReport.pdf)": 6133, "ोब": 7426, "రంగ": 5900, "emale": 4525, "▁వంశం\")": 9902, "▁बैंक": 8293, "ोकोस": 7964, "▁2014](https://en.wikipedia.org/wiki/India#CITEREFLudden2014": 9993, "▁विश": 1897, "cul": 3533, "lor": 3782, "रवरी": 3114, "गुजरात": 2842, "ful": 8463, "ण्ड": 1673, "identifiers": 4811, "▁Dyson,": 7381, "▁un": 1707, "ed.": 2279, "ys": 985, "ref-1": 2397, "्रा": 1146, "fficial": 2302, "](https://en.wikipedia.org/wiki/United": 5099, "तार": 7691, "inguistic": 3491, "▁1994](https://en.wikipedia.org/wiki/India#CITEREF": 7370, "▁ग": 750, "nold": 9282, "▁ध": 1422, "angla": 9337, "▁sec": 8918, "ष्णकटिबंधीय": 8401, "స్ట్": 9332, "లను": 3639, "European": 3862, "ITER": 617, "lia": 1700, "▁Asian": 2015, "conom": 868, "▁వివిధ": 6857, "](https://te.wikipedia.org/wiki/ద": 1724, "lobal": 3497, "its": 4327, "जापान": 5798, "▁Bank": 4000, "ran": 1972, "[UNK]": 0, "భూటాన్": 3697, "ంగ్లాదేశ్": 3476, "▁\"Re": 5693, "ృత్య": 9154, "-b": 1637, "▁वायु": 7524, "▁Library": 7609, "రీక్ష": 9752, "...]": 6542, "▁దేశంలోని": 6984, "हाई": 9541, "ː": 123, "▁[Kerala": 9634, "ंग्रेस": 3931, "▁./श्रेणी:जानकारीबौक्स\\_देशमे\\_अज्ञात\\_मापदण्डसभ\\_सहितक\\_पृष्ठसभ#l": 7025, "వి.": 9134, "▁Nuclear": 7867, "p)": 5743, "▁\"సి": 3434, "తాజ్‌మహల్": 7044, "▁भू": 2900, "1.": 1003, "censusindia.gov.in/2011census/C-0": 8854, "▁చూ": 2682, "▁Nicobar": 6778, ".jp/auth": 8814, "entral_": 5725, "ंडल": 8329, "▁Assembly": 3906, "▁\"Pakistan": 9545, "uth": 4632, "\\*": 5739, "▁रा": 6659, "భారత_": 2591, "_in_India": 918, "agari": 5114, "ाद": 786, "via": 7094, "7_": 4244, "rits": 3378, "ridangam": 9888, "](https://hi.wikipedia.org/wiki/साँचा_वार्ता:": 7039, "द्योगिक": 3059, "dex": 5226, "](https://te.wikipedia.org/wiki/భారతదేశం#cite_ref-": 1763, "▁\"Ch": 2718, "▁नहीं": 4281, "पात": 3599, "978-9": 6734, "oram": 8486, "vatsyayan-lord_43": 6442, "89": 3198, "▁Routledge": 6743, "off": 2038, "▁राज्य": 1043, "ainting": 3564, "\\_and\\_Sfn\\_no-t": 1949, "▁मुर्मू": 8365, "రె": 6640, "N": 46, "ార్": 1012, "dies": 7288, "▁error": 1937, "\\_S": 1678, "▁[te": 8492, "▁गु": 5050, "ada": 4334, "epublic": 2696, "ी](https://hi.wikipedia.org/wiki/म": 6244, "-C": 6136, "ాలుగా": 7847, "भुटान": 8102, "=20": 8986, "l": 76, "disha": 7368, "ట్లాడే": 9625, "▁\"मध्य": 6245, "▁talk:": 7231, "▁History": 1735, "hmedabad": 6453, "नेई": 7894, "](https://mai": 687, "religion": 3510, "10)": 5784, ".edu": 7084, "k:": 4133, "“": 286, "తాబ్": 3919, "aste": 1575, ":/": 309, "▁[భారతీయ": 2869, "क्षर": 4777, "censusindia.gov.in/2011census/PCA/A-2_Data_Tables/00%20A%202-India.pdf)": 8895, "The": 758, "/news/": 8432, "onk": 7063, "2-": 2569, "▁जयते": 8082, "ిన": 862, "ts": 851, "angered": 6727, "काउ": 7892, "cheduled": 6436, "▁refor": 7350, "त्पत्ति": 6073, ",000": 2268, "ensity": 9504, "▁వచ్చ": 3280, "iam": 5632, "gar": 7406, "▁\"Tamil": 7954, "▁శాస్త్ర": 4578, "▁From": 4713, "urrent": 5231, "viron": 2305, "_Cons": 9506, "RL": 4370, "िख": 3632, "▁काम": 6230, "_population": 5533, "ield": 7362, "▁పేజీ": 3016, "](https://en.wikipedia.org/wiki/International_": 8500, "को": 4251, "](https://hi.wikipedia.org/wiki/ल": 4061, "▁Africa": 8054, "▁app": 5122, "inghamYoung": 9851, "news/": 2213, "lam": 2972, "ect": 3348, "eral_": 3436, "▁द": 533, "▁Hindust": 9581, ".fr/ark": 4975, "తాబ్ద": 3979, "▁लोग": 4783, "_पर": 2547, "ులు?action=edit&redlink=1": 6793, "Web": 7663, "▁[*": 922, "lled": 7289, "छ": 154, "ater": 1758, "W": 55, "f": 70, "▁లోయ": 9687, "IFT": 7019, "क्षरता": 5813, "unjabi": 7622, "aha": 6327, "క్కి": 6754, "\"](https://web.archive.org/web/20140": 7617, "मक": 6180, "▁ఫ": 5300, "्वतन्त्र": 6275, "330": 2035, "rak": 7800, "inal_": 8147, "now": 2322, "त्रि": 3753, "ould": 3746, "్రప్రదేశ్": 5932, "त्न": 8344, "geoh": 7471, "pper": 8471, "▁en": 3064, "शोक": 6612, "Spear1990243": 9856, "▁ఆర్ధిక": 3951, "िन्": 2366, "▁2018](https://en.wikipedia.org/wiki/India#CITEREFFisher2018),": 7353, "a-": 5612, "_Lanka": 7553, "▁mi": 4704, "▁caste": 3368, "స్](https://te.wikipedia.org/wiki/": 5329, "▁सहायक": 9259, "णा": 2231, "px": 898, "Taj_Mahal_in_March_": 7053, "1–": 2831, "](https://te.wikipedia.org/wiki/భూటాన్": 9270, "▁mar": 4898, "▁[D": 1385, "సింది.": 7884, "झार": 4253, "ను": 901, "▁[उ": 1821, "మాఖ్య": 4199, "८": 209, "▁web": 6661, "en": 328, "▁క్రీ.శ.)": 9753, "▁देश\")": 5411, "రియా": 3127, "](https://en.wikipedia.org/wiki/National_": 5414, "beralisation": 8116, "change": 3275, "सत": 7422, "▁[క": 1661, "”": 287, "▁कर": 1162, "ristianity": 8699, "strument": 9760, "ऽ": 185, "▁मह": 5184, "▁मार्च": 3605, "ana": 1071, "-H": 7637, "▁[f": 5635, "-for": 8750, "▁సమర": 9434, "ther": 921, "▁signific": 9294, "ग्व": 5258, "త్వ": 2683, "▁adop": 7320, "ेल": 1108, "▁\"తూర్పు": 9218, "Provision": 5484, "నో": 6635, "anor": 4685, "icha": 4694, "▁दोनों": 7028, "%2C": 1215, "▁ప్రజల": 9923, "BAJ": 1270, "एसिया": 4564, "sci": 9043, "व\")": 9091, "▁for": 814, "th_BRICS_summit": 5639, "RA": 8180, "83": 3623, "subcontinent": 6337, "ీయ": 679, "▁प्रधानमंत्री": 6224, "inance": 4166, "ुल": 1905, "%E0%A4%": 1932, "మహ": 5897, "&": 7, "▁२": 1732, "▁गति": 8312, "Asher2006": 6256, "▁ప్రాంతాలు\")": 6058, ",6": 8749, "E0%": 1432, "▁l": 605, ".jpg/250px-": 2154, "▁prime": 4730, "/population_en": 8832, "▁\"राष्ट्रीय": 6473, "4/": 3410, "dit": 1650, "ష్ట": 1011, "िन": 2481, "ालय": 1981, "loc": 3516, "41)": 8438, "/hindirelease.aspx?rel": 9927, "t-": 7061, "షి": 3257, "olk": 3277, "ర్యా": 5289, "యా": 787, "tiger": 6541, "▁name": 5581, "_National_P": 8632, "as": 376, "?": 32, "▁ఒరిజ": 2910, "▁Mon": 4495, "1": 18, "▁చెందిన": 9834, "mb": 1265, "▁గాంధీ": 5304, "4-0": 8436, "▁2020": 2847, "▁[![A": 5689, "▁[↑](https://en.wikipedia.org/wiki/India#cite_ref-FOOTNOTEM": 8608, "▁2016.": 8552, "ually": 6931, "▁[SAARC": 6791, "britannica.com/": 4599, "▁[पुरालेखित": 3968, "▁తరువాత": 8091, "alaysia": 6883, "▁\"ग": 5758, "िट": 1370, "ront": 4431, "▁caused": 8083, "1996": 3496, "th_East_Asia_Summit": 9228, "ुक": 6470, "official": 5198, "-00": 5110, "&pg=PA": 1083, "▁చెయ్యబడింది.": 4227, "iss": 1239, "ae": 3228, "3]](https://en.wikipedia.org/wiki/India#cite_note-": 8974, "touchability": 8726, "Provisional_Population_Totals_Paper_1_of_2011_India": 5732, "▁sq": 5649, "sland": 1543, "censusindia.gov.in/2011census/C-01/DDW00C-01%20MDDS.XLS": 8896, "▁(1,269,": 6443, "రేబియా": 6945, "_వి": 6566, "▁लोक": 4658, "è": 102, "गंगा": 4052, "న్నో": 4934, "श्चि": 1743, "▁some": 4018, "్యం": 4891, "జిల్": 9116, "AsherAsher2006": 6257, "सभा": 3418, "▁Dec": 8933, "hm": 1345, "ichell": 6362, "br": 984, "%E0%A5%": 7500, "Stein2010118": 9666, "ంజా": 3634, "▁[సి": 3263, "LS": 8756, "berculosis": 8127, "▁మూడు": 9949, "▁रह": 2706, "?id=": 879, "18.": 8936, "ख्य": 7413, "▁भूमिका": 6300, "](https://en.wikipedia.org/wiki/Ministry_of_": 7284, "▁बन": 4279, "▁di": 2879, "▁around": 8319, "ldlife": 7862, "▁21.": 9733, "నాలు": 5893, "tten": 7585, "▁७": 7739, "ండి": 1480, "27)": 5225, "▁Cons": 4331, "38": 1085, "खण्ड": 3731, "ंदिर": 1917, "▁S": 432, "భా": 917, "_के_अ": 5796, "▁పేరు": 3291, "▁భాషలు": 3477, "sian": 4708, "▁\"Special:BookSources/978-81": 6828, "ukh": 8168, "▁O": 873, "▁[States": 9471, "▁[L": 1820, "ride": 9041, "న్క": 9358, "्यानमार": 6963, "తి](https://te.wikipedia.org/wiki/": 7880, "ashtra": 7085, "&s": 3388, "▁subject": 8166, "फल": 3153, "ागर": 2068, "▁Arab": 4021, "గ": 228, "ult": 1509, "हित्य": 5592, "ve": 445, "ृत": 1147, "HQ": 7658, "harmaceutical": 8099, "aking": 6849, "हम": 5882, "भाजन": 6223, "रीब": 6787, "▁द्वारा": 3604, "धर्म": 2548, "..": 1592, "inema": 6418, "न्द्र": 1787, "सम": 1854, "-g": 1879, "–సా.శ.": 800, "languages": 3982, "డ్": 1354, "▁अन्य": 2967, "ligi": 2745, "ोड": 8776, "ర్‌": 5951, "క్షరాస్యత": 7047, "▁सभा\")": 8388, "▁centuries": 7315, "▁स्व": 5317, "▁पुरालेखित।": 2064, "ales": 8504, "ctorate": 7136, "ంధ": 1453, "266": 3718, "▁2011](https://en.wikipedia.org/wiki/India#CITEREF": 7305, "52": 5164, "anguages": 1219, "pic": 4135, "7]](https://en.wikipedia.org/wiki/India#cite_note-": 6558, "▁संसद": 3757, "▁Health": 6483, "▁first": 2449, "u,": 7185, "▁किया": 1909, "▁[1": 1423, "angalore": 3799, "ంబ": 1272, "▁नी": 4071, "files/": 3086, "राष्ट्रीय_स": 6865, "_at_the": 4357, "స్": 435, "logo": 4197, "▁తేదీ": 2913, "రిహ": 4501, "▁penins": 9639, "_19": 3865, "urasia": 8540, ".nic": 1617, "▁प्रभाव": 9997, "new": 1426, "▁we": 3352, "kingdom": 5450, "rganisation_for": 9803, "uisine": 5706, "IS": 468, "त्ति": 5582, "enj": 7197, "du": 3867, "स्तिकता": 9431, "/).": 5819, "निवेश": 9082, "▁28": 2946, "दय": 6468, "▁సమా": 7859, "▁[978-0-521-80904-7": 8495, "udd": 1293, "▁ma": 1484, "_0": 6462, "▁science": 9292, "C-0": 5017, "▁समय": 2604, "leshow/": 3225, "Temple": 4032, "-": 14, "ृद्ध": 5038, "▁[జన": 6669, "%2C_M": 8821, "क_स": 3991, "विशेष:EditPage/साँचा:": 4309, "_स": 607, "▁[1](https://en.wikipedia.org/wiki/India#cite_ref-FOOTNOTE": 3078, "censusindia.gov.in/2011census/population_en": 8855, "▁Himalayas": 8961, "▁[इ": 2585, "mil": 6143, "▁eaten": 8565, "ंज़": 9050, "फ़रवरी": 3341, "er,": 2522, "ins": 4235, "क_सूची": 8053, "▁Oxford": 3131, "present": 9040, "▁D": 590, "మాబాద్": 7917, "data.worldbank.org/indicator": 8425, "Wikipedia\\_articles": 5150, "anding": 8512, "los": 4701, "](https://en.wikipedia.org/wiki/W": 2965, "▁आधुनिक": 7123, "tive": 1715, "▁\"R": 1415, "▁స్థా": 8007, "वर्ष": 7515, "Harvard": 8605, "-14": 3613, "istory": 1166, "Ojha": 8733, "రేడు": 9784, "hasha": 5072, "ाम": 3578, "xford": 1332, "tim": 1312, "ia\")": 2995, "ద్యు": 6980, "\"),": 454, "▁जाते": 7496, "రిజ": 2598, "](https://hi.wikipedia.org/wiki/य": 7438, "ori": 2114, "రీ": 2764, "s/": 911, "riti": 1466, "్ట": 731, "ice": 1896, "?action=edit": 528, "tical": 1930, "▁ले": 4376, "vanced": 8950, "▁ci": 4319, "वार": 3245, "ndhra": 6242, "ope": 1450, "▁\"W": 2766, "లకు": 4451, "a_M": 7286, "166": 5530, "▁\"H": 2636, "\")1": 7768, "▁`|": 7147, "▁स्रोत/978-1": 4300, "▁dance": 2880, "India.pdf)": 7433, "che": 4128, "ృద్ధి": 5906, "ange": 1533, "izoram": 8693, "243": 4407, "▁चल": 9608, "AsherTalbot200828": 9782, "▁निय": 7458, "78.": 6213, "2011": 1129, "▁\"Ar": 9546, "▁living": 9620, "FOOTNOTE": 479, "aks": 8584, "▁enti": 9169, "ots": 7180, "ocal": 8468, "arliest": 5845, "linkim": 4650, "](https://hi.wikipedia.org/wiki/विशेष:EditPage/साँचा:": 7439, "▁Home": 7864, "na": 1668, "दिल्ली](https://hi.wikipedia.org/wiki/": 7521, "ochi": 9037, "ష": 255, "rel": 5763, "Garg": 8991, "▁राज्यक्षेत्र": 5391, "mai": 685, "▁అత్యధిక": 5487, "](https://en.wikipedia.org/wiki/South_Asian_": 5377, "▁[भारत": 1207, "ైగా": 7737, "పాకిస్తాన్": 2904, "మ్రాజ్యం": 1240, "ాలలో": 4887, "nolog": 1560, "](Category:": 4459, "Re": 5019, "](https://en.wikipedia.org/wiki/J": 2357, "▁epic": 9412, "▁P.": 5045, "▁group": 3457, "70": 1082, "२": 203, "ऊर्जा": 7410, ".0": 5515, "tics": 1228, "के": 1656, "▁పరిపాలన": 9788, "omestic": 4738, "ముద్ర": 3282, "ులు\")": 2512, "గిన": 4848, "eth": 4676, "ళా": 6642, "ai": 1140, "AGE": 7554, "English": 8905, "▁\"19": 5637, "ంగ": 636, "var": 7581, "ṇ": 272, "▁भाजपा": 9180, "▁జాతీయ": 2086, "534": 6513, "▁सुधार": 8377, "▁कुछ": 5498, "▁(2018": 3792, "▁att": 9398, "▁ra": 3786, ".org/wiki/": 323, "▁2012": 3159, "▁[संस्कृत": 7138, "altw": 9234, "▁war": 3371, "onstituent": 3525, "▁अर्थव्यवस्था": 6302, "दरण": 9076, "8.": 1463, ".wikimedia.org/wikipedia/": 962, "ों_की_सूची": 1984, "Combined": 2297, "/http://www.": 2190, "నే": 1308, "\")**": 2530, "ों_की_स": 1858, "oint": 5002, "▁•": 626, "ax": 5246, "_Press": 2359, "_జాబితా": 5864, "పాలన": 6028, "Book": 670, "ూపా": 7731, "त\\_मापदण्ड": 5877, "▁[प्र": 5556, "రాష్ట్ర": 1726, "ution": 2246, "awahar": 5444, "de": 937, "०,": 8777, "वर": 9090, "ambridge": 1670, "▁15": 2183, "▁band": 7232, "thematics": 3360, "्वरूप": 8003, "▁2024": 2509, "ign_": 5966, "ంటి": 4202, "ाय": 7424, "culpture": 6091, "163": 7899, "ures": 3785, "ిన్న": 2993, "[![](https://upload.wikimedia.org/wikipedia/commons/thumb/": 1963, "ommonwealth": 4717, "▁सिनेमा": 3771, "i-": 4748, "-in-": 3770, "▁కూ": 2144, "▁\"Special:BookSources/978-0-19-9": 8616, "▁संविधान\")": 8848, "og": 1038, "owe": 4318, "▁संयुक्त": 7893, "\\_देश": 3397, "▁./श्रेणी:": 1773, "▁popul": 6201, "47.": 8810, "్రీ": 1327, "titu": 1119, "▁मा": 2726, "▁[\"The": 4919, "agen": 6208, "▁power": 4477, "▁సా": 988, "](https://en.wikipedia.org/wiki/En": 7942, "ourt": 2828, "ez": 5088, "ok": 2723, "61389": 8874, "लेख": 1266, "rin": 3109, "tice": 4324, "▁उ": 782, "▁village": 7376, "▁world's": 4358, "hi": 339, "▁[![](https://upload.wikimedia.org/wikipedia/commons/thumb/c/c": 9755, "తమిళనాడు": 3958, "स्": 719, "ault": 6142, "Times": 8999, "का": 813, "emonym": 9862, "3).": 7157, "_te": 6565, "]](https://en.wikipedia.org/wiki/India#cite_": 518, "ird": 2979, "▁ప్రజా": 6800, "ara": 4378, "▁India](https://en.wikipedia.org/wiki/E": 9279, "विक": 7700, "▁des": 5780, "/A": 2441, "भु": 5265, "ishes": 8586, "चेंज": 6308, "ors": 5305, "▁Michael": 6391, "▁ఆర్కైవు": 3691, "cript": 4963, "una": 7835, "ister": 2075, "innathura": 9225, "धु": 2725, "्रिज": 9246, "▁దా": 5912, "జీరియా": 6877, "माज": 3216, "▁Development": 2982, "▁errors": 1876, "गण": 1672, "ప్": 1755, "jan": 5873, "▁Ocean": 5010, "ago": 9323, "▁courts": 9314, "engali": 4294, "haw": 7897, "ालर": 6736, "▁[పశ్చిమ": 9698, "id=": 854, "ans": 1021, "▁[World": 5636, "▁whi": 1303, "▁रक्षा": 6238, "▁/": 3714, "ौक्स": 5273, "ంబంధ": 7949, "▁में).": 9366, "ంకేతి": 6880, "adu": 2592, "978-0-19-8": 2640, "ौ": 197, "219": 5236, "నికి": 2775, "heet": 8546, "యూ": 9130, "▁original](http://www.": 6416, "िरा": 8210, "▁\"दक्षिण": 4164, "nal": 4049, "people": 8914, "ी_स": 1402, "री": 742, "▁Shankar": 8014, "▁[ఇ": 2586, "_(union_territory)": 8741, "लेस": 7900, "▁तथा": 1373, "owever,": 6447, "▁As": 6368, "▁\"Template": 7199, "గలు": 3883, "▁\"Te": 9212, "reater": 7781, "భారతదేశం\n": 7856, "▁वार्ता:": 6100, "▁Games": 5979, "imach": 4815, "_s": 1361, "ंधी": 6250, "77": 1323, "a_dynasty": 8084, "्यान्मार": 9824, "▁million": 3687, "I": 41, "287,": 6397, "▁ప్రారం": 9489, "_Union": 7170, "▁pred": 9299, "_धर्म": 5741, "▁top": 5961, "kid=20": 9186, "्या": 877, "5]](https://en.wikipedia.org/wiki/India#cite_note-": 6555, "263": 7457, "▁Gujarat": 7261, "‍": 280, "](https://en.wikipedia.org/wiki/World": 6353, "▁2025": 3377, "▁\"संस्कृत": 5808, "-78074-108-6": 4604, "▁2010](https://en.wikipedia.org/wiki/India#CITEREF": 3196, "](https://hi.wikipedia.org/wiki/इ": 3330, "alth": 1786, "▁आज": 8796, "ivision": 8959, "▁साम्राज्य": 2708, "वियत": 6218, "▁नाम": 2388, "▁की।": 9421, "land": 1080, "▁अधिराज्य": 6478, "వత్రిక": 9140, "న్నిక": 6067, "अभिज्ञापक": 9052, "▁em": 9411, "ing\\_S": 9306, "▁\"Ge": 7948, "▁II": 8939, "isease": 7078, "orities": 3953, "mc": 9030, "ुम्ब": 4841, "▁\"भारत": 645, "से": 1185, "▁People": 6156, "(": 9, "ज़": 959, "2]](https://en.wikipedia.org/wiki/India#cite_note-": 5605, "▁హ": 3644, "ZVu": 5170, "▁దక్షిణాసియా": 9178, "స్వా": 7813, "27.": 8593, "र्जा": 3591, "▁రా": 791, "esert": 4576, "▁[अंग्रेज़ी](https://hi.wikipedia.org/wiki/अ": 4602, "▁रूप": 2331, "Gumpa": 8119, "-R": 7638, "▁हैं।": 1488, "▁\"A": 1079, "$": 5, "Gangetic": 8443, "/P": 3707, "First": 7574, "्राम": 8336, "िंह": 8211, "](https://hi.wikipedia.org/wiki/विश्व": 9244, "223": 8434, "ham": 5620, "ర్ద": 7822, ".nlm": 6155, "म्राज्य": 2096, "మాన": 9526, "▁సామ్రాజ్యం](https://te.wikipedia.org/wiki/మ": 9618, "ges": 2988, "_M": 1088, "TR": 3241, "कारीब": 5390, "▁Id": 9543, "▁\"म": 973, "▁प": 394, "](https://hi.wikipedia.org/wiki/भारत_के_राज्य": 5777, "न्तु": 6261, "च्छ": 5503, "](Special:BookSources/": 1002, "olid": 8555, "ass": 1183, "స్త్రం:": 2021, "ంజాబీ": 9812, "48)": 6151, "adras": 5950, "7.\n": 5166, "in": 331, "ेला": 1144, "▁rise": 7945, "liefs": 9911, "_Centre": 3075, "▁century,": 8024, "\\": 60, "▁व्यवस्था": 5577, "_కాశ్మీ": 6568, "▁हर": 6210, "కు": 886, "ँ": 132, "▁Europe": 5126, "olog": 1898, "i/": 7093, "ompany": 2905, "uducherry": 5156, "avelock": 9658, "2)[[": 5849, "▁poll": 7593, "ral": 1351, "ిత": 1526, "న్నడ": 4532, "▁can": 6715, "▁[↑](https://hi.wikipedia.org/wiki/भारत#cite_ref-FOOTNOTESingh2009": 9746, "](https://hi.wikipedia.org/wiki/पाकिस्तान": 5314, "ताम": 9409, "చ్చు": 9646, "~": 94, "_3": 2610, "▁आंदोल": 8304, "mblem": 6533, "ెనీ": 5296, "ab": 738, "న్\")": 4488, "7.": 1204, "తున్న": 6066, "▁१८": 8818, "4)": 1483, "▁\"स": 1208, "books.g": 881, "▁tree": 5654, "▁[स": 1238, "978-0-521-80904-7": 3570, "ative": 3163, "▁up": 3261, "earning": 7928, "్రె": 3001, "iated": 7192, "న": 243, "Indo-": 1886, "abhad": 9462, "पुरम": 5418, "▁राज्यक्षेत्र\")": 9925, "Pages\\_using\\_": 5153, "त्पाद": 3224, "న్](https://te.wikipedia.org/wiki/": 9360, "▁ne": 7888, "▁above": 8954, "▁languages\")": 5700, "▁central": 7981, "▁[2](https://en.wikipedia.org/wiki/India#cite_ref-FOOTNOTE": 3077, "▁[t](https://te.wikipedia.org/wiki/మూస_చర్చ:": 8132, "4%": 1431, "▁కోర్": 6745, "నై": 2763, "ों": 500, "−": 297, "▁bread": 9345, "](https://en.wikipedia.org/wiki/India#CITEREFCraven1997": 8582, "2001),": 7525, "uccess": 8324, "cial": 579, "▁Conservation": 7359, "8%": 8903, "5).": 5850, "ument": 2717, "MetcalfMetcalf2006": 1618, "लयाल": 3631, "पीप": 9083, "ographi": 2348, "ज़ा": 5797, "wiki": 303, "▁कह": 8242, ".com/": 618, "](https://te.wikipedia.org/wiki/ప్రత్యేక:EditPage/మూస:": 7791, "lex": 7798, "](https://hi.wikipedia.org/wiki/ओ": 4269, "▁(PDF).": 2475, "నాయ": 2011, "2023": 2491, "▁[उर्दू": 8351, "ोण": 7104, "वीरा": 9808, "arnatak": 4229, "flic": 9715, "▁सूची\"))": 7975, "▁जाती": 5065, "Mon": 8445, "భారతీయ": 989, "इटे": 7096, "ప్రపంచము": 9777, "भिज्ञा": 5406, "-17": 2801, "▁ఇతర": 3681, "▁Sabha": 6721, "▁(PDF": 1448, "आई": 2082, "रू": 3733, "s://": 315, "తూర్పు": 3886, "▁प्रकार": 7452, "▁Talbot": 3087, "జాబి": 2786, "सेना": 3219, "्रिसमस": 7150, "AsherTalbot200853": 8355, "](https://hi.wikipedia.org/wiki/चित्र:": 2089, "cl": 1374, "un": 497, "wealth": 3125, "▁disc": 6911, "▁డయ్యూ": 9831, "ædia": 9048, "▁हिमालय": 8350, "ro": 488, "▁ప్రాంతీయ": 9680, "▁Bi": 6392, "ussia": 3367, "ar": 342, ":": 27, "▁9": 2277, "ిల్": 1355, "रकार": 1476, "yam": 5175, "ान\")": 2701, "▁५": 5552, ".indiatimes.com/": 3149, "▁[Pakistan": 7931, "elangana": 6992, "▁करता": 6837, "र्": 409, "▁ఏర్ప": 6119, "cott": 8030, "कल": 3322, "హ్మ": 5467, "ంట": 1104, "▁dynast": 9378, "▁\"ज": 3585, "▁./Category:Articles\\_contain": 8651, "olonial": 6451, "ateway": 9296, "unknown": 7114, "▁\"అ": 2321, "ल्ल": 9088, "ణిపూర్": 9719, "-138": 7112, "Ṛ": 273, "ాళుక్య": 4600, "▁రాజ్యం": 1458, "तमान": 8200, "देव": 3206, "▁engineering": 7374, "www.": 700, "▁\"గో": 6675, "▁స": 641, "▁పరి": 3272, "धि": 3039, "iri": 4132, "▁language\")": 2334, "▁Organisation": 8599, "nclm.nic.in/shared/": 4663, "▁కేంద్రపాలిత": 3450, "ncbi.nlm.nih": 6163, "▁కూడా": 3297, "ంది": 5348, "▁an": 1217, "_F": 1904, "5–సా.శ.": 8978, "alam": 5311, "Provisional_Population_T": 5729, "▁हुआ": 3340, "▁Qu": 5555, "](https://hi.wikipedia.org/wiki/द": 6682, "సా": 450, "thang": 5921, "▁3,287,": 6444, "omp": 1340, "▁ప్రాంతాలు": 4953, "▁te": 1120, "र-": 8205, "क्षा": 4511, "▁[పా": 7747, "తెల": 6633, "angam": 6373, "Home_Affairs": 7018, "వీ": 3255, "ंक": 2724, "లక్ష": 4857, "▁\"ISBN": 895, "nominal)": 4985, "▁government": 2294, "_शासित": 8186, ")\n": 615, "లోమీ": 9391, "▁जब": 5781, "ंच": 4432, "cms)": 7346, "రు": 999, "वैधानिक": 9749, "though": 8499, "▁[सं": 2181, "00%20A": 8787, "undamental": 8078, "71": 3574, "▁సమాఖ్య": 9433, "▁The": 943, "▁\"ఇండో": 9722, "ya": 1899, "76": 2526, "ill": 2402, "▁[क": 1268, "ं": 133, "ी": 188, "▁def": 5684, "▁పార్టీ": 3273, "elang": 4778, "▁CITEREFKulkeRothermund2004": 8356, "2]](https://en.wikipedia.org/wiki/India#cite_note-FOOTNOTE": 3857, "▁\"భారతదేశం": 2254, "-78": 3498, ".com/news/world": 8956, "▁\"Hinduism": 9214, "▁पहुँच": 8409, "▁1998": 4377, "ume": 7445, "▁Rothermund": 5571, "him": 5922, "arnatic": 5720, "ृति": 2758, "ned": 3204, "▁उत्पाद": 4514, "▁(identifier)": 778, "▁\"Th": 8636, "▁especially": 6082, "ुरा": 6615, "en:": 7754, "▁old": 5829, "▁northern": 3619, "os": 933, "Information": 7333, "–Pakistan": 8477, "arg": 920, "irectorate": 8338, "▁(సా.శ.17": 5992, "▁J.": 5052, "▁बड़ी": 7456, "his": 1455, "_with": 4830, "1-0": 4311, "▁वे": 7124, "▁एशिया\")": 6499, "▁\"Economy": 3382, "दी": 1338, "▁నిర్": 9696, "av": 926, "▁air": 8289, "ˈ": 122, "▁जिस": 2127, "tion,": 8511, "etwork": 7223, "▁सब": 1991, "▁1965": 5191, "▁\"పశ్చిమ": 9711, "▁प्रमाण": 8794, "olden_Temple": 8689, "▁चुनावों": 5079, "త్తం": 5362, "▁[Andaman": 9495, "▁Schwartzberg": 8534, "క్టోరల్": 9948, "ause": 8382, "odiversity": 5710, "wait": 8727, "b/b": 8704, "mem": 8158, "ff": 941, "chedule": 6940, "▁సుల్తాన": 7861, "ent": 395, "▁[జమ్మూ": 8016, "▁2014](https://en.wikipedia.org/wiki/India#CITEREF": 7312, "\")\n": 698, "ghts": 6405, "टे": 2643, "Kumar": 8993, "asar": 8519, "िक्ष": 2556, "गणना": 3293, "67": 3090, "▁थे": 6278, "oon": 2823, "▁human": 5578, "▁Min": 3655, "వి": 1010, "▁(20": 4405, "ख़": 6591, "](Special:BookSources/978-0": 4348, "96": 7573, "text": 6297, "యన": 5899, "ేరళ": 7021, "ानी": 7804, "▁ढ": 9165, "▁2004](https://hi.wikipedia.org/wiki/भारत#CITEREFKulkeRothermund2004),": 8414, "▁జయ": 9597, "▁Vol": 7491, "▁కార్య": 8063, "aint": 2684, "_4": 3575, "▁\"बांग्ला": 9585, "ప": 244, "laci": 8643, "AAQBAJ&pg=PA": 1536, "2–": 4100, "▁bord": 9344, "ers": 1281, "▁so": 8524, "▁(": 368, "▁Short": 7080, "Pages\\_": 4361, "C": 35, "‌కా": 6654, "▁समान": 8250, "▁east": 7251, "▁bott": 9347, "_ex": 8765, "त्व": 3630, "17.": 6531, "म्मू": 3489, "पाल": 1523, "ter": 515, "▁template": 1944, "mplate_tal": 7316, ".jpg)](https://hi.wikipedia.org/wiki/चित्र:": 2902, "-3)": 4656, "ove": 1628, "alaya": 8164, "_क": 541, "శా": 2582, "్రూ": 4884, "▁बह": 9403, "▁नृत्य": 7459, "▁trillion": 8881, "a)": 5087, "▁निर्भर": 7135, "र्थिक": 3015, "](https://te.wikipedia.org/wiki/ఢిల్లీ": 5933, "mitt": 6072, "ोवियत": 9108, "ట్రో": 6111, "्यटन": 2911, "▁చిన్న": 5982, "-and": 5082, "नै": 9079, "ం.\n": 9112, "।[[": 2124, "▁[Indian": 2825, "edit": 514, "_न": 3825, "2.": 1053, "▁2025.": 6952, "ritsch": 6438, "▁Summit": 8270, "గణమన": 9751, "are": 2694, "upload": 951, "ric": 1159, "पया": 5880, "▁large": 3916, "not": 5043, "▁prac": 7222, "_2024": 6326, "EditPage/": 1933, "▁about": 8671, "df)": 1409, "-and-": 8864, "पुरा": 4284, "▁।": 3395, "▁[doi](https://en.wikipedia.org/wiki/Doi_(identifier)": 3492, "CH": 7399, "isation": 1723, "िक्किम": 3775, "unbird": 9374, "Univers": 7258, "▁సైనిక": 9435, "పూర్వ": 9509, "ign": 1761, "ation)": 8919, "▁नेतृत्व": 5599, "యు": 1756, "ortheast": 4875, "गुजराती": 6277, "gen": 1521, "_Publishing": 9511, "िय": 890, "ऑपरेशन": 7412, "▁dispu": 5012, "▁च": 1403, "arth": 6680, "PA": 991, "▁वा": 2933, "4-0)": 2849, "22.": 6484, "▁through": 5987, "ाष्ट्र": 2551, "గుజరాత్": 4978, "गर": 1054, "▁*": 633, "a/": 3027, "स्थान": 2128, "▁Press\").": 2451, "ర్యానా": 7007, "3-0)": 2747, "5/5": 8700, "an,": 7203, "omb": 1973, "ै": 193, "▁rule": 3936, "CA": 8140, "ili": 4428, "ond": 2445, "news18.com/news/india/national-anthem-of-india-a-brief-on-jana": 8894, "ately": 6363, "▁\"C": 852, "uters": 8473, "▁second": 5432, "ानेर-": 9298, "▁प्रभा": 7451, "hib": 8149, "ece": 5619, "rancis": 5442, "![](https://upload.wikimedia.org/wikipedia/commons/thumb/": 1803, "24_A7C": 8567, "न्नई": 5435, "▁ఒక": 2909, "](https://en.wikipedia.org/wiki/South": 4347, "ప్పటికీ": 9983, "▁2019": 2545, "ెలవు": 6083, "▁**·**": 595, "err": 724, "attle": 6065, "▁(19": 6360, "DikshitSchwartzberg": 3978, "న్‌ఫ": 3972, "aro": 5925, "_सेना": 8408, "▁जनसंख्या": 4786, "खनऊ": 7006, "▁ऊ": 3155, "rust": 4680, "₹": 295, "](https://hi.wikipedia.org/wiki/स": 1549, "PPP": 5804, "mal": 4835, "imf2_22": 9811, "▁भाषाओं": 4080, "▁కా": 1837, "/)": 8431, "▁approxim": 8719, "_B": 1317, "urther": 9356, "son": 2444, "ौसेना": 5274, "▁प्रौद्योगिक": 5048, "ंदर": 8341, "]](https://en.wikipedia.org/wiki/India#cite_note-FOOTNOTEStein2010": 5368, "lackwell": 9866, "जनसंख्या": 4785, "yy": 5093, "240": 3985, "▁emerg": 6757, "ोर": 1855, "-language\\_sources": 6503, "▁K": 912, "्याचल": 8320, "▁\"पाकिस्तान\")": 5597, "▁data": 8553, "ेद": 6617, "म्प": 2840, "ం\")\n": 9113, "ంగో": 6766, "ర్వ": 2258, "सं": 880, "▁प्र": 574, "ोर्नो-काराबा": 8131, "E": 37, "ategory:": 675, "ंजाब": 1978, "Stein1998": 1916, "109": 5835, "पीठ": 5470, "18)": 8801, "▁series": 9293, "▁పు": 3442, "here": 7092, "▁సంగీతం": 4508, "ెలుగు": 4581, "▁రకాల": 9521, "-780": 4040, "ౌర": 9160, "ockey": 5680, "SYS": 8998, "▁that": 1511, "▁(J": 8252, "िल्ल": 2152, "rowth": 3813, "▁ఇ": 1175, "\\_अज्ञात\\_मापदण्ड": 6097, "▁Man": 5960, "▁us": 2341, "రాస్య": 6740, "CE": 2641, "శ్చి": 3022, "▁India:": 2495, "▁अ": 460, "ి.": 817, "uss": 5651, "ంటుంది.": 8066, "/India": 4099, "onom": 5098, "జ్యం": 864, "thmetic": 8964, "जय": 2528, "తం?action=edit&redlink=1": 6803, "▁Central": 5834, "upee": 7187, "तु": 2927, "ार्व": 5926, "ISO": 4176, "▁it": 1274, "▁पड़": 6704, "▁BRICS": 3451, "aidy": 9017, "4_": 8139, "rad": 1572, "▁14.": 6149, "▁summits\")": 5501, "ాల్": 1663, "భార": 425, "ref": 423, "rit": 777, "▁ఒరిజినల్": 2915, "ams": 4644, "▁य": 1297, "bi.nlm": 6157, "80": 1493, "हन": 4259, "విధ": 6822, "ological": 6053, "▁12": 4613, "ikkim": 5140, "ుల్": 4868, "▁[Bangladesh": 9538, "_(भारत)": 5188, "_आ": 3104, "kbar": 8709, "Army": 8654, "్యాయ": 9318, "](https://te.wikipedia.org/wiki/మూస:": 6696, "▁coral": 9313, "lémentin-": 8735, "ensus": 1056, "्यान": 3747, "తెలుగు": 4852, "ria": 3869, "ते": 1651, "ज्य": 2056, "▁uni": 7983, "వంశ": 2265, "y,": 5216, "](https://te.wikipedia.org/wiki/వర్గం:Harv": 7790, "16]](https://en.wikipedia.org/wiki/India#cite_note-": 8594, "](https://en.wikipedia.org/wiki/R": 1428, "▁\"द": 4268, "g": 71, "_(identifier)": 779, "hak": 9023, "/d": 3723, "y=": 5028, "MDDS.XLS": 8878, "agola": 9326, "▁National": 2802, "▁वृद्धि": 7043, "Dw": 1768, "_summit": 2410, "▁ఖ": 6658, "▁26": 1891, "8+5": 7377, "ed,": 5928, "డ్డ": 4208, "tected": 6929, "_స్": 9008, "▁पुलिस": 8339, "ే": 265, "ially": 8549, "win": 8224, "ఎ": 220, "▁[A": 857, "ombined": 2220, "▁అనేక": 8077, "\".": 2609, "▁([": 863, "roups": 9651, "oastal": 9741, "_Data_": 7488, "](https://mai.wikipedia.org/wiki/अ": 7868, "\\_or\\_": 8783, "▁.": 757, "లాడే": 9593, "▁స్థ": 2250, "मा": 739, "▁Pradesh": 2343, "est": 769, "धानमंत्री": 3975, "्रम": 3156, "▁\"మ": 1548, "entre": 2143, "▁\"ఢిల్లీ": 4881, "umber": 2133, "](https://en.wikipedia.org/wiki/P": 1137, "▁Francis": 7270, "rian": 7683, "ourbaki": 6389, "▁భారత": 2196, "▁भूगोल": 9766, "nised": 9034, "▁\"Sanskrit": 6764, "cod": 7173, "▁Union": 3355, "ediff": 6062, "oh": 1626, "▁Company": 4481, "२००": 5275, "ాలు?action=edit&redlink=1": 4181, "nam": 3350, "_and_S": 1839, "AsherTalbot20": 6057, "▁[I": 2540, "▁ఉప": 4529, "ऐ": 144, "ఉత్తర": 3880, "ana-49857": 8813, "istorical": 8545, "Asher": 1498, "▁\"జన": 6674, "మూస": 1918, "▁State": 7992, "▁<": 8146, "దక్ష": 1391, "▁\"ముంబై": 7764, "▁world": 2532, "घालय": 6176, "▁Association": 9322, "वैदिक": 6309, "](https://hi.wikipedia.org/wiki/न": 6198, "alled": 8615, "శ్చ": 2992, "वरा": 9092, "Ary": 4417, "/p": 1921, "1857": 7127, "i,": 4630, "लयालम": 4664, "ాలో": 4478, "▁ఎక్కువగా": 8080, "44": 2518, "tis": 7772, "ాలె": 6707, "ence": 1050, "▁कारण": 4570, "ृष": 6185, "हिन्दू": 7923, "▁these": 5672, "▁1950": 2780, "▁इन": 4524, "st": 486, "▁provid": 8944, "ुसार": 1860, "load": 946, "http://": 9188, "_पार्ट": 6942, "▁मेला](https://hi.wikipedia.org/wiki/": 4297, "िकेट": 8272, "ीय": 457, "—": 283, "ultan": 3556, "](https://hi.wikipedia.org/wiki/राजस्थान": 8247, "सांख्य": 9975, "▁1947": 3553, "▁US$": 7317, "▁humans": 9931, "హాయ": 4863, "ogra": 1827, "▁स्थ": 2821, "ద్వీ": 4528, ".aspx?rel": 7543, "▁\"Special:EditPage/Template:": 7254, "▁[Cambridge": 6413, "ाले": 4653, "एँ": 2853, "▁Caves": 9317, "▁उत्तर-प": 6501, "16.": 8937, "32": 3102, "▁both": 4336, "ists": 4897, ".co": 6164, "▁[978-81": 6671, "िला": 3826, "uj": 2192, "▁నడి": 6835, "▁कोरिया\")": 9922, "▁जिन": 6219, "क्षेत्रफल": 6902, "ine": 1121, "arlung": 8068, "याधी": 4892, "▁चु": 3220, "▁\"New": 8634, "_ప్రదేశ్": 4126, "ింది.\n": 6007, "athematics": 6571, "ोणार्": 9987, "al": 344, "nic": 1113, "](S": 974, "దావరి": 8001, "▁\"न": 3084, "ింద": 928, "nclm.nic.in/": 3529, "_Pradesh": 6808, "▁(2018).": 7628, "▁यूनिवर्सिट": 5800, "िंग": 5753, ".nic.in)\n": 7977, "](https://hi.wikipedia.org/wiki/श": 9239, "2905": 4030, "॰": 211, "http": 311, "oms": 9253, "uscript": 7808, "▁2023": 2417, "▁wide": 5712, "acher": 9577, "సిన": 2892, "హిమాలయాలు": 9879, "3-8": 5206, "ations": 1226, "ports": 3194, "▁50": 4375, "▁मानव": 6267, "ताब्": 3520, "▁उद्योग": 8316, "▁निर्": 3834, "चि": 1048, "lectri": 6967, "▁थ": 2278, "æ": 100, "▁और": 627, "ृष्ठ": 3961, "%202-India.pdf)": 8883, "▁దినోత్సవం": 9182, "ङ्": 2379, "▁स्रोत/978-0-521-80904-7": 9713, ",NGDP": 4743, "olicy": 3070, "}": 93, "](https://te.wikipedia.org/wiki/B": 6692, "odern": 1846, "▁[P": 1158, "ंगाल": 2729, "IMF": 3400, "▁दृ": 3447, "#ci": 371, "ेष": 1157, "j": 74, "▁नव": 5189, "శ్వ": 9663, "_E": 1597, ".JPG": 7644, "▁g": 710, "▁sim": 8261, "▁General": 4027, "▁[ఢిల్లీ](https://te.wikipedia.org/wiki/ఢిల్లీ": 7008, "▁न्यायाधीश": 6922, "lite": 6376, "98": 3859, "_top": 9771, "▁Games\")": 7372, "द्योग": 2562, "feb": 5584, "▁\"నేపాల్": 9223, "Ludden200": 8958, "ritannica": 2807, "లు": 501, "dish": 5618, "978-0-19-882905-8": 4045, "amb": 2677, "ament": 4698, "▁Century": 8152, "-शासित": 5160, "▁जलोढ़": 9825, "ृष्": 2668, "▁संस्थान": 6234, "▁[n": 6345, "orther": 3093, "IB": 4672, "fore": 2954, "ండిచ్చేరి": 6862, "िकी": 6730, "ంద": 588, "199": 638, "<": 29, "ā": 108, "▁\"F": 2050, "▁आक": 6232, "वी": 3577, "టర్": 6627, "58)": 7079, "infob": 5761, "బాటు": 9743, "39": 1188, "ilies": 8688, "▁(*": 3610, "समिया": 5439, "▁culture": 5221, "▁Ad": 6523, "హార": 2485, "▁festival": 8729, "ంత్రి": 3247, "▁देख": 5593, "_in_New_Delhi": 6129, "लिया": 8775, "त्स": 9073, ".gov": 893, "nominal": 4678, "_S": 672, "–13": 8911, "▁पत्र": 9287, "_groups": 9819, "19)": 7591, "business-": 8055, "o-daro": 8096, "▁పద": 9340, "▁V.": 7951, "](http://www.": 2018, "local_": 6502, "ua": 3870, "1]](https://en.wikipedia.org/wiki/India#cite_note-": 6551, "▁Secret": 9898, "t": 84, "▁199": 1784, "olper": 3373, "58": 2055, "t/": 9044, "_News": 8679, "▁[↑](https://en.wikipedia.org/wiki/India#cite_ref-1": 8115, "वाद": 2613, "▁दोन": 6221, "identifier)": 549, "_ఎ": 7666, "teenth": 4007, "_Organisation": 9769, "-lead": 4969, "ము\")": 3458, "/https://": 1179, "ियार": 5054, "ury": 1698, "arak": 7434, "▁[ल": 4460, "▁Ins": 7607, "▁अप्रैल": 4797, "](https://hi.wikipedia.org/wiki/ड": 8243, "मूल्य": 8416, "erritory": 3819, "ge": 763, "జ్య": 704, "Robb": 4420, "ughal": 3298, "ris": 4430, "▁[2": 1382, "bird": 8460, "_राज": 5022, "ilgrim": 6092, "र्वो": 4082, "▁\"सा": 5759, "rince": 7684, "▁Delhi": 4505, "\";\n": 8137, "iver": 2633, "ages": 1024, "శ్": 1866, "▁मानचित्र": 9668, "1998": 1399, "lack": 4429, "▁దీవ": 9176, "matics": 1759, "▁[4": 4757, "▁पहा": 8260, "othermund": 1804, "▁mark": 8551, "థ": 240, "ected": 9533, "శ్వా": 6052, "▁భాష\")": 2791, "▁ओर": 5476, "▁सम्प": 7109, "▁मैदान": 4473, "व्यवस्था": 3734, "▁Kingdom": 5133, "టిబెట్": 7011, "-349": 7262, "alley": 2973, "्यवस्था": 2657, "४७": 6189, "▁లేని": 9880, "vol": 3406, "tar": 7685, "र्क": 4768, "pringer": 5080, "▁[विश्व": 9192, "▁[తూర్పు": 9198, "▁नौसेना": 6761, "NCL": 5858, "lose": 7234, "ే,": 9156, "RC": 1705, "LD": 8907, "కొ": 4146, ")[[13": 8610, "88": 2916, "](https://en.wikipedia.org/wiki/Delhi": 7304, "arliamentary": 7351, "▁4.": 8480, "itz": 4610, "_g": 3725, "S.": 4999, "▁बड़ा": 6752, "▁species": 6939, "im": 812, "▁आन्दोल": 5978, "लिम": 7102, "యాలో": 7717, "ठ": 159, "uslim": 3512, "▁\"उ": 1960, "ैथिल": 4142, "](https://te.wikipedia.org/wiki/అ": 3123, "190": 7797, "ील": 2962, "otechnology": 9708, "istan": 2818, "usines": 1922, "ar,": 3715, "▁किन्तु": 7508, "overeign": 5486, "▁5.": 8481, "శాఖ": 8015, "ujarati": 8665, "र्नाटक": 4097, "▁2016": 2594, "ఆంధ్రప్రదేశ్": 6127, "▁स्रोत/": 2428, "-2)": 2624, "▁Data": 4707, "earch": 2721, "Kashmir": 5241, "313": 5606, "మైన": 2484, "▁बढ़": 3335, "▁op": 9170, "rade": 2950, "▁bu": 6374, "▁me": 3276, "india/national-an": 8841, "ook": 436, "tes": 3542, "ౌర్య": 4871, "▁जय": 5570, "bu": 8190, "note-10": 6371, "▁coast": 6365, "▁प्रमुख": 3452, "▁कार्य": 3835, "▁హవేలీ": 9813, "hā": 7177, "▁इसी": 7499, "▁sur": 9290, "▁मंदिर\")": 6283, "సీ": 7724, "_Economic_Co-operation": 9994, "▁[न": 2615, "▁v": 1676, "्यव": 2461, "1950": 3045, "▁సాంప్రదాయ": 9924, "रामा": 9285, "than": 3543, "మై": 5898, "िम": 2552, "▁[पंजाब": 4553, "ंध": 1202, "▁\"వర్గం:Harv": 7766, "OLA": 7401, "](https://mai.wikipedia.org/wiki/स": 5358, "](https://hi.wikipedia.org/wiki/विशेष:पुस्तक_स्रोत/": 2440, "error": 771, "कांक": 6798, "▁[3](https://en.wikipedia.org/wiki/India#cite_ref-": 9756, "8]](https://en.wikipedia.org/wiki/India#cite_note-": 8984, "ऻ": 183, "▁शासन": 3601, "▁political": 6364, "▁[R": 1503, "ప్రదాయాలు": 9875, "á": 98, "▁regions": 5433, "▁हिन्द": 2283, ".[[40": 5354, "▁उस": 8315, "ikh": 3766, "▁చేయ": 9800, "national-an": 8836, "▁contribu": 8698, "linkimages/": 4665, "▁[भारतीय": 2072, "*.": 905, "▁Trade": 7246, "वे": 2275, "ina](https://en.wikipedia.org/wiki/Ch": 7325, "Th": 5822, "ऊ": 140, "v": 86, "ंगल": 8294, "frica": 9748, "](https://hi.wikipedia.org/wiki/भारत#CITEREF": 2167, "rate": 1988, "busines": 4127, "ले": 861, "pend": 1531, "ऑ": 145, "▁along": 5715, "मीरात": 6831, "default": 7357, "स्लिम": 7125, "▁हाला": 6719, "2025": 5310, "_का_": 4068, "▁[China](https://en.wikipedia.org/wiki/China": 7389, "▁Lank": 5131, "భి": 4855, "द्रा": 7692, "▁[India": 3431, "aki": 1321, "ico": 7794, "sey": 7269, "ంది.": 1869, "▁రాజ్యాంగ": 9801, "27": 836, "దిన": 2762, "स्चेंज": 8310, "▁\"Russia": 8638, "*)": 4820, "ड़े": 3129, "Uttarakhand": 5203, "oples": 5670, "ంతి": 5276, "▁3": 1346, "ेंस": 6206, "South_Asian_": 7661, "oz": 7681, "▁२०१": 4949, "yanmar": 4586, "▁पड़ोसी": 9969, "ंदिरा": 9586, "akshadwe": 5473, "▁27": 2964, "2006),": 8622, "ultural": 4548, "ised": 3181, "ाला": 2878, "▁Buddha": 7343, "ammu": 3651, "▁\"Economic": 8626, "श्रेणी:": 830, "5-0)": 3317, "](https://hi.wikipedia.org/wiki/दक्षिण": 9242, "ivil": 3384, "▁over": 2929, "](https://en.wikipedia.org/wiki/Climate_": 8604, "హాత్మా": 4957, "ency": 5097, "ineering": 4031, "ांग": 2276, "▁కాంగ్రెసు": 6987, "Qu": 3779, "37": 1541, "](https://en.wikipedia.org/wiki/C": 930, "63": 4046, "uns": 9373, "पर्यटन": 3761, "_ब": 3150, "-with": 4745, "రుణా": 4932, "▁सिंह": 7510, "entury": 5524, "ेंगल": 5776, "_Sindoor": 9447, "ంటో": 9550, "▁राजवंश\")": 7547, "yson": 1709, "▁Dictionary": 6227, "▁व": 660, "idd": 2446, "ramaniam": 9991, "▁\"[": 4163, "▁प्रदेश](https://hi.wikipedia.org/wiki/मध्य_प्रदेश": 8423, "▁English": 2887, "ase": 1662, "▁\"వి": 4463, "्य": 380, "ఉ": 218, "-in-india": 7507, "398": 7297, "_1_of_2011": 5695, "కో": 2760, "▁left": 4241, "▁(अ": 5183, "किस्तान": 1555, "▁not": 2237, "▁చరిత్ర": 1418, "▁మతము\")": 8040, "▁Informatics": 7272, "epali": 8592, "ఖ్య": 2044, "ाग": 9099, "मृत": 6609, "term": 2695, "▁following": 8715, "ⓘ": 298, "awaharlal": 8081, "▁border": 9346, "▁కోట్": 9946, "_जन": 8764, "▁2026": 4344, "लेट": 4522, "agogue": 9327, "▁[↑](https://en.wikipedia.org/wiki/India#cite_ref-": 629, "cies": 1987, "మ్రా": 1114, "▁१५": 7935, "United": 1467, "ichell2000": 8712, "▁Publishing\").": 8692, "रस": 4840, "Political_": 8141, "▁billion": 5116, "rahmaputra": 4733, "राष्ट्रपति\")": 6284, "వార": 5902, "stor": 6735, "▁s": 396, "](https://en.wikipedia.org/wiki/Ch": 2788, "▁summit": 5109, "dy": 8191, "hailand": 6802, "▁prom": 5832, "_सागर": 7121, "inal": 924, "కాహార": 9606, "odia": 6581, "ala": 5101, "ृत्य": 3933, "67733-7": 8711, "గర": 3421, "VII": 8451, "▁(eds.).": 3977, "Articles\\_with\\_": 8680, "handigarh": 6056, "Un": 4422, "ీనంలో": 8047, "భరత": 9942, "▁సౌకర్య": 8105, "ighth": 5703, "▁आधिकारिक": 4183, "ian": 1284, "▁2008](https://en.wikipedia.org/wiki/India#CITEREF": 8037, "aryana": 5579, "oor": 2443, "ource": 5222, "▁Republic": 4810, "9857": 8754, "▁\"J": 2320, "_सं": 2206, "రా": 512, "▁36": 5828, "ISBN_(identifier)": 896, "1-4": 5735, "IN": 1689, ".[[28": 8573, "ep": 801, "127": 4008, "ाटी": 4638, "IF": 5855, "▁\"सं": 2648, "az": 4314, "parliament": 8951, "stat": 8155, "श्रीलंका": 4591, "isher": 2149, "](https://hi.wikipedia.org/wiki/भारत_में": 1696, "▁सदन": 9785, "201": 377, "हु": 1730, "▁depend": 4203, "istribution": 8877, "▁[అ": 2252, "--": 728, "्यु": 8253, ".jpg)](File:": 1915, "ूचना": 2514, "heel": 8547, "▁21": 2570, "▁स्वतन्त्रता": 9258, "ervation": 4005, "9-0)": 3824, "▁B.": 6746, "गुप्त": 6255, "itzel": 7083, "▁[प": 1682, "8/8": 6154, "ll": 1047, "2221": 7265, "_languages": 5245, "▁report": 5224, "alcutta": 8738, "ject": 6465, "्रीका": 3289, "ంటు": 4533, "-4": 695, "ాళు": 4455, "▁मिला": 7793, "ज्ञा": 3294, "▁आ": 657, "ital": 9260, "ండమా": 5980, "▁రాష్ట్ర": 2150, "men": 4317, "_సం": 5437, "▁inequality": 8523, "ark": 1407, "క్య": 3251, "lowing": 4702, "Young": 9002, "सङ्": 9096, "▁వేగంగా": 9921, "▁Ganges": 7260, "త": 239, "Gua": 5083, "eser": 2715, "▁e": 591, "_Pro": 6412, "uck": 9517, ".bnf": 4970, "▁ఐ": 6657, "ంపి": 6078, "ilgiris": 9807, "▁(eds.": 3587, ".fr": 3822, "go": 4427, "/thumb": 971, "tions": 3983, "url": 3828, "roj": 3999, "250px-": 1892, "▁territ": 2058, "५": 206, "/india": 5541, "्रिट": 1704, "lations": 3108, "ollingham": 6433, "ases": 8520, "▁2014.": 5661, "▁May": 3006, "NI": 8446, "Ludden": 3841, "▁दी": 6479, "_%28": 2632, "▁जी": 4771, "angrove": 9338, "monsoon": 7483, "2_": 2239, "cont": 1566, "▁किया।[[": 9667, "sv": 1469, "_9": 5211, "▁Puran": 9361, "▁బా": 6043, "ल्प": 9773, "](https://te.wikipedia.org/wiki/హ": 9263, "ైల్": 9157, "ंगा": 2622, "853": 7134, "▁institu": 9889, "▁dispute": 8862, "▁उन्": 9480, "rief": 5531, "11934238p)": 8872, "▁క": 557, "langoff": 3088, "ी.": 5037, "-1": 412, "▁मे": 2342, "▁trans": 4335, "link=1": 529, "▁भाषा\")[[": 6858, "ूरो": 3943, "ంచి": 5378, "तीस": 9615, "doi": 1894, "_and_depend": 4939, "मी2": 7927, "్యాలె": 7811, "09": 6316, "▁इसकी": 9628, "aharashtra": 8678, "igh": 2188, "ం](https://te.wikipedia.org/wiki/భారతీయ": 6032, "उद्": 8195, "lines": 8543, "स्थाप": 8358, "▁కాంగ్రె": 4558, "▁मध्य": 4766, "व": 178, "](https://te.wikipedia.org/wiki/భారత_జాతీయ": 9799, "atab": 6148, "లు?action=edit&redlink=1": 5957, "arden": 6419, "ace": 2042, "▁Modern": 3752, "▁2020.": 6537, "ources": 3719, "▁long": 3915, "▁\"ब": 1287, "rid": 4679, "ంకణి": 9652, "संधान": 5793, "ubcontinent": 4618, "#cite_": 372, "s18": 5003, "ilbert": 7116, "SAARC_summit": 5242, "▁సభ్య": 9833, "in,": 7769, "96)": 8985, "velop": 1589, "art": 1046, "Hindustan": 5843, "▁im": 5301, "▁\"अ": 1193, "ంకేతిక": 9978, "archive": 726, "_भारत": 1602, "▁he": 4155, "ynast": 4035, "003": 4111, "ेंगलुरु": 5816, "ंद": 1289, "స్త్ర": 1378, "ियर": 5794, "्यट": 2233, "Rowland": 4829, "](https://upload.wikimedia.org/wikipedia/commons/thumb/": 980, "uly": 2031, "](https://web.archive.org/web/200": 4715, "%E0%A4%BE": 8850, "▁ని": 2249, "ct": 702, "▁क्षेत्र\")": 3286, "▁[↑](https://en.wikipedia.org/wiki/India#cite_ref-3": 7857, "फ्रां": 6604, "struction": 7371, "entral": 2430, "ोमाल": 9822, "ing": 410, "▁(भारत)\")": 6476, "▁विभिन्न": 9500, "ooperation": 3439, "81": 3390, "orporation": 9990, "ెర్": 9155, "tec": 2714, "▁अग": 3048, "ార": 379, "ार्कट": 6921, "▁si": 5941, "చ్చేరి": 4984, "िस्तान": 3327, "](https://hi.wikipedia.org/wiki/सिक्किम": 9626, "▁फ़रवरी": 3582, "aceu": 6432, "](https://en.wikipedia.org/wiki/Mughal_": 6130, "वली": 7420, "श्रे": 821, "▁[नेपाल": 5558, "00": 496, "ocs/": 8332, "▁का": 634, "▁सीमा": 6690, "1-0)": 2658, "2.\n": 7569, "out": 1474, "▁cricket": 9311, "ऍथनोलॉग": 7055, "▁kingdoms": 8714, "uary": 1936, "2%29": 8175, "▁form": 2638, "with": 832, "▁వారస": 5971, "ల్ల": 2776, "Harle1994),": 8681, "्षेत्र": 967, "india.gov.in/": 1946, "ovt": 8161, "of": 353, "ivis": 4660, "▁రెండు": 6106, "▁between": 2728, "4).": 3306, "1).": 7646, "▁plain": 7326, "merican": 7355, "▁[History": 7196, "ార్ఖండ్": 6823, "ాలతో": 9302, "acmillan": 7040, "·": 96, "▁[आ": 3121, "▁(1,269,219": 8869, "TO": 6517, "utt": 3713, "_in_New": 5981, "▁Languages": 6003, "2-0)": 2304, "▁धर्म": 2156, "క్స్": 6753, "ammu_and_Kashmir": 9814, "▁religion": 5985, "_का": 4496, "▁may": 9619, "rd": 2180, "aldives": 4741, "▁३": 5551, "में": 2313, "టాన్": 3637, "pt": 2352, "atabase": 8171, "ద్ధం": 4550, "_ఫ": 9006, "akrishnan": 5817, "_language": 1805, "ती": 1452, "▁[पाकिस्तान](https://hi.wikipedia.org/wiki/पाकिस्तान": 5812, "श": 179, "ular": 5658, "9-6": 7652, "▁శా": 2790, "_GDP_(": 5508, "iki": 1552, "](https://te.wikipedia.org/wiki/బంగ్లాదేశ్": 9723, "ఉప": 4145, "](https://en.wikipedia.org/wiki/Te": 4687, "▁Temple": 6974, "लेशिया": 9089, "बंध": 2165, "-a-b": 7539, "స్క": 1796, "▁[*A": 2719, "ports/": 9781, "▁मान": 1912, "्मपुत्र": 9912, "▁కార": 4497, "దక్షిణ_": 4557, "320": 5163, "कारीबौक्स": 5506, "ared/": 4642, "▁\"Andaman": 9547, ":IN": 7653, "news18.com/news/india/national-anthem-of-india-a-brief-on-jana-gana-mana-498576.": 8897, "ally": 4167, "ten": 1808, "\\_parameters": 7635, "▁Commission": 2374, "_Census": 8601, "Taj_Mahal_in_March_2004": 7056, "▁మొద": 4224, "Talbot": 1962, "=1": 505, "▁Some": 9329, "వర్గం:Harv": 4546, "5_": 2970, "లయాళ": 6128, "▁[भारत](https://hi.wikipedia.org/wiki/भारत)": 8412, ".t": 7643, "తం": 842, "ibcode": 5687, "▁kingdom": 6664, "రి": 580, "–సా.శ.పూ.": 2014, "▁historical": 8706, "రాన్": 6739, "ather": 5614, "4]](https://en.wikipedia.org/wiki/India#cite_note-": 5607, "त्": 1486, "तमिल": 2102, "▁జన": 6852, "ir_Force": 8566, "స్త": 1456, "athakali": 8042, "/hind": 5516, "ాల్దీవులు": 6108, "ुट": 3208, "గో": 2045, "que": 5090, "▁201": 493, "tats": 8769, "apan": 4195, "te_": 364, "▁వె": 6758, "hal": 6578, "▁(b)": 7066, ".com/books": 882, "ఐ": 222, "_per_capita": 9988, "హాయం:": 6995, "▁Religion": 8658, "▁deve": 7937, "op": 694, "वैद": 6183, "▁June": 2535, "▁ఉత్తర": 6816, "]](https://hi.wikipedia.org/wiki/भारत#cite_note-10": 6794, "▁India](https://en.wikipedia.org/wiki/G": 5105, "Vi": 2925, "vision": 3164, "hili": 8501, "UCN": 4313, "identi": 537, "](https://te.wikipedia.org/wiki/హిందూ": 9265, "భారతదేశం": 625, "asu": 9276, "▁వు": 9416, "▁पह": 3589, "ed": 360, ".com/news/india/national-an": 8852, "ual": 2736, "_capita": 8646, "1947)": 6279, "▁స్థాన": 3956, "▁व्या": 5190, "rou": 1397, "శాస్త్ర": 4960, "1971": 5841, "▁[భారతదేశంలో": 8076, "దే": 429, "obb": 3033, ".gov.in/": 2894, "▁\"కు": 9211, "▁maint:": 7960, "▁defe": 9565, "](https://hi.wikipedia.org/wiki/पूर्व": 6887, "▁[978-0": 4322, "oln": 6390, "టా": 3423, "हू": 8209, "/g": 5161, "chwart": 2953, "▁Bengal": 4499, "▁స్థానం": 9836, "▁[తమిళనాడు": 9200, "rganisation": 3480, "40px-": 7271, "nami": 9796, "హ": 257, "_D": 1052, "adiverse": 9780, "se": 772, "All": 4418, "▁\"దక్షిణ": 7759, "▁own": 9177, "](https://en.wikipedia.org/wiki/South_Asia": 7903, "ek": 5547, ".htm": 3572, "ive": 2471, "isted": 7783, "జరా": 3885, "ohn": 4214, "](https://en.wikipedia.org/wiki/Ethnic": 9580, "ministrative": 4590, "▁सभ": 3331, "emon": 4387, "▁[Routledge": 7309, "▁कम": 5562, "lief": 5118, "_की_": 5345, "▁period": 3526, ".](https://upload.wikimedia.org/wikipedia/commons/thumb/": 5603, "ख": 149, "s_of_India": 5092, "engal": 2361, "▁[\"World": 8802, "▁region": 2467, "िज़ोरम": 9981, "tection": 6346, "inese": 3832, "9–": 5167, "very": 6382, "▁2018](https://en.wikipedia.org/wiki/India#CITEREF": 3817, ",[[": 3226, "త్స": 3460, "hmed": 5412, "roadcasting": 5724, "▁\"చ": 2767, "▁[3](https://en.wikipedia.org/wiki/India#cite_ref-FOOTNOTE": 9757, "▁Empire\")": 4568, "_विकास": 9864, "etwe": 2555, "ag": 422, "ణిజ్య": 9718, "](https://te.wikipedia.org/wiki/జమ్మూ_కాశ్మీ": 7052, "cond": 3616, "_at": 2337, "▁under": 3856, "overn": 1090, "▁M": 535, "Empire": 3861, "▁दिल्ल": 5344, "anges": 2399, "rchi": 1084, "▁India's": 1505, "ंगीत": 8295, "iary": 5915, "▁स्थित": 4792, "cent": 3106, "nclm.nic.in/index": 9805, "▁దేశాల": 3468, "పచ్చ": 7715, "_(India)": 3453, "ాలను": 5324, "forest": 8575, "▁ఆసియా": 3928, "▁agriculture": 6899, "पान": 4256, "▁विषय": 9498, "ంగీ": 2777, "ीपी": 4084, "ft": 2751, "్రైస్త": 7022, "सा": 915, "](https://en.wikipedia.org/wiki/I": 3544, "▁\"सिक्किम": 9571, "elug": 8577, "129": 3777, "ద": 241, "aze": 9016, "▁సినిమా": 9754, "▁direct": 7366, "▁क्षेत्र": 1112, "▁Re": 2503, "23.": 6480, "Zoroastrian": 8734, "angu": 597, ":**": 5168, "▁\"च": 4462, "ః": 213, "\\_Wiki": 8267, "▁War": 3523, "యునైటెడ్": 4234, "upreme": 6398, "%7C": 5146, "▁అయిన": 6105, "esh": 1096, "▁ri": 2105, "eri": 7777, "हिन्दी": 2937, "BN": 481, "▁साहित्य": 8809, "▁literacy": 9964, "▁परंपरा": 7478, "▁ముఖ్య": 4967, "2003": 1800, "త్య": 1717, "_मंदिर": 4520, "▁cities": 8059, ".wikipedia": 324, "old": 1971, "▁क्रम": 7436, "र्वोच्च": 4308, "▁\"Mughal": 6009, "iger": 5666, "मय": 8202, "▁Te": 4278, "_pe": 5860, "code": 5616, "▁development": 5685, "Sources/": 678, "India_": 6194, "టిక": 4445, "ूप": 1702, "ffer": 4196, "ంతో": 6024, "lease.aspx?rel": 7565, "aranasi": 9882, "▁pe": 1645, "న్‌": 3274, "▁in": 389, "usion": 9308, "స్లామాబాద్": 8061, "ix": 4105, "ఆసియా\")": 9710, "्रह्मपुत्र": 9959, "▁\"इ": 2390, "_15": 5521, "ెలు": 3119, "▁కాశ్మీరు": 6099, "ెల": 2994, "▁(क": 5770, "ऋग्व": 9056, "त्या": 7414, "▁చిత్ర": 6981, "oes": 6333, "lurton": 5089, "మ్మూ": 3017, "▁International": 6406, "n_": 714, "ustral": 2981, "29": 768, ".com": 604, "▁:": 6471, ".b": 3169, "बंधन": 5447, "data.bnf.fr/ark:/12148/cb": 8649, "▁./వర్గం:Wikipedia\\_articles\\_with\\_": 6118, "▁and": 401, "ष्ठ": 9633, "▁मेला": 1571, "थिल": 4138, "51": 2308, "▁कार": 2300, "Articles": 3816, "मुख्य": 4790, "వర": 4858, "▁\"In": 5309, "నిడ్": 9414, "ऋतु": 7411, "▁ము": 2888, "73": 2456, "▁ఎక్స్": 9629, "द्दाख": 9558, "ambodia": 6927, "▁[वि": 4759, "khand": 6330, "६": 207, "](https://doi.org/10.10": 5537, "హు": 4861, "▁Greek": 6776, "▁జ": 1356, "▁कएल": 9236, "ंग्रेज़ी": 2626, "conomic": 1320, "ोली": 6248, "ీర": 9151, "▁तिथि:": 1437, "▁रहे": 7520, "ోల్": 4869, "▁22": 2521, "▁\"प": 1553, "▁టెక్నాలజీ": 5914, "conomy": 1404, "బర్": 6637, "-7": 981, "▁[राजस्थान](https://hi.wikipedia.org/wiki/राजस्थान": 8417, "▁\"స": 2393, "▁మతం\")": 9437, "arty": 5392, ",_": 1349, "▁\"M": 956, "ata": 1229, "టిబె": 5407, "ीमा": 4056, "urry": 6380, "gy": 2519, "ourism": 7244, "▁\"Oxford": 4165, "1/DDW00C-01%20": 8888, "▁\"శ్రీలంక": 9222, "▁मेला\"),": 5424, "ical": 1310, "ర్చ:": 4596, ".jpe": 5665, "_ఇ": 9005, "▁\"जम्मू": 9810, "▁official": 3058, "ricket": 3568, "ना": 520, "▁\"యునైటెడ్": 9224, "▁\"K": 1687, "▁यु": 2529, "](https://te.wikipedia.org/wiki/గో": 6695, "ising": 7782, "▁भ": 1066, "నాగాలాండ్": 7050, ".శ.": 545, "లే": 4152, "ues": 5549, "akers": 7268, "▁\"ఒడి": 9217, "साँच": 1812, "3TRt": 4394, "वाँ": 8337, "thnolog": 2490, "ंस": 7095, "▁गठ": 5989, "1991": 6767, "_se": 8456, "%": 6, "▁समर्थन": 9632, "te": 327, "्रां": 3339, "JP": 3320, "पुस्तक": 1517, "▁./श्रेणी:CS1": 6264, "्यटन\")": 7512, "वार्ता:": 6086, "रात": 6702, "overty": 4921, "▁C.": 4646, "Human": 8906, "▁ప్రధాన": 4519, "edic": 2742, "kb": 6172, "भीमबेट": 5483, "238": 6481, "▁धरोहर": 8342, "▁August": 2454, "Hind": 1192, "▁\"మధ్య": 7967, "▁[భారత": 2868, "▁8": 1856, "▁`": 5910, "्रोत/": 1520, "ధించ": 5285, "428": 8900, "censusindia.gov.in/2011census/PCA/A-2_Data_": 8889, "▁उन": 5367, "िक": 451, "ధ్య": 1585, "द्र": 1570, "amy": 6714, "–123": 6920, "PP": 1924, "विशेष:": 1311, "హిందీ": 3292, "pa": 3092, "వై": 7719, "data.worldbank.org/": 8361, "म्भ": 5792, "\")\"": 5760, "भीम": 4096, "▁Ludden,": 8882, ",_కేంద్రపాలిత": 6037, "uk": 2028, "ूचना-विज्ञान": 8368, "०": 201, "di": 1033, "మెరి": 5454, "సు": 3258, "▁includ": 3363, "](https://web.archive.org/web/201": 1059, "वै": 2757, "577": 5208, ".jpg/250px-S": 8837, "కిస్థాన్": 5395, "पी": 3325, "709": 6150, "क\")": 7097, "उद्यान": 9055, "countries": 2350, "](https://en.wikipedia.org/wiki/Indonesia": 9229, "హిందూ": 2336, "def": 4291, "లు\")": 5342, "ligious": 3167, "త్రిక": 6747, "రాష్ట్రపతి": 3942, "_भारतीय_": 6871, "ఉత్తరా": 6622, "मह": 2274, "धा": 5031, "▁इतिहास": 3337, "▁Gana": 7866, "](https://te.wikipedia.org/wiki/పశ్చిమ": 9765, "లయా": 5901, "Report.pdf)": 6104, "fort": 9452, "_pro": 8637, "रेलू": 4306, "▁[New": 6422, "राज्य": 659, "▁राज्यों": 2017, "ैली": 7103, "दुच्चे": 9995, "रेलू_उत्पाद": 8393, "hy": 2808, "1975": 8949, "▁धी": 7494, "_మ": 2309, "గుప్": 6846, "▁produc": 5420, "▁life": 5063, "ies": 1232, ".svg/": 4115, "सां": 6810, "లో": 547, "mritsar": 6160, "ౌ": 269, "टा": 9067, "51)": 8901, "lection": 1738, "▁వహించ": 9418, "z": 90, "ee": 2642, "तर": 2421, "▁countries": 2225, "ch": 482, "#C": 656, "akes": 8585, "roti": 9370, "▁సంవత్స": 7957, "▁population": 2618, "\\_(": 5774, "स्त": 640, "कृष्ण": 9061, "▁\"హ": 4880, ".svg": 2373, "మిజో": 4937, "चित्र": 1655, "స్తు": 3473, "०००": 8364, "श्मी": 2071, "▁हैं।\n": 4547, "▁continu": 8962, "india.gov.in/india-glance/national-symbols": 9914, "](https://hi.wikipedia.org/wiki/राष्ट्रीय_स": 9245, "▁[*An": 7624, "418": 6512, "్రై": 5931, "\"),[[": 5656, "भुवनेश्वर": 9917, "gion": 6576, "రణ": 2140, "](https://hi.wikipedia.org/wiki/महा": 9568, "▁समाज": 5769, "▁[सा": 4058, "▁religions": 7877, "78": 449, "▁(2018),": 5811, "ंह": 4250, "పై": 9122, "330px-": 2303, "▁\"Doi": 3470, "vironment": 2307, "▁[B": 1035, "\\_with\\_": 2565, "गल": 4252, "▁([help](https://hi.wikipedia.org/wiki/श्रेणी:Harv_and_Sfn_template_errors?action=edit&redlink=1": 2218, "▁मूल": 2874, "▁చెందుతున్న": 9835, "▁ला": 5553, "\\_and\\_Sfn\\_no-target\\_errors\n": 1955, "3-7": 7649, "12": 1613, "दिल्ल": 2756, "oral": 4873, "▁नदियाँ": 9859, "bank": 4399, "रेल": 3417, "డామన్": 6897, "_क्षेत्र?action=edit&redlink=1": 8846, "lish": 1739, ".[[": 653, "](https://hi.wikipedia.org/wiki/उत्तर": 7511, "](https://en.wikipedia.org/wiki/Indus": 7775, "tter": 6344, "ri": 406, "general": 7497, "ర్\")": 3908, "_के_देश": 7485, "ళు": 4153, "धिकार": 2020, "MDD": 8757, "ణ": 238, "50)": 8799, "▁estimate": 5844, "दक्षिण_": 5425, "-317": 4186, "▁అయ": 4518, "पक": 4752, "▁By": 6393, "చే": 2670, "హిత": 9146, "▁शक्ति": 4780, "▁\"विश्व": 8238, "ratic": 6703, "west": 3871, "ेहरा": 9102, "ic": 382, "astern": 3649, "-lord": 3694, "2)\n": 5821, "ोसी": 9106, "](https://hi.wikipedia.org/wiki/पश्चिम": 6266, "rah": 3364, "టు": 2005, "▁बनी": 7455, "▁\"उर्दू": 8354, "ṭ": 275, "ur": 456, "oder": 9469, "5)": 1977, "▁though": 7266, "▁influ": 5107, "_Tamil_Nadu": 7952, "1]](https://en.wikipedia.org/wiki/India#cite_note-FOOTNOTE": 3240, "_per": 7167, "▁जीत": 8789, "ం:": 944, "▁2007](https://en.wikipedia.org/wiki/India#CITEREF": 6431, "raz": 5322, "▁[Iran": 9726, "भारत\n": 4763, "Constituent": 7162, "దీ": 1478, ".IN": 3821, "▁\"List": 1251, "▁[↑](https://hi.wikipedia.org/wiki/भारत#cite_ref-FOOTNOTE": 2687, "शक्ति": 8207, "▁been": 2705, "4": 21, "तृत": 4634, "-hind": 8898, "](https://en.wikipedia.org/wiki/Economy_of_": 3974, "66": 5165, "-1)": 1408, "స్\")": 5948, "_K": 2377, "–120": 8220, "24.": 6395, "ana-m": 8812, "కాశ్మీ": 4542, "22-9": 5360, "▁రాష్ట్రపతి": 6898, "▁is": 856, "▁music": 2827, "2649": 7252, "పాలిటన్": 9566, "भ्स": 6606, "25)": 4069, "▁*[B": 8623, "ेघालय": 6618, "\\_अंग्रेज़ी": 9832, "ted": 766, "▁was": 1189, "action=": 522, "-gana-mana-498576.": 8887, "రాజస్థాన్": 4961, "ini": 2816, "rgani": 4562, "row": 1748, "_and_Sfn_": 1948, "ूनिवर्सिट": 4592, "_Gandhi": 7131, "–సా.శ.18": 4189, "ड़": 761, "](https://te.wikipedia.org/wiki/దస్త్రం:": 2024, "orse": 7744, "s": 83, "▁\"L": 1908, "](https://en.wikipedia.org/wiki/S": 870, "▁figures": 9970, "_ए": 4047, "sources": 6467, "▁(సా.శ.6": 9478, "▁than": 3552, "por": 1806, "architecture": 5359, "_Delhi": 4292, "ञ": 157, "▁oc": 4320, "](https://hi.wikipedia.org/wiki/साँच": 6684, "censusindia.gov.in/2011census": 3702, "▁[V": 4159, "▁are": 1220, "८५७": 6504, "▁painting": 5112, "ikhism": 5690, ")[": 7392, "\\_देशमे\\_अज्ञात\\_मापदण्ड": 6120, "oo": 388, "ాలు": 573, "▁new": 5051, "चित्र:": 2062, "times.indiatimes.com/": 7618, "‎": 281, "क्ष": 669, "i.": 5742, "▁ele": 6756, "▁were": 1862, "హించ": 6645, "](https://hi.wikipedia.org/wiki/तमिल": 5766, "ర్ణాటక": 4990, "University": 939, "_industry_in_India": 9966, "▁St": 1826, "▁major": 8056, "ma": 455, "ोड़": 2860, ".p": 1055, "epartment": 4243, "▁\"బ": 2392, "▁जनगणना": 4207, "lance": 4373, "▁होते": 9857, "▁[Stein": 2934, "araj": 5642, "](Special:BookSources/978-0-": 3676, "1)\n": 8174, "फा": 4635, "Census2011religion": 6507, "_శాస్త్ర": 7671, "▁చ": 708, "epend": 5869, "ంశ": 3878, "తర": 1500, "\\_अ": 3903, "राठ": 3268, "](https://te.wikipedia.org/wiki/బ": 2493, "▁ऑफ": 8392, "द्रौपदी": 6047, "_के_अनुसार_देशों_की_सूची": 7562, "\\_स": 4479, "AsherTalbot2008": 3195, "ి.\n": 2084, "continent": 1893, "గాంధీ": 3285, "har": 860, "▁Y": 2814, "ूर्व": 1352, "िक्षा": 3774, "ార్ట": 2873, "_साम्राज्य": 5204, "archive.org/web/": 807, "ower": 2134, "/http://": 1269, "tition": 4108, "బెంగాలీ": 4965, "_the_": 9671, "mons": 899, "▁ప్రభుత్వ": 8050, "▁अनुसार": 2537, "లి": 1376, "/08/": 8842, "జె": 4148, "।\n": 2813, "▁మొదటి": 8057, "union": 3069, "eds.": 3182, ").\n": 1386, "▁होता": 4559, "ంగా": 1342, "lion": 1741, "▁गण": 2346, "तट": 4254, "erce": 9231, "▁नीति": 8389, "PT": 8450, "ఎల": 9114, "Ex": 6321, "ాల": 404, "▁[राज्य": 5918, "స్వతంత్ర": 9872, "काता": 5370, "్ర": 367, "▁वीं": 9443, "ism": 1155, "_1.": 7168, "नाव": 3213, "▁सूची": 1596, "orthern": 3168, "a": 65, "▁It": 3284, "7)[[": 8439, "्": 198, "्च": 1594, "](https://en.wikipedia.org/wiki/Andaman": 9578, "▁most": 3005, "rajbhasha": 7552, "न](https://hi.wikipedia.org/wiki/": 3416, "ंग्रे": 1098, "_Ch": 7277, "](https://mai.wikipedia.org/wiki/भारत": 2508, "▁Programme": 5705, "▁Ram": 8286, "arlo": 5641, "imes": 2209, "-2_Data_": 8807, "ూరు": 5295, "ु": 189, "▁చరిత్ర\")": 2155, "ी\"))": 6488, "िण": 1168, "▁[బంగ్లాదేశ్": 9702, "ँकि": 7408, "\\_country\\_with\\_": 7633, "CL": 4827, "##": 859, "ర": 250, "▁[↑](https://en.wikipedia.org/wiki/India#cite_ref-35": 9428, "్": 270, "aman": 2106, "125": 5162, "thumb": 965, "▁बार": 6750, "్రిటిష్": 6957, "low": 2177, "र्ग": 5942, "గణతంత్ర_": 9840, "_term": 7090, "II": 3607, "he": 470, "atus": 3085, "them": 4380, "भि": 1237, "](https://upload.wikimedia.org/wikipedia/": 966, "igration": 6749, "▁w": 507, "की": 2121, "▁ab": 2932, "थुरा": 9074, "మా": 987, "](https://te.wikipedia.org/wiki/హిందీ": 9267, "क्रम": 9060, "opulation": 1130, "स्ट": 2365, "tures": 5352, "tlas": 7144, "ैन": 2003, "ండు": 2681, "ains": 4346, "ology": 2574, "▁this": 2184, "▁ను": 2085, "एं": 2364, "भीमबेटका": 5513, "▁Before": 6989, "cutt": 8461, "या": 438, "-to-": 3052, "OVID-19": 8732, "Fisher": 3091, "economictimes.indiatimes.com/": 7629, "▁ई": 3210, "▁पुरालेखित।,": 5445, "▁had": 3160, "▁९": 6656, "▁poli": 9300, "▁ऑ": 4262, "▁Constitution": 3047, "▁*2011": 8795, "▁Dance": 7249, "istrar": 3547, "urve": 5334, "▁2006](https://en.wikipedia.org/wiki/India#CITEREF": 3141, "it": 366, "a_d": 5677, "ό": 131, "స్కృతి": 2605, "▁\"Special:BookSources/978-0-521": 7287, "न्त": 1657, "_2009": 9012, "▁\"राजस्थान\")": 8419, "orth": 1721, "_वि": 9009, "_Ram": 7300, "Tarlo": 6563, "స": 256, "राष्ट्रपति](https://hi.wikipedia.org/wiki/भारत_के_": 9740, "▁ఉన్న": 2897, "▁non-": 4918, "ड़िशा": 8313, "fi": 491, "▁अपनी": 7516, "▁Thomas": 8369, "ing,": 7595, "opulation_T": 5682, "St": 4398, "ए": 143, "hild": 5923, "▁school": 6706, "_128": 5585, "▁कोर": 5364, "nglish": 2109, "फ्रीका": 4140, "राष्ट्रीय": 1508, "▁A": 421, "ूनाइटेड": 8216, "_De": 2899, "oday": 9470, "_కాల": 6903, "▁Amb": 9321, "_के_राज्य": 1913, "m2": 5248, "न्दोल": 4509, "ardian": 8503, "cean": 3370, "_the": 1957, "Davidson2014-p": 8118, "इप्र": 4433, "▁हो": 1845, "▁प्लेट": 6705, "ोबार": 9996, "7/": 2986, "78)": 9349, "पुर": 1481, "▁./వర్గం:Pages\\_using\\_infobox": 9648, "▁लेकर": 8394, "మిళ": 2263, "తెలంగాణ": 7035, "▁([help](https://hi.wikipedia.org/wiki/श्रेणी:Harv": 2215, "]](https://hi.wikipedia.org/wiki/भारत#cite_note-FOOTNOTEStein1998": 4788, "ov": 816, "AAAAMAAJ": 9492, "roupadi": 8829, "ఏప్రిల్": 9115, "मनिरपेक्ष": 9537, "धार": 1214, "rain": 3408, "ద్": 927, "]](https://hi.wikipedia.org/wiki/भारत#cite_note-pib": 5795, "मीन": 9553, "cy": 1036, "etra": 3796, "](https://hi.wikipedia.org/wiki/पूर्वी_": 9979, "▁[ज": 2866, "y\")": 2851, "▁Organization": 6806, "▁सूचना": 4765, "ంటర్నేషనల్": 9552, "ravidian": 7003, "formatics": 7263, "ZvaGuaJIJ": 5155, "ी](https://hi.wikipedia.org/wiki/अ": 3134, "](https://te.wikipedia.org/wiki/ఒడి": 9271, "](https://en.wikipedia.org/wiki/The": 3358, "▁ప్రభు": 3923, "–సా.శ.17": 5997, "udi": 4923, "▁India\").": 4342, "8+": 6559, "▁[द": 4758, "250": 1424, "bc": 5025, "▁ref": 3540, "orial": 7584, "ssam": 4538, "▁dist": 9377, "ेर-": 6907, "▁दशक": 4774, "oogle": 866, "टन": 9066, "▁\"భారత": 2489, "any": 1757, "विश": 1073, "3–": 7570, "▁अधिक": 2703, "ission": 1887, "n": 78, "δ": 126, "ʼ": 121, "π": 129, "ohenjo-daro": 8129, "▁కారణంగా": 8064, "శు": 6644, "ज": 155, "▁క్రీ": 2773, "▁j": 3429, "min": 3404, "స్?action=edit&redlink=1": 9331, "ly": 628, "](Template:": 5917, "ओं": 1882, "▁को": 775, "▁[Russia": 8640, ".org/wikipedia/": 961, "Spear199024": 6972, "D": 36, "▁पूर्व": 2496, "-language\\_sources\\_(en": 7559, "](https://hi.wikipedia.org/wiki/भारत#cite_ref-FOOTNOTE": 3758, "120": 1512, "-23": 3401, "ులు": 790, "ustice": 7226, "बन": 7695, "▁maj": 4211, "HDR": 8755, "▁2004": 3668, "ot": 1016, "ak": 746, "लाई": 2433, "](https://hi.wikipedia.org/wiki/ह": 6683, "uring_O": 9656, "ోల్‌కా": 6997, "itary": 4169, "▁country": 4699, "vis": 2025, "▁sh": 3269, "most": 5826, "lc": 8909, ".[[10": 9438, "కి": 1105, "outledge": 2452, "liament": 2466, "िरपे": 4085, "▁స్టాక్": 9701, "శ్చిమ": 3301, "we": 462, "att": 2244, "వాహన": 9528, "▁including": 6437, "ational_P": 7963, "7C": 5851, "ning": 3783, "illi": 7115, "rishn": 4391, "▁నిర్వ": 8006, "▁sp": 4476, "_45": 7578, "versity": 848, "censusindia.gov.in/2011census/P": 8853, "▁जै": 8280, "▁national": 3074, "▁military": 7322, "▁गई": 5788, "isni": 8780, "]](https://te.wikipedia.org/wiki/భారతదేశం#cite_note-": 1765, "▁Be": 4705, "▁प्रदेश\")": 2709, "ం](https://te.wikipedia.org/wiki/అ": 7943, "काल": 2458, "न्डिया": 7837, "reme": 4168, "గోళ": 6059, "ంద్ర": 1591, "▁Social": 8533, "estern": 2616, "▁\"": 329, "▁\"చైనా": 8020, "▁Mar": 7118, "▁Population": 2607, "▁\"भारतक": 5351, "▁बहु": 2883, "_2": 4103, "196": 1677, "ender": 5691, "िशा": 5413, "–సా.శ.13": 4516, "र्धन": 9304, "भाई": 5782, "శ్వాస": 9952, "ండియా": 5417, ".org*.": 8858, "ong": 969, "ord": 1200, "▁भाग": 5757, "▁సంఘ": 6859, "up": 655, "▁\"दिल्ली\")": 8418, "काश": 4779, "नेट": 7479, "▁భ": 4457, "](https://mai.wikipedia.org/wiki/भारतक": 6075, "De": 5240, "](https://te.wikipedia.org/wiki/ఇండో": 9736, "▁वार": 4002, "k-e": 9029, "हायता": 4584, "arge": 3647, "▁today": 9393, "ortal": 2654, "ఆఫ్ఘ": 3969, "▁నుండి": 2412, "anat": 5920, "एशिया": 2527, "शास": 2037, "ीप": 1136, "▁आदि": 9441, "▁K.": 3831, "र्थन": 9631, "_Per": 9510, "*](https://books.google.com/books?id=": 1149, "ंग्रेज़ी_भाषा": 5427, "▁fig": 6726, "_క": 2243, "7]](https://en.wikipedia.org/wiki/India#cite_note-FOOTNOTE": 8981, "▁de": 1195, "▁కో": 5963, "-415": 6399, "ाल्दिभ्स": 6991, "7-0": 3606, "▁राजधान": 5196, "▁[↑](https://hi.wikipedia.org/wiki/भारत#cite_ref-Combined": 8334, "మాచల్": 4928, "ashi": 5935, "2).": 3402, "www": 683, "▁(2006": 4806, "▁Desert": 8564, "tripura": 9045, "▁member": 4492, "MetcalfMetcalf201": 5060, "3),": 4628, "ండ": 690, "Vijayanagar": 8743, "▁शु": 5053, "ैद": 1807, "▁Con": 4647, "](https://": 316, "క్కువ": 4575, "▁मौसम": 8399, "_न्या": 6095, "pture": 5629, "times.com/": 2923, "▁\"पंजाबी": 9877, "ob": 1485, "ought": 8518, "230": 2463, "ary": 718, "पि": 6602, "ाल्": 4769, "](https://hi.wikipedia.org/wiki/प": 1884, "ras": 3784, "](https://te.wikipedia.org/wiki/G": 6693, "cal": 686, "_के_": 936, "ose": 2810, "▁Court": 9316, "resent": 3717, "akrishn": 5787, "508": 7466, "Pro": 4123, "▁met": 9372, "igenous": 7248, "प्र": 833, "_के_आधार_पर_भारत_के_राज्यों_की_सूची": 5459, "ocuments/": 8170, "Ge": 8442, "_Mar": 8940, "▁Pl": 2260, "ికలు": 9490, "-25": 3838, "120]](https://hi.wikipedia.org/wiki/भारत#cite_note-langoff-1": 6258, "ास": 673, "ush": 9307, "డీ": 9117, "▁Census": 2920, "ote": 2351, "्यपालिका": 8254, "▁market": 7833, "ార్లమెంటరీ": 9955, "ummit\")": 2295, "ms": 1853, ".ni": 4822, "▁(సా.శ.పూ.1200–సా.శ.పూ.": 8128, "▁October": 2408, "▁\"ఢిల్లీ\")": 9900, "రో": 3426, "▁x": 9162, "స్సామీ": 9787, "ature": 5113, "▁पर्यटन\")": 9488, "▁विदेशी": 7548, "ah": 1576, "▁పాత్ర": 8018, "बो": 9084, "▁India\"](https://web.archive.org/web/201": 7110, "erala": 3763, "pr": 2338, "EO": 3345, "టీ": 3636, "▁जून": 3446, "▁ప": 443, "pur": 2943, "ISBN": 487, "▁इसके": 3768, "्ल": 1441, "rame": 8259, "शक": 3876, "ांग्लादेश": 5070, "ారు.\n": 5438, "u": 85, "వెను": 6959, ".pdf)": 1490, "▁[\"": 776, "्वार": 2328, "ंग्रेजी": 3678, "allav": 7921, "led": 1813, "ऍथ": 6589, "ritannic": 2464, "హాకీ": 9684, "hattisgarh": 7148, "ా": 258, "work": 4107, "i": 73, "urasian": 8541, "फ": 170, "తై": 9119, "](https://www.wikidata": 8721, "2011religion": 6491, "abour": 8581, "lease": 7443, "_dance": 7991, "es.": 6519, "_Shankar": 8682, "inancial": 8125, "టు](http://": 9677, "ూచ": 3643, "mt": 9031, "गाली": 9062, "▁से](https://": 8301, "▁\"ब्रिटिश": 5195, "भूटान": 8411, "▁[Dyson": 5692, "ులు](https://te.wikipedia.org/wiki/": 2330, "▁పట్ట": 3907, "सित": 9095, "has": 3151, "▁4": 1728, "bercu": 7865, "_క్రీడ": 9695, "ublications/": 8343, "web": 546, "दाय": 8834, "17": 844, "ట్టు": 4946, ".html": 2735, "వు": 1969, "ankar": 3722, "yprus": 8736, "पातकाल": 6958, "▁(సా.శ.": 781, "▁प्रतिशत": 7535, "▁[हिन्द": 2389, "len": 4249, "జో": 4850, "रत": 4839, "స్రా": 7725, "▁Asia:": 7074, "chwartzberg": 2958, "_చరిత్ర": 1873, "▁था।": 5069, "Ethnologue": 4671, "_India": 642, "▁Se": 3513, "ిటన్": 9149, "9]](https://en.wikipedia.org/wiki/India#cite_note-FOOTNOTE": 7651, "a/a": 7081, "▁([help": 1877, "▁3,": 3853, "bot": 1443, "▁within": 6021, "▁ro": 3353, "▁మతము\"),": 8041, "▁par": 2325, "\\_मापदण्ड": 5504, "ʱ": 120, "#": 4, "▁./श्रेणी:जानकारीबौक्स\\_देशमे\\_अज्ञात\\_मापदण्डसभ\\_सहितक\\_पृष्ठसभ#": 6135, "Metcalf": 815, "ోర్చుగ": 8133, ".net": 7528, "ార్లమెంట": 6117, "नो": 7098, "alk:": 7207, "इ": 137, "nus": 9033, "సార్": 9145, "arget": 1190, "_स्": 8299, "ని": 596, "theast": 3066, "▁[United": 3787, "करण": 4218, "▁[En": 9612, "depend": 2707, "losis": 8069, "ोत्तर": 8218, "ీస్": 5293, "यण": 9086, "emen": 7908, "▁ओ": 3581, "దేశ్": 1252, "▁వెబ్": 8104, "▁సామ్రాజ్య": 4929, "them-of-india": 8857, "▁now": 6832, "otal": 6824, "pts": 9038, "\\_no-t": 1940, "▁పాలన": 8062, "త్తర": 2511, "िमोर": 9729, "ार्ट": 2492, "▁[Kulke": 5840, "orld": 793, "–119": 9730, "ूर्ण": 4794, "ू": 190, "126": 6317, "-national": 5847, "▁made": 4651, "ారి": 1911, "_SCO": 9446, "aproban": 9514, "ఫి": 9124, "िप": 3326, "లం": 5290, "]](https://hi.wikipedia.org/wiki/भारत#cite_note-1": 3130, "ureau": 6280, "ండమాన్": 7023, "Ar": 2376, "%E0%A4%B": 3295, "ained": 8595, "co": 3036, "ानगर": 5323, "fghan": 4232, "న్‌ఫర్మేషన్": 4993, "_చరిత్ర?action=edit&redlink=1": 4220, ".": 15, "▁\"महाराष्ट्र": 6817, "-4\").": 9453, "itar": 7209, "archive.org/": 770, "▁\"Special:BookSources/978-1": 2211, "▁మధ్య": 3010}